▁␝ 100
st 100
in 100
re 100
de 100
▁= 100
-> 100
); 100
at 100
er 100
▁␍ 100
▁* 100
▁i 100
ct 100
dev 100
▁( 100
se 100
on 100
le 100
▁st 100
ru 100
▁c 100
or 100
▁re 100
ruct 100
▁␜ 100
ic 100
▁s 100
▁t 100
▁if 100
en 100
▁p 100
▁{ 100
▁in 100
ma 100
▁0 100
▁␞ 100
it 100
al 100
lo 100
ad 100
▁␌ 100
ar 100
id 100
▁␎ 100
an 100
▁f 100
un 100
▁& 100
ne 100
ge 100
▁ret 100
▁b 100
me 100
ck 100
ur 100
▁int 100
si 100
ch 100
ro 100
▁struct 100
▁d 100
▁v 100
▁stat 100
struct 100
ri 100
▁" 100
▁} 100
ode 100
▁static 100
set 100
00 100
▁m 100
he 100
pu 100
of 100
urn 100
ate 100
tr 100
te 100
la 100
▁< 100
us 100
▁return 100
▁n 100
ata 100
ER 100
sk 100
IN 100
ze 100
ce 100
ing 100
io 100
lock 100
)) 100
▁r 100
▁a 100
ue 100
▁# 100
mp 100
dr 100
RE 100
▁e 100
op 100
▁w 100
err 100
▁u 100
fi 100
riv 100
pa 100
▁1 100
", 100
ice 100
pe 100
(& 100
▁| 100
li 100
▁- 100
ine 100
co 100
data 100
con 100
__ 100
oid 100
bu 100
is 100
gs 100
ble 100
device 100
ON 100
MA 100
up 100
ve 100
ot 100
DE 100
ir 100
ion 100
▁S 100
ent 100
▁h 100
fs 100
fo 100
▁. 100
def 100
get 100
32 100
▁+ 100
int 100
len 100
map 100
▁/ 100
EN 100
▁P 100
ss 100
AT 100
ort 100
ol 100
), 100
▁the 100
LL 100
▁N 100
▁*/ 100
▁C 100
cl 100
ame 100
▁void 100
able 100
ut 100
ap 100
▁== 100
ci 100
▁(! 100
▁I 100
▁l 100
xt 100
ase 100
and 100
sig 100
▁g 100
ST 100
sc 100
▁con 100
ed 100
um 100
size 100
if 100
▁A 100
priv 100
▁to 100
ned 100
▁/* 100
nt 100
to 100
ul 100
info 100
▁un 100
buf 100
md 100
▁dev 100
addr 100
▁__ 100
▁k 100
reg 100
TR 100
ip 100
▁0; 100
ty 100
▁err 100
signed 100
ite 100
define 100
▁for 100
port 100
▁si 100
▁M 100
am 100
OR 100
▁% 100
cpu 100
as 100
ULL 100
1_ 100
lags 100
th 100
il 100
end 100
▁! 100
2_ 100
loc 100
que 100
IT 100
page 100
pro 100
el 100
rite 100
▁D 100
▁of 100
mem 100
▁ne 100
LE 100
res 100
▁&& 100
read 100
0_ 100
SE 100
▁size 100
val 100
ree 100
init 100
ID 100
art 100
▁o 100
ter 100
name 100
nd 100
▁> 100
▁T 100
SI 100
▁NULL 100
FI 100
▁unsigned 100
list 100
AR 100
state 100
▁ch 100
ow 100
irq 100
CE 100
ti 100
pi 100
skb 100
64 100
try 100
▁co 100
▁B 100
add 100
mm 100
ta 100
mo 100
for 100
)); 100
ile 100
US 100
AD 100
▁R 100
pl 100
ra 100
IO 100
(" 100
write 100
rc 100
5_ 100
▁2 100
rt 100
flags 100
type 100
▁ma 100
unt 100
AL 100
di 100
ph 100
▁is 100
AN 100
ong 100
▁G 100
▁reg 100
hw 100
CH 100
vm 100
pt 100
lin 100
▁de 100
▁0) 100
ke 100
stat 100
▁0, 100
put 100
alloc 100
AG 100
ms 100
ff 100
all 100
▁se 100
rm 100
req 100
IS 100
16 100
es 100
▁const 100
▁!= 100
ME 100
▁sk 100
clk 100
ack 100
CT 100
ist 100
02 100
age 100
ver 100
-- 100
fset 100
CI 100
sy 100
ERR 100
so 100
▁long 100
▁|| 100
"); 100
▁x 100
4_ 100
EL 100
pdev 100
REG 100
▁th 100
per 100
out 100
▁}, 100
et 100
▁F 100
ev 100
code 100
ach 100
be 100
free 100
bit 100
ret 100
ub 100
++ 100
sh 100
LO 100
▁E 100
cp 100
DEV 100
ll 100
0, 100
queue 100
lk 100
▁en 100
▁at 100
pc 100
fig 100
bj 100
ig 100
po 100
ctx 100
dma 100
tx 100
nel 100
ation 100
rq 100
mask 100
rint 100
ard 100
0000 100
ult 100
wa 100
node 100
mode 100
ops 100
clu 100
3_ 100
PE 100
chan 100
base 100
par 100
rent 100
inode 100
▁val 100
▁el 100
▁device 100
RO 100
buff 100
net 100
sp 100
ction 100
pio 100
ONFI 100
ONFIG 100
ost 100
▁be 100
CO 100
ux 100
ZE 100
bo 100
UT 100
form 100
▁sizeof 100
▁else 100
CK 100
der 100
cmd 100
UN 100
usb 100
clude 100
rx 100
ex 100
▁on 100
SIZE 100
num 100
INT 100
▁}; 100
start 100
▁<< 100
▁drm 100
FS 100
ET 100
▁(( 100
SK 100
▁|= 100
river 100
>; 100
▁H 100
91 100
ister 100
pin 100
▁set 100
▁bo 100
CL 100
ans 100
▁W 100
▁net 100
rl 100
count 100
include 100
quest 100
line 100
6_ 100
dis 100
ac 100
low 100
phy 100
attr 100
entry 100
▁and 100
dex 100
MO 100
▁q 100
fa 100
sb 100
ring 100
10 100
▁case 100
▁mem 100
▁data 100
link 100
▁V 100
no 100
block 100
file 100
cs 100
CA 100
CP 100
▁len 100
obj 100
desc 100
ork 100
1, 100
adap 100
▁bu 100
ind 100
ctrl 100
▁char 100
]. 100
ctor 100
IF 100
IC 100
SS 100
table 100
pf 100
▁cpu 100
config 100
▁pro 100
dp 100
▁rc 100
▁+= 100
SET 100
MP 100
nc 100
offset 100
yte 100
rtc 100
status 100
▁wh 100
▁skb 100
bus 100
]; 100
hand 100
▁L 100
DR 100
void 100
ERN 100
time 100
max 100
key 100
lay 100
chip 100
do 100
mc 100
IR 100
tro 100
one 100
AB 100
db 100
IP 100
event 100
atch 100
lx 100
▁4 100
▁ar 100
fe 100
▁: 100
▁0); 100
▁O 100
sion 100
802 100
pci 100
du 100
11_ 100
▁*) 100
ht 100
sa 100
FP 100
sw 100
000 100
ress 100
roup 100
ix 100
ute 100
▁page 100
FF 100
ICE 100
BU 100
KERN 100
UP 100
▁rt 100
print 100
AGE 100
ED 100
ime 100
MAX 100
MASK 100
rom 100
adapter 100
SH 100
atform 100
() 100
▁not 100
mit 100
red 100
mt 100
enable 100
urce 100
buffer 100
TY 100
mple 100
ath 100
[0 100
SP 100
user 100
inter 100
date 100
rea 100
om 100
ctl 100
msg 100
▁got 100
▁pci 100
move 100
▁out 100
▁bool 100
STAT 100
12 100
NO 100
ORT 100
gpio 100
ache 100
cur 100
▁sh 100
DEVICE 100
CM 100
USB 100
cf 100
sub 100
▁goto 100
▁CONFIG 100
EX 100
ure 100
log 100
FL 100
use 100
"; 100
▁so 100
da 100
▁add 100
pre 100
unlock 100
trans 100
new 100
▁snd 100
▁intel 100
▁pl 100
CON 100
register 100
opt 100
pm 100
OL 100
ive 100
xx 100
RA 100
ser 100
host 100
ING 100
▁io 100
▁error 100
ns 100
work 100
sg 100
▁ext 100
lient 100
▁[ 100
ly 100
group 100
fun 100
++) 100
ower 100
cess 100
ep 100
32_ 100
regs 100
80211_ 100
IG 100
gr 100
▁3 100
▁flags 100
driver 100
GP 100
hdr 100
VAL 100
ry 100
SC 100
/* 100
head 100
bug 100
index 100
▁1; 100
TYPE 100
request 100
old 100
param 100
wl 100
ange 100
▁ex 100
ith 100
TI 100
915_ 100
SY 100
dir 100
ok 100
mi 100
qu 100
▁mo 100
mer 100
}, 100
▁AR 100
ext 100
▁irq 100
rate 100
ee 100
OP 100
text 100
▁PCI 100
reate 100
▁8 100
▁list 100
32( 100
linux 100
== 100
ptr 100
ABLE 100
ds 100
iled 100
ytes 100
▁_ 100
▁do 100
client 100
hy 100
gpu 100
▁al 100
root 100
(* 100
▁status 100
▁U 100
---- 100
ps 100
crtc 100
cap 100
utex 100
trol 100
▁new 100
pend 100
)-> 100
▁sy 100
(); 100
▁dma 100
ect 100
has 100
ity 100
▁le 100
▁sc 100
unsigned 100
▁per 100
▁? 100
▁get 100
alse 100
ted 100
▁>> 100
vcpu 100
rame 100
▁~ 100
▁mlx 100
▁res 100
PORT 100
▁GFP 100
rue 100
UL 100
IV 100
CLK 100
▁fa 100
SO 100
pages 100
CR 100
idx 100
▁or 100
che 100
cache 100
▁use 100
ype 100
handle 100
ial 100
▁false 100
▁K 100
main 100
ts 100
gth 100
CTR 100
mac 100
▁ac 100
own 100
11 100
▁>= 100
▁max 100
back 100
▁offset 100
reak 100
load 100
▁te 100
dd 100
▁spin 100
(0 100
[] 100
rupt 100
itch 100
drv 100
** 100
KERNEL 100
WR 100
ream 100
▁usb 100
▁X 100
ATA 100
▁1, 100
und 100
2, 100
▁true 100
MODE 100
SR 100
▁j 100
ader 100
▁inline 100
MI 100
MEM 100
com 100
trfs 100
cb 100
ator 100
40 100
printf 100
▁file 100
comp 100
▁num 100
ENT 100
TE 100
vi 100
opy 100
dbg 100
AP 100
nr 100
conne 100
probe 100
END 100
CTRL 100
▁platform 100
▁break 100
off 100
▁inter 100
cle 100
▁with 100
core 100
], 100
ag 100
▁port 100
FA 100
BIT 100
MAP 100
os 100
test 100
ec 100
8_ 100
▁as 100
check 100
bl 100
00_ 100
PRO 100
ment 100
channel 100
▁clk 100
tri 100
FO 100
▁sup 100
▁id 100
4, 100
▁inode 100
card 100
update 100
hci 100
TO 100
▁pr 100
fp 100
cfg 100
error 100
▁this 100
min 100
▁@ 100
ref 100
ca 100
▁it 100
ib 100
act 100
▁btrfs 100
valid 100
reset 100
▁addr 100
▁\ 100
▁me 100
AS 100
create 100
FLAG 100
fw 100
TH 100
tp 100
TX 100
cm 100
▁1); 100
▁write 100
ud 100
▁up 100
not 100
ENO 100
cd 100
▁comp 100
LOCK 100
debug 100
ITE 100
▁read 100
BUG 100
▁type 100
header 100
ault 100
stream 100
default 100
ntry 100
▁ip 100
MB 100
25 100
▁priv 100
INVAL 100
lease 100
disable 100
(( 100
ATE 100
vel 100
omic 100
timer 100
src 100
ill 100
fl 100
func 100
value 100
▁ev 100
eee 100
▁while 100
im 100
sys 100
clock 100
wr 100
▁mt 100
▁$ 100
codec 100
tra 100
HY 100
▁mode 100
▁<& 100
▁value 100
▁nv 100
ernel 100
fd 100
sd 100
▁we 100
ane 100
))) 100
▁an 100
DMA 100
▁kvm 100
DU 100
▁clock 100
▁buf 100
str 100
bits 100
BA 100
▁USB 100
spe 100
READ 100
fb 100
▁kfree 100
ware 100
next 100
sync 100
last 100
mmu 100
20 100
▁op 100
parent 100
MC 100
freq 100
path 100
ore 100
control 100
context 100
▁from 100
OUT 100
soc 100
private 100
▁start 100
▁&= 100
ART 100
bd 100
wait 100
]); 100
lot 100
▁cur 100
ource 100
PF 100
CONFIG 100
▁cmd 100
VER 100
▁map 100
sta 100
arg 100
params 100
▁phy 100
em 100
CTL 100
▁xfs 100
ping 100
ba 100
br 100
▁print 100
QU 100
ched 100
▁' 100
bytes 100
LA 100
sup 100
08 100
power 100
ild 100
▁count 100
mdgpu 100
call 100
seq 100
gen 100
28 100
100 100
local 100
▁end 100
▁sw 100
RX 100
bp 100
ory 100
▁5 100
▁par 100
ely 100
pol 100
▁devm 100
▁bit 100
resource 100
▁"% 100
RM 100
pipe 100
EY 100
bio 100
lik 100
cket 100
ulator 100
wm 100
likely 100
MS 100
task 100
▁that 100
each 100
const 100
OW 100
ern 100
3, 100
ify 100
cc 100
15 100
pace 100
▁ta 100
ust 100
dst 100
IFT 100
▁enum 100
spi 100
ler 100
object 100
SHIFT 100
PER 100
sn 100
frame 100
remove 100
OFF 100
UR 100
24 100
pg 100
▁time 100
blk 100
DEBUG 100
▁ath 100
88 100
rec 100
dule 100
▁by 100
PCI 100
6, 100
▁info 100
▁state 100
stats 100
ink 100
PC 100
ush 100
dt 100
AC 100
ord 100
▁EX 100
send 100
lan 100
DATA 100
pos 100
endif 100
arget 100
▁can 100
EINVAL 100
comm 100
xff 100
cnt 100
ain 100
fn 100
7_ 100
mb 100
mal 100
led 100
GE 100
ifi 100
ave 100
sel 100
▁iwl 100
▁PAGE 100
va 100
64_ 100
CF 100
pd 100
lag 100
match 100
ber 100
MD 100
adev 100
▁init 100
tel 100
[1 100
▁1) 100
setup 100
INFO 100
ati 100
conn 100
RQ 100
LIN 100
ster 100
[0] 100
▁ieee 100
domain 100
cpy 100
ded 100
▁wa 100
CAP 100
++; 100
atible 100
CMD 100
ght 100
13 100
▁z 100
tt 100
▁gpio 100
ey 100
heck 100
hash 100
▁seq 100
▁The 100
range 100
▁no 100
pte 100
UM 100
▁tx 100
▁driver 100
▁rx 100
▁tmp 100
ND 100
IRQ 100
ION 100
ance 100
▁di 100
enc 100
irt 100
uld 100
▁Re 100
▁ad 100
bi 100
sm 100
▁hand 100
lp 100
=% 100
VM 100
▁req 100
▁mutex 100
▁amdgpu 100
medi 100
fc 100
PI 100
wid 100
PAGE 100
00, 100
ft 100
▁ra 100
ffer 100
▁pin 100
▁alloc 100
MU 100
store 100
address 100
18 100
arn 100
▁request 100
IL 100
WRITE 100
▁fun 100
▁IRQ 100
▁tra 100
▁are 100
▁config 100
eld 100
zalloc 100
hd 100
lect 100
lass 100
DI 100
GPIO 100
unlikely 100
PR 100
▁<0 100
▁block 100
ions 100
ATTR 100
▁free 100
release 100
MT 100
▁Th 100
▁vm 100
fer 100
▁interrupt 100
face 100
limit 100
level 100
▁GP 100
ated 100
cr 100
▁16 100
length 100
▁he 100
▁chan 100
coder 100
ARN 100
ADDR 100
drvdata 100
EXT 100
1; 100
np 100
DIS 100
run 100
sock 100
sizeof 100
▁dis 100
from 100
1) 100
intel 100
▁name 100
▁enable 100
80 100
▁hw 100
▁min 100
▁register 100
VE 100
▁REG 100
▁mm 100
LEN 100
tmp 100
▁nr 100
oc 100
▁<= 100
vma 100
pll 100
ull 100
ENABLE 100
PA 100
ume 100
nal 100
▁key 100
thread 100
arch 100
▁nfs 100
play 100
▁pre 100
▁fix 100
▁uint 100
▁extern 100
▁tr 100
vc 100
kt 100
MAC 100
dest 100
▁support 100
▁node 100
mod 100
unter 100
PIN 100
▁desc 100
gine 100
col 100
▁buffer 100
UG 100
qp 100
ULT 100
source 100
OC 100
mand 100
XX 100
==== 100
)( 100
▁call 100
ings 100
▁memcpy 100
▁check 100
▁mask 100
▁lo 100
9_ 100
flow 100
▁perf 100
▁address 100
IM 100
handler 100
CFG 100
tree 100
fx 100
space 100
rdev 100
dm 100
NA 100
▁spe 100
DULE 100
▁switch 100
ifdef 100
uc 100
sec 100
eth 100
OT 100
LK 100
▁obj 100
▁event 100
▁failed 100
PHY 100
open 100
runt 100
▁This 100
runtime 100
urb 100
)\ 100
▁y 100
vol 100
CPU 100
pp 100
ence 100
sr 100
trace 100
LX 100
ah 100
plane 100
ses 100
ould 100
-------- 100
DP 100
hdev 100
EV 100
▁has 100
NT 100
gem 100
tl 100
bh 100
input 100
▁acpi 100
▁index 100
▁pm 100
▁cle 100
active 100
STATUS 100
fix 100
76 100
find 100
PU 100
AND 100
BASE 100
5, 100
por 100
10_ 100
pcm 100
▁gen 100
drm 100
ries 100
save 100
EE 100
SA 100
exit 100
▁PTR 100
▁lock 100
▁sub 100
INIT 100
RAY 100
1); 100
netdev 100
▁pa 100
rk 100
by 100
tf 100
ply 100
▁6 100
width 100
▁blk 100
dentry 100
igh 100
▁printk 100
ize 100
point 100
▁regulator 100
dc 100
fra 100
bute 100
connector 100
otal 100
BE 100
iter 100
ONE 100
ant 100
▁(* 100
▁task 100
▁ctx 100
▁RT 100
ryp 100
▁DRM 100
ript 100
mapping 100
▁omap 100
7, 100
div 100
action 100
platform 100
▁Q 100
WA 100
**** 100
copy 100
ller 100
scan 100
In 100
▁code 100
VEND 100
▁function 100
temp 100
bs 100
LAN 100
▁po 100
mutex 100
DB 100
conf 100
▁netdev 100
04 100
GET 100
SW 100
0) 100
▁compatible 100
del 100
HE 100
VENDOR 100
CHAN 100
args 100
IGH 100
DEF 100
▁BIT 100
stop 100
delay 100
19 100
pool 100
gg 100
troller 100
▁base 100
▁entry 100
ray 100
version 100
86 100
▁old 100
RES 100
▁sock 100
▁default 100
tm 100
rs 100
unk 100
feat 100
atomic 100
ug 100
8, 100
▁ro 100
23 100
▁will 100
(! 100
CHE 100
warn 100
OFFSET 100
▁chip 100
current 100
oth 100
NE 100
ight 100
ha 100
pri 100
dw 100
▁fir 100
CS 100
cell 100
STATE 100
ound 100
inst 100
▁fi 100
proto 100
wq 100
▁pi 100
▁pos 100
ank 100
ide 100
rect 100
PO 100
TRA 100
dai 100
ifier 100
af 100
sing 100
rypto 100
DA 100
ures 100
clear 100
lave 100
ported 100
INTEL 100
slot 100
WL 100
oft 100
fil 100
▁rtl 100
▁Add 100
35 100
encoder 100
PUT 100
kernel 100
▁trace 100
tribute 100
format 100
char 100
idge 100
ALL 100
iv 100
89 100
tach 100
UE 100
okup 100
▁msg 100
▁ARRAY 100
▁work 100
ie 100
▁IO 100
FAULT 100
DO 100
RT 100
right 100
pcie 100
16_ 100
engine 100
rst 100
▁sys 100
▁arg 100
vec 100
ENOMEM 100
timeout 100
REQ 100
comple 100
ren 100
▁ib 100
AM 100
▁test 100
flush 100
▁(!( 100
vb 100
01 100
IST 100
▁GPIO 100
phys 100
▁host 100
▁us 100
proc 100
▁opt 100
raw 100
▁ver 100
fin 100
perty 100
pr 100
vif 100
▁DMA 100
tail 100
uspend 100
▁** 100
DC 100
entries 100
used 100
ERROR 100
▁sd 100
gra 100
▁cf 100
aut 100
hi 100
pare 100
GEN 100
▁power 100
▁trans 100
sched 100
ACT 100
kvm 100
target 100
LOW 100
PM 100
▁MLX 100
▁next 100
▁ST 100
▁link 100
PL 100
▁current 100
icy 100
▁In 100
ift 100
roy 100
lab 100
stem 100
class 100
▁bio 100
BO 100
CPI 100
nl 100
▁result 100
86_ 100
unmap 100
SD 100
85 100
("% 100
77 100
▁spi 100
packet 100
NC 100
▁all 100
SOC 100
xa 100
NULL 100
EC 100
eration 100
▁-= 100
▁32 100
mvm 100
field 100
BUS 100
TIME 100
sum 100
▁ser 100
▁atomic 100
_2 100
▁dw 100
▁module 100
ams 100
▁fs 100
KEY 100
seg 100
▁input 100
ron 100
▁memory 100
counter 100
FT 100
NAME 100
MIC 100
Re 100
▁bus 100
▁sg 100
▁define 100
pfn 100
cted 100
30 100
▁when 100
change 100
▁MO 100
ram 100
PT 100
▁(1 100
▁queue 100
dap 100
SUP 100
names 100
tc 100
hs 100
(1 100
SU 100
▁AT 100
ich 100
man 100
▁memset 100
filter 100
▁bpf 100
000000 100
915 100
▁dst 100
HW 100
▁Fix 100
nic 100
▁sa 100
>, 100
spec 100
MSG 100
▁reset 100
▁path 100
ld 100
56 100
down 100
▁remove 100
enabled 100
LINK 100
ped 100
▁{0 100
▁str 100
restore 100
PRE 100
flag 100
parse 100
fmt 100
▁pipe 100
_1 100
tag 100
▁fl 100
master 100
▁handle 100
▁XFS 100
FOR 100
snd 100
cells 100
SYS 100
regmap 100
eric 100
cq 100
PTR 100
CB 100
rypt 100
interrupt 100
▁CPU 100
ab 100
aud 100
nv 100
PS 100
MM 100
UNT 100
sbi 100
[2 100
ther 100
▁rcu 100
process 100
▁need 100
ual 100
50 100
asm 100
ign 100
ero 100
▁kzalloc 100
sector 100
▁src 100
var 100
URE 100
ia 100
common 100
▁channel 100
▁user 100
EVENT 100
ES 100
ved 100
▁bytes 100
▁have 100
▁kernel 100
ency 100
ition 100
rop 100
disk 100
▁BPF 100
dump 100
FE 100
malloc 100
uid 100
done 100
COMP 100
mux 100
anup 100
▁only 100
dep 100
▁MAX 100
▁7 100
pdata 100
jo 100
CONTR 100
sed 100
[1] 100
sz 100
vf 100
qui 100
lookup 100
14 100
▁length 100
arm 100
prog 100
mdev 100
IB 100
▁2, 100
▁ti 100
▁pg 100
00000 100
pkt 100
:% 100
16( 100
PAR 100
39 100
mx 100
▁last 100
▁SND 100
tun 100
destroy 100
▁If 100
RESET 100
virt 100
extent 100
▁mlxsw 100
reser 100
blocks 100
xxx 100
(__ 100
INE 100
▁idx 100
SION 100
box 100
▁tcp 100
leep 100
byte 100
rd 100
property 100
lper 100
▁update 100
resp 100
wake 100
MAT 100
▁temp 100
output 100
NET 100
au 100
EEE 100
MBOL 100
display 100
fies 100
$( 100
SYNC 100
▁used 100
▁wait 100
failed 100
deon 100
▁debug 100
0); 100
result 100
CODE 100
HIGH 100
ssage 100
27 100
▁crypto 100
prepare 100
lob 100
SYMBOL 100
pending 100
tin 100
▁retval 100
LED 100
zone 100
▁pte 100
NUM 100
CONTROL 100
▁dc 100
bridge 100
URCE 100
▁9 100
ast 100
▁dentry 100
mmc 100
IVE 100
▁ap 100
poll 100
_8 100
▁KEY 100
▁adapter 100
▁BUG 100
2) 100
SOURCE 100
▁dr 100
region 100
.\ 100
alc 100
tain 100
other 100
OWER 100
▁ARM 100
▁MT 100
▁comedi 100
unregister 100
rcm 100
▁off 100
mpty 100
▁IP 100
ids 100
CC 100
"), 100
caps 100
ARD 100
FLAGS 100
▁regmap 100
ync 100
scsi 100
EP 100
boot 100
vert 100
DESC 100
mark 100
bind 100
ical 100
board 100
▁MODULE 100
xp 100
DMI 100
▁fw 100
GA 100
▁scsi 100
ick 100
▁sig 100
mount 100
tty 100
MIN 100
WARN 100
iffies 100
vlan 100
USE 100
;/* 100
xf 100
▁mmc 100
▁ce 100
ioctl 100
fore 100
▁ring 100
uart 100
acket 100
frag 100
ting 100
can 100
17 100
▁select 100
mis 100
child 100
sent 100
slave 100
gger 100
rence 100
lib 100
array 100
module 100
ass 100
▁rate 100
ies 100
▁EXPORT 100
SB 100
nsor 100
▁ssize 100
printk 100
VI 100
mic 100
▁number 100
vt 100
▁should 100
ary 100
SPI 100
QUE 100
LOG 100
ference 100
ax 100
part 100
mr 100
▁FI 100
LAY 100
string 100
▁mac 100
BLOCK 100
memory 100
▁fail 100
▁$( 100
PD 100
EM 100
83 100
vide 100
pid 100
▁table 100
▁log 100
policy 100
LEV 100
0; 100
iod 100
▁put 100
__, 100
▁clear 100
ond 100
▁which 100
TRACE 100
.. 100
fence 100
START 100
▁wr 100
idle 100
▁2; 100
fault 100
first 100
▁inst 100
▁local 100
CESS 100
suspend 100
chain 100
▁first 100
mlx 100
switch 100
vl 100
▁copy 100
stri 100
60 100
▁cfg 100
UX 100
ead 100
LC 100
ELD 100
notify 100
LEVEL 100
▁act 100
AUT 100
2. 100
hdmi 100
▁pinctrl 100
hcd 100
over 100
▁IWL 100
lace 100
ailed 100
mgr 100
▁dm 100
▁CLK 100
COUNT 100
hba 100
gram 100
65 100
cept 100
▁com 100
pad 100
▁resource 100
atter 100
▁bn 100
RC 100
▁wl 100
FUN 100
attrs 100
api 100
ert 100
late 100
SEL 100
ele 100
od 100
DM 100
speed 100
lic 100
ERT 100
_4 100
CACHE 100
ASS 100
HA 100
▁nl 100
RATE 100
interface 100
item 100
access 100
resume 100
▁disable 100
▁0), 100
▁64 100
OF 100
▁virt 100
▁depend 100
rr 100
attach 100
▁dir 100
return 100
rule 100
pins 100
▁nf 100
▁gfp 100
tbl 100
cg 100
ou 100
gt 100
▁sn 100
▁cx 100
connect 100
▁but 100
UD 100
ports 100
rcu 100
onent 100
▁rq 100
fifo 100
▁ci 100
ale 100
resh 100
xffff 100
HEAD 100
▁-- 100
bt 100
word 100
OK 100
▁frame 100
▁OMAP 100
▁change 100
DIR 100
STR 100
sha 100
200 100
]) 100
ell 100
▁af 100
remap 100
bitmap 100
▁ca 100
TRY 100
hz 100
FW 100
87 100
pan 100
▁nla 100
features 100
capa 100
shift 100
msi 100
PAD 100
▁fe 100
ally 100
dl 100
iommu 100
PAT 100
▁vcpu 100
▁regs 100
PLL 100
▁mv 100
stack 100
lose 100
rive 100
▁interrupts 100
pfc 100
CTION 100
33 100
IGN 100
(0, 100
attribute 100
▁depends 100
▁version 100
dec 100
STA 100
55 100
ARE 100
dirty 100
acpi 100
▁root 100
fill 100
command 100
▁md 100
▁vma 100
▁WARN 100
▁(% 100
cmp 100
insn 100
▁{" 100
POWER 100
BUF 100
ipc 100
pmu 100
▁find 100
av 100
session 100
). 100
43_ 100
ers 100
long 100
▁core 100
NOT 100
DRV 100
XG 100
xmit 100
9, 100
ument 100
▁Con 100
bss 100
▁line 100
BY 100
ctxt 100
▁ACPI 100
▁ceph 100
show 100
ceive 100
▁any 100
MX 100
ctp 100
▁defined 100
RD 100
stamp 100
uest 100
▁writel 100
way 100
chunk 100
empty 100
▁iio 100
ay 100
▁hdr 100
▁head 100
▁radeon 100
ANY 100
mon 100
TER 100
▁/** 100
03 100
ialize 100
▁cl 100
▁comm 100
events 100
▁br 100
OST 100
tb 100
▁IEEE 100
ITY 100
▁target 100
▁args 100
CNT 100
▁tty 100
ETH 100
RESOURCE 100
▁speci 100
▁create 100
irk 100
▁cache 100
▁2) 100
ense 100
writel 100
dent 100
alk 100
ndev 100
cfs 100
Failed 100
▁attr 100
serial 100
BR 100
ready 100
======== 100
HCI 100
owner 100
tinue 100
▁CH 100
2); 100
pwm 100
▁CO 100
21 100
TIM 100
mu 100
0000000 100
tcp 100
firm 100
helper 100
▁bits 100
▁pol 100
devices 100
▁one 100
complete 100
▁control 100
1000_ 100
controller 100
VERSION 100
ino 100
label 100
exec 100
ily 100
DBG 100
evice 100
TRFS 100
ho 100
rb 100
sample 100
VB 100
my 100
▁4, 100
▁// 100
channels 100
sym 100
SG 100
prev 100
▁range 100
▁rec 100
mote 100
tect 100
row 100
single 100
▁header 100
pmd 100
▁rtw 100
perf 100
VID 100
validate 100
rf 100
▁packet 100
▁tri 100
▁parent 100
nable 100
substream 100
ORD 100
COM 100
rw 100
total 100
dsi 100
audio 100
IVER 100
bc 100
▁crtc 100
34 100
system 100
ront 100
mq 100
ioc 100
xc 100
OWN 100
area 100
tage 100
sign 100
cover 100
gic 100
mage 100
▁ctrl 100
TL 100
▁SD 100
▁ERR 100
▁IN 100
vs 100
▁tegra 100
report 100
▁-1; 100
ciph 100
HAS 100
******** 100
grp 100
riptor 100
▁contain 100
gb 100
wi 100
async 100
▁phys 100
▁imx 100
tion 100
▁AD 100
▁PHY 100
▁conne 100
ADD 100
funcs 100
uration 100
omap 100
irqrestore 100
▁over 100
prot 100
otg 100
▁NET 100
1: 100
sas 100
ump 100
▁continue 100
bdev 100
84 100
SEC 100
mmio 100
cleanup 100
▁hci 100
96 100
cipher 100
[0]. 100
recv 100
subdev 100
▁timeout 100
km 100
▁sched 100
▁mod 100
apic 100
aging 100
1>; 100
44 100
## 100
dapm 100
MOD 100
amily 100
ery 100
NR 100
iov 100
tim 100
mat 100
USER 100
gp 100
▁context 100
ken 100
▁PIN 100
▁level 100
▁brcm 100
▁ata 100
tfm 100
▁kmalloc 100
VD 100
alg 100
8( 100
ONCE 100
▁card 100
chine 100
icense 100
▁command 100
▁MX 100
▁pt 100
lable 100
▁low 100
2; 100
tv 100
▁KVM 100
TA 100
▁tp 100
91_ 100
tlb 100
▁ab 100
MODULE 100
sible 100
prom 100
iomem 100
nos 100
cgroup 100
▁slot 100
sl 100
ak 100
FEAT 100
92 100
▁pages 100
▁arch 100
▁vol 100
90 100
intr 100
ACTIVE 100
[3 100
uency 100
DEFAULT 100
vector 100
lobal 100
▁must 100
▁clocks 100
30_ 100
SM 100
vid 100
▁prev 100
GRO 100
light 100
▁"\ 100
---------------- 100
we 100
regulator 100
// 100
▁DEF 100
▁found 100
4) 100
sor 100
ynos 100
▁8) 100
UND 100
ning 100
sq 100
FC 100
gc 100
order 100
▁ht 100
vai 100
▁timer 100
▁var 100
trigger 100
cdev 100
yload 100
GIC 100
TC 100
force 100
mtd 100
_3 100
callback 100
▁ep 100
Page 100
disc 100
TRAN 100
intf 100
▁arm 100
notifier 100
adv 100
▁group 100
iz 100
rection 100
vd 100
▁other 100
gin 100
▁", 100
▁eth 100
▁cal 100
▁back 100
▁gfs 100
TION 100
NEL 100
SPE 100
tool 100
video 100
▁match 100
hp 100
supported 100
▁ETH 100
KE 100
▁total 100
signal 100
▁reser 100
vailable 100
pix 100
ule 100
sensor 100
component 100
▁wm 100
mnt 100
uve 100
urnal 100
direct 100
▁order 100
function 100
bpf 100
uveau 100
▁part 100
sem 100
▁EXT 100
resources 100
42 100
1000 100
imx 100
rev 100
ameter 100
xFF 100
NONE 100
igned 100
iphy 100
lash 100
▁!( 100
▁thread 100
TABLE 100
inc 100
ipv 100
GPL 100
mg 100
FILE 100
irqsave 100
options 100
LINE 100
▁VM 100
▁params 100
▁++ 100
TS 100
▁comple 100
rpc 100
ugh 100
64( 100
oC 100
debugfs 100
uge 100
top 100
firmware 100
▁hd 100
ten 100
oftware 100
▁fil 100
▁em 100
zero 100
▁.. 100
SER 100
64) 100
▁inet 100
▁may 100
SIG 100
▁make 100
sted 100
ENODEV 100
safe 100
kzalloc 100
▁setup 100
endpoint 100
▁RX 100
▁flush 100
▁rpc 100
bil 100
cpus 100
36 100
ga 100
ardware 100
DIV 100
BT 100
00000000 100
RST 100
▁after 100
800 100
sleep 100
commit 100
▁IORESOURCE 100
pca 100
band 100
▁before 100
▁IB 100
▁board 100
%08 100
sert 100
▁nvkm 100
ai 100
▁send 100
cond 100
bg 100
FIELD 100
"}, 100
(_ 100
instance 100
bar 100
15_ 100
SL 100
GR 100
WM 100
▁sprintf 100
OMIC 100
wdt 100
▁staging 100
▁nvme 100
IRK 100
▁freq 100
enum 100
self 100
▁ass 100
CORE 100
PP 100
▁4; 100
▁li 100
NL 100
▁aud 100
operation 100
okie 100
ner 100
ling 100
mmap 100
▁sp 100
its 100
dog 100
75 100
SRC 100
ffff 100
just 100
nor 100
fh 100
▁process 100
8) 100
rdma 100
▁J 100
ating 100
▁*, 100
▁here 100
▁pri 100
▁AL 100
▁sctp 100
drive 100
iocb 100
mbol 100
▁ref 100
▁you 100
▁pointer 100
yn 100
(% 100
▁cp 100
IA 100
front 100
LD 100
-$( 100
INPUT 100
ace 100
dio 100
XGBE 100
▁fb 100
▁Copy 100
ISC 100
▁mis 100
QUIRK 100
sdev 100
readl 100
▁GEN 100
align 100
▁interface 100
txq 100
▁bcm 100
ARM 100
adc 100
▁Remove 100
sdata 100
▁NL 100
locked 100
plug 100
▁0)) 100
select 100
bios 100
▁4) 100
ics 100
▁NV 100
ties 100
▁IS 100
high 100
▁Set 100
RING 100
mtu 100
▁run 100
nf 100
▁We 100
▁ptr 100
queues 100
UART 100
▁serial 100
▁qu 100
pack 100
▁TX 100
▁more 100
CAL 100
MUX 100
47 100
QUEUE 100
uple 100
enter 100
transfer 100
nfs 100
close 100
perties 100
▁valid 100
GROUP 100
▁3, 100
▁2); 100
aux 100
eral 100
ssi 100
leg 100
lots 100
ACK 100
arly 100
2: 100
pen 100
▁brcmf 100
protocol 100
else 100
1. 100
▁pdata 100
ideo 100
AIN 100
tings 100
generic 100
supply 100
26 100
rp 100
▁hash 100
20_ 100
GFP 100
INTER 100
mult 100
micro 100
rcv 100
rsp 100
mware 100
▁option 100
▁ID 100
ents 100
acy 100
MATCH 100
place 100
LOAD 100
▁cifs 100
lu 100
▁mapping 100
▁controller 100
▁SN 100
gid 100
32) 100
eq 100
07 100
[2] 100
2( 100
build 100
NU 100
▁release 100
▁access 100
bank 100
DOWN 100
org 100
3) 100
DISABLE 100
mlxsw 100
FR 100
ENABLED 100
BITS 100
hc 100
endor 100
▁flow 100
orig 100
APM 100
xg 100
ummy 100
ative 100
▁pdev 100
ENTRY 100
TIMER 100
▁some 100
▁raw 100
oo 100
▁mtd 100
▁AC 100
▁now 100
rag 100
FIX 100
media 100
son 100
compatible 100
▁don 100
CTOR 100
post 100
atchdog 100
WAIT 100
▁SY 100
height 100
]= 100
BI 100
(1, 100
ARCH 100
submit 100
▁BT 100
server 100
▁DP 100
CONF 100
MAR 100
▁lpfc 100
ls 100
▁<1>; 100
▁dest 100
▁into 100
reserve 100
SUB 100
this 100
▁sysfs 100
csi 100
spin 100
▁then 100
nid 100
LY 100
indio 100
period 100
▁De 100
uint 100
▁does 100
▁aut 100
▁Use 100
▁Copyright 100
▁TH 100
IOC 100
0: 100
▁done 100
ATOMIC 100
()) 100
Info 100
▁cs 100
ycle 100
lip 100
ature 100
ORK 100
▁cap 100
Set 100
▁del 100
vdev 100
St 100
uch 100
RESS 100
ways 100
▁ocfs 100
[0]; 100
▁SOC 100
BUSY 100
full 100
bin 100
▁DEFINE 100
acon 100
RAM 100
lf 100
query 100
▁HID 100
cn 100
▁MA 100
SOR 100
▁nouveau 100
▁snprintf 100
▁(0 100
RAN 100
ments 100
eded 100
▁hid 100
number 100
▁ops 100
BG 100
clks 100
gspca 100
PH 100
DAPM 100
▁exit 100
CD 100
▁WM 100
ication 100
▁DR 100
kobj 100
acl 100
lb 100
fail 100
ifn 100
▁tc 100
gate 100
▁IXGBE 100
▁non 100
▁smp 100
scall 100
msr 100
evsel 100
FMT 100
win 100
▁~( 100
ALIGN 100
▁enabled 100
EG 100
quirk 100
▁space 100
97 100
unit 100
irqs 100
▁limit 100
pwr 100
▁using 100
indow 100
▁sta 100
ung 100
▁short 100
▁UART 100
BYTE 100
▁RC 100
▁rb 100
▁load 100
super 100
PROTO 100
adio 100
▁cc 100
bf 100
jiffies 100
[0], 100
_5 100
BUFF 100
CALL 100
95 100
cred 100
▁dwc 100
swap 100
▁dvb 100
DT 100
▁hi 100
▁BTRFS 100
▁102 100
iph 100
ription 100
gain 100
xfs 100
nand 100
FRA 100
LIST 100
PG 100
present 100
▁sector 100
▁def 100
soft 100
▁(__ 100
▁RE 100
wifi 100
OUTPUT 100
▁format 100
▁allow 100
lete 100
▁man 100
▁fol 100
volt 100
▁wake 100
IND 100
alt 100
▁output 100
▁video 100
wo 100
▁INIT 100
▁8; 100
PID 100
__); 100
Device 100
track 100
ifndef 100
ority 100
▁netif 100
nown 100
▁<0>; 100
▁iommu 100
▁field 100
ash 100
CN 100
route 100
▁dp 100
▁8, 100
ater 100
▁urb 100
▁fc 100
▁requi 100
ste 100
push 100
HI 100
peer 100
OB 100
HT 100
▁bp 100
sid 100
vp 100
isp 100
SKB 100
crypt 100
TIMEOUT 100
less 100
▁10 100
ason 100
aligned 100
▁DE 100
WID 100
*/ 100
ROM 100
plit 100
guest 100
auth 100
▁supported 100
left 100
onse 100
▁uart 100
vport 100
lv 100
43 100
xe 100
▁readl 100
walk 100
▁flag 100
▁unlock 100
▁AMD 100
▁cor 100
--; 100
▁plane 100
HZ 100
PCM 100
▁INT 100
▁loff 100
lc 100
▁efx 100
HOST 100
journal 100
plat 100
herent 100
tsk 100
og 100
▁-1, 100
udev 100
mddev 100
xprt 100
CONT 100
ieee 100
▁20 100
▁100 100
now 100
dss 100
IPS 100
▁mp 100
only 100
SUPPORT 100
family 100
cx 100
insert 100
ofs 100
cel 100
groups 100
▁CR 100
")) 100
term 100
FUNC 100
CHANNEL 100
▁sb 100
exp 100
▁ide 100
▁generic 100
llx 100
rror 100
▁client 100
▁attribute 100
curity 100
pointer 100
atile 100
ATION 100
ixer 100
mv 100
▁tun 100
utdown 100
message 100
▁bnx 100
▁wil 100
blank 100
FIFO 100
ture 100
need 100
connection 100
▁AS 100
400 100
▁TCP 100
vq 100
inux 100
reference 100
▁pkt 100
VOL 100
FEATURE 100
1", 100
sectors 100
▁down 100
▁adev 100
voltage 100
na 100
▁*)( 100
ov 100
REE 100
▁firmware 100
Con 100
adow 100
FAIL 100
127 100
STATS 100
▁ipv 100
curr 100
EIO 100
AUTH 100
12_ 100
BPF 100
▁kmem 100
opts 100
=0 100
ulate 100
`` 100
feature 100
▁rdev 100
▁devices 100
DEX 100
env 100
▁was 100
05 100
▁HW 100
▁For 100
panel 100
AV 100
▁super 100
▁hda 100
▁debugfs 100
[4 100
GPU 100
") 100
frequency 100
▁boot 100
vmx 100
sen 100
▁fd 100
layout 100
DRIVER 100
fixed 100
cho 100
▁called 100
ish 100
▁orig 100
pgd 100
sysfs 100
▁SC 100
▁xhci 100
frm 100
shared 100
phydev 100
here 100
10, 100
depth 100
CHECK 100
▁rtc 100
<< 100
▁ns 100
}; 100
xfer 100
dig 100
▁resp 100
vice 100
uring 100
▁insn 100
csum 100
▁1000 100
▁PORT 100
evlist 100
GB 100
REV 100
▁drv 100
▁pp 100
899 100
tab 100
INVALID 100
▁object 100
DISP 100
▁vf 100
▁200 100
mel 100
smu 100
FX 100
▁message 100
auto 100
pected 100
▁No 100
22 100
kill 100
PRINT 100
ADC 100
▁-> 100
▁PER 100
padapter 100
IDE 100
dapter 100
TRANS 100
100_ 100
()␌ 100
coherent 100
rier 100
types 100
hed 100
▁MAC 100
1( 100
TEST 100
▁pmd 100
stp 100
meta 100
wakeup 100
ios 100
93 100
ces 100
PEND 100
SN 100
▁Gen 100
eb 100
▁ttm 100
▁proto 100
BUFFER 100
smp 100
▁CS 100
disabled 100
▁medi 100
disp 100
dn 100
▁mtk 100
minor 100
sist 100
▁align 100
asic 100
50_ 100
iff 100
ake 100
▁program 100
▁ct 100
CONNE 100
cookie 100
▁show 100
CHIP 100
amdgpu 100
INTR 100
calc 100
INO 100
laim 100
▁4); 100
network 100
,0 100
CLOCK 100
▁save 100
INDEX 100
▁fsl 100
GS 100
hub 100
leaf 100
cam 100
▁3) 100
entity 100
lm 100
▁tipc 100
▁there 100
STER 100
▁16) 100
interval 100
ioremap 100
▁ice 100
real 100
hid 100
▁*)& 100
slots 100
▁reserved 100
48 100
USH 100
0. 100
▁1)) 100
FLOW 100
▁jiffies 100
▁soc 100
rtl 100
CCESS 100
ered 100
FIL 100
▁counter 100
▁TR 100
filp 100
▁sun 100
direction 100
IX 100
▁ASS 100
▁stm 100
▁rv 100
rel 100
settings 100
UTE 100
ias 100
▁domain 100
▁under 100
wdev 100
tid 100
covery 100
▁Y 100
▁div 100
drop 100
lru 100
IOCTL 100
witch 100
ached 100
▁*( 100
▁SH 100
BACK 100
▁cr 100
RF 100
GT 100
nter 100
BS 100
fsl 100
bulk 100
eturn 100
amsung 100
allow 100
▁Z 100
XT 100
▁allocate 100
PWR 100
xattr 100
▁seg 100
DW 100
▁system 100
payload 100
phba 100
ng 100
bw 100
▁pfn 100
▁open 100
USR 100
uccess 100
pull 100
ject 100
FORMAT 100
quot 100
▁xen 100
UGO 100
OM 100
▁^ 100
prop 100
ness 100
▁cb 100
▁stream 100
AUD 100
ception 100
▁NFS 100
opp 100
NS 100
ations 100
06 100
▁CHIP 100
td 100
global 100
+= 100
0", 100
est 100
▁frag 100
▁source 100
icast 100
▁chunk 100
▁pid 100
▁ASSERT 100
frontend 100
fast 100
prio 100
▁SET 100
std 100
4); 100
scale 100
mary 100
csr 100
▁gb 100
Reg 100
fini 100
cal 100
): 100
SZ 100
xgbe 100
ger 100
fic 100
▁zone 100
▁stack 100
▁ps 100
xhci 100
non 100
▁((( 100
▁cgroup 100
▁kv 100
OS 100
umentation 100
TCP 100
▁cpumask 100
▁pe 100
PIPE 100
▁qp 100
▁sec 100
ddr 100
llu 100
rates 100
reply 100
▁dsa 100
IW 100
▁exynos 100
▁fmt 100
▁nd 100
adata 100
vent 100
▁ds 100
2- 100
▁container 100
▁SNDRV 100
BLK 100
CNTL 100
HDR 100
!\ 100
ACPI 100
rough 100
descriptor 100
reserved 100
IPE 100
reshold 100
▁delay 100
▁15 100
DL 100
are 100
transport 100
▁bat 100
31 100
fops 100
▁exec 100
MAL 100
▁PM 100
▁scan 100
FRAME 100
▁active 100
▁mult 100
ACE 100
▁hdmi 100
▁iter 100
40_ 100
BL 100
reen 100
', 100
RS 100
▁smu 100
image 100
daddr 100
▁asm 100
xb 100
imum 100
▁License 100
▁nft 100
SUCCESS 100
etch 100
cast 100
CLASS 100
PROM 100
Hz 100
▁SPI 100
▁already 100
dq 100
DAC 100
wqe 100
vsi 100
PATCH 100
_6 100
▁mark 100
DS 100
YP 100
IE 100
76_ 100
elem 100
CKET 100
▁nfp 100
rela 100
ENSOR 100
▁MI 100
▁zero 100
▁vid 100
sole 100
▁go 100
▁conn 100
IPV 100
▁ATH 100
▁build 100
▁ixgbe 100
▁child 100
32, 100
PK 100
▁pan 100
rv 100
Ch 100
▁mc 100
(- 100
wiphy 100
▁svc 100
▁hardware 100
begin 100
▁warn 100
VALID 100
▁iov 100
37 100
pinctrl 100
secs 100
▁NO 100
frags 100
▁extent 100
UB 100
ipi 100
▁ts 100
▁sdhci 100
▁DBG 100
eh 100
decode 100
▁union 100
ists 100
MAIN 100
vo 100
RB 100
▁ter 100
▁Return 100
operations 100
ew 100
▁operation 100
bm 100
FD 100
remote 100
_0 100
▁try 100
▁ufs 100
▁wid 100
ef 100
12, 100
VDEVICE 100
82 100
▁xfrm 100
completion 100
FN 100
LV 100
▁qla 100
IFY 100
▁rs 100
fid 100
▁high 100
bindings 100
++] 100
▁ubi 100
▁spec 100
:// 100
microvolt 100
▁dts 100
transaction 100
HP 100
▁ve 100
xdp 100
eeprom 100
ILD 100
vendor 100
Co 100
▁PERF 100
ang 100
▁conf 100
▁action 100
SCSI 100
shutdown 100
▁than 100
ecc 100
▁dt 100
buffers 100
▁nand 100
": 100
REF 100
▁param 100
▁devpriv 100
atency 100
▁ed 100
huge 100
)), 100
adget 100
SING 100
-1 100
bad 100
▁force 100
mk 100
4. 100
mbox 100
cluster 100
loop 100
lcd 100
▁array 100
▁cnt 100
▁filter 100
▁initial 100
NV 100
▁codec 100
53 100
scr 100
▁tb 100
▁slave 100
rcmp 100
hot 100
SHARE 100
Adapter 100
beacon 100
sdio 100
qe 100
IRUGO 100
delayed 100
wc 100
vider 100
▁pll 100
lap 100
napi 100
EFAULT 100
vision 100
IGHT 100
▁amd 100
keys 100
IRT 100
WIDTH 100
▁drbd 100
tunnel 100
ulti 100
vr 100
ek 100
tg 100
▁its 100
okay 100
▁drivers 100
bond 100
))); 100
vaddr 100
mid 100
kcontrol 100
▁handler 100
80_ 100
MARK 100
[0]); 100
itten 100
SUPP 100
option 100
iable 100
inline 100
▁bitmap 100
▁byte 100
▁parameter 100
dsp 100
ublic 100
▁class 100
▁TP 100
▁16, 100
▁qcom 100
▁rsnd 100
ERRUP 100
vail 100
IMIT 100
▁Al 100
▁registers 100
POL 100
54 100
▁STAT 100
isor 100
▁via 100
crc 100
ALLOC 100
0- 100
000_ 100
MR 100
pixel 100
relax 100
GC 100
ious 100
▁vlan 100
▁tag 100
RANGE 100
delta 100
ui 100
Data 100
▁WR 100
offload 100
_64 100
FILTER 100
▁shift 100
ancel 100
▁available 100
sdp 100
▁ATA 100
UNK 100
efx 100
detect 100
simple 100
▁np 100
machine 100
▁media 100
▁ite 100
flash 100
▁!! 100
▁same 100
cursor 100
▁values 100
▁proc 100
▁; 100
▁nfsd 100
80211 100
color 100
▁READ 100
▁without 100
with 100
3: 100
▁HDA 100
VIDE 100
MMU 100
IDX 100
▁callback 100
▁led 100
cause 100
bility 100
▁col 100
()␍ 100
▁audit 100
stripe 100
]-> 100
misc 100
andle 100
ager 100
CLE 100
UPD 100
4: 100
... 100
quence 100
▁sync 100
sch 100
▁stop 100
▁follow 100
4; 100
receive 100
ities 100
▁dprintk 100
[3] 100
delete 100
fan 100
DRM 100
tadata 100
▁dump 100
▁msm 100
▁reference 100
▁hdev 100
)/ 100
mii 100
▁drop 100
ONG 100
retval 100
▁PR 100
pmc 100
▁lp 100
COL 100
unused 100
▁sample 100
tected 100
▁include 100
▁bh 100
▁IMX 100
▁bf 100
▁SE 100
WARE 100
ether 100
▁CMD 100
_1_ 100
lename 100
amd 100
INTERRUP 100
NOR 100
0000, 100
Len 100
fixup 100
▁also 100
cancel 100
ni 100
64: 100
▁cd 100
OMAP 100
kms 100
processor 100
dummy 100
files 100
ssid 100
YPTO 100
▁hton 100
▁THIS 100
initialize 100
activ 100
bling 100
▁*); 100
▁functions 100
legacy 100
▁8); 100
▁SO 100
STS 100
▁func 100
errno 100
token 100
▁DEBUG 100
81 100
NODE 100
busy 100
▁bond 100
▁pcie 100
_2_ 100
pass 100
▁pcm 100
found 100
▁hisi 100
BD 100
SCAN 100
socket 100
section 100
elds 100
assert 100
fcp 100
ending 100
crypto 100
RTC 100
▁imp 100
;\ 100
ckchip 100
▁self 100
▁MSG 100
▁ho 100
CAST 100
▁master 100
▁pwm 100
smc 100
▁vc 100
][ 100
AUTO 100
▁receive 100
▁DA 100
formation 100
▁inc 100
adjust 100
snap 100
oci 100
wb 100
clean 100
ips 100
▁nid 100
itor 100
FUNCTION 100
CHED 100
▁MC 100
,\ 100
nodes 100
_32 100
aph 100
▁stri 100
iface 100
reemp 100
let 100
DIO 100
▁structure 100
-0 100
segment 100
rep 100
radio 100
hda 100
IAL 100
may 100
STOP 100
▁signal 100
BAL 100
▁General 100
▁Enable 100
ENC 100
rup 100
00000>; 100
cpumask 100
97_ 100
▁St 100
▁help 100
▁tg 100
2>; 100
▁move 100
▁bt 100
▁skip 100
▁ASoC 100
DONE 100
▁region 100
▁tree 100
iq 100
null 100
%02 100
MII 100
online 100
xffffffff 100
WI 100
CRE 100
hard 100
compat 100
MSI 100
▁... 100
OV 100
</ 100
WORK 100
andom 100
ACCESS 100
hook 100
▁entries 100
configure 100
syscall 100
▁ele 100
▁128 100
shinfo 100
ERO 100
▁parse 100
0( 100
▁probe 100
hl 100
ATCH 100
fied 100
▁INTEL 100
▁3; 100
nla 100
▁Wh 100
110 100
▁engine 100
nesas 100
hr 100
2-> 100
STRE 100
uncore 100
bound 100
66 100
pute 100
▁da 100
ied 100
dy 100
SPEED 100
▁sym 100
hsotg 100
DELAY 100
bat 100
wil 100
SHARED 100
TUN 100
▁machine 100
FREQ 100
changed 100
▁DMI 100
clge 100
chg 100
▁ARCH 100
CUR 100
CSR 100
VIDEO 100
▁invalid 100
css 100
ALEN 100
Tx 100
mach 100
▁CON 100
modes 100
▁tid 100
step 100
▁GNU 100
widget 100
▁WREG 100
thermal 100
cmnd 100
25_ 100
▁cleanup 100
anch 100
_16 100
▁fp 100
IME 100
MBUS 100
shadow 100
pk 100
70 100
IDLE 100
rowser 100
▁Public 100
VALUE 100
job 100
HDMI 100
▁mei 100
bufs 100
▁bind 100
▁EE 100
SINGLE 100
REGS 100
fol 100
VLAN 100
102 100
ged 100
hwmgr 100
▁1), 100
til 100
**************** 100
▁bnxt 100
PCIE 100
▁jo 100
▁string 100
mdio 100
PARAM 100
▁WRITE 100
dup 100
EST 100
guc 100
ERS 100
▁qeth 100
ehci 100
▁irqreturn 100
29 100
▁socket 100
ful 100
▁success 100
SCR 100
after 100
ration 100
CONNECT 100
window 100
clocks 100
▁IRQF 100
VF 100
▁disk 100
qual 100
▁speed 100
PERF 100
Bu 100
saddr 100
De 100
NFS 100
▁imple 100
MEDI 100
evt 100
2", 100
▁DIV 100
VC 100
▁hclge 100
domains 100
▁It 100
ROUND 100
ined 100
▁stats 100
▁fprintf 100
1271_ 100
LP 100
syn 100
nore 100
819 100
fib 100
men 100
dentifier 100
ATOR 100
1-> 100
▁report 100
++, 100
8500_ 100
▁pc 100
ince 100
LB 100
app 100
▁OR 100
▁'\ 100
frames 100
iss 100
45 100
▁unused 100
record 100
gest 100
strcmp 100
gl 100
▁hns 100
_10 100
timing 100
ask 100
assoc 100
fy 100
CARD 100
HAND 100
▁16; 100
▁been 100
wise 100
patch 100
mgmt 100
btf 100
EXEC 100
gtt 100
▁UN 100
MUL 100
wifiex 100
profile 100
room 100
sistent 100
▁bad 100
MAND 100
udc 100
pect 100
vfs 100
▁SK 100
runc 100
ingle 100
gfp 100
ident 100
COMM 100
▁fib 100
FER 100
================ 100
ous 100
TEMP 100
," 100
1), 100
▁pf 100
(), 100
▁events 100
igrate 100
6. 100
▁properties 100
▁12 100
▁configuration 100
▁complete 100
qm 100
LOCAL 100
atures 100
▁Pro 100
ASSERT 100
▁dire 100
sf 100
▁tm 100
priority 100
▁pd 100
▁iss 100
maps 100
irr 100
MPLE 100
▁FW 100
celot 100
▁Ch 100
▁connector 100
MON 100
relaxed 100
assign 100
abort 100
OBJ 100
allocate 100
opcode 100
▁On 100
▁ses 100
bool 100
▁disabled 100
LIMIT 100
gfx 100
▁pool 100
▁MLXSW 100
▁fin 100
nb 100
▁description 100
gpios 100
TP 100
FB 100
▁each 100
early 100
);\ 100
▁MMC 100
▁Co 100
46 100
MSK 100
xd 100
tuner 100
istered 100
location 100
go 100
▁bridge 100
▁) 100
vblank 100
ords 100
opied 100
wh 100
▁required 100
▁cpufreq 100
1⁄ 100
)(( 100
ADDRESS 100
dvb 100
layer 100
16, 100
.% 100
▁bet 100
▁DC 100
lme 100
ONLY 100
PATH 100
▁instead 100
symbol 100
▁BCM 100
▁compat 100
mci 100
fg 100
MSR 100
▁full 100
BB 100
running 100
PLY 100
▁Reg 100
▁HZ 100
▁SPD 100
▁delta 100
▁Free 100
svm 100
▁just 100
▁dbg 100
slab 100
▁mpt 100
▁ni 100
ptp 100
iobase 100
dat 100
rtd 100
▁ms 100
lun 100
abs 100
dpm 100
3); 100
▁ctl 100
▁calc 100
UME 100
▁avoid 100
▁-1) 100
PRI 100
dso 100
ww 100
▁point 100
edid 100
attery 100
') 100
=" 100
▁lib 100
▁strlen 100
PROBE 100
service 100
invalid 100
internal 100
dered 100
~~ 100
tection 100
▁sha 100
▁AP 100
▁qed 100
▁hv 100
REC 100
HASH 100
▁virtio 100
▁PIPE 100
MISC 100
ging 100
iio 100
▁HDMI 100
AGAIN 100
our 100
▁mx 100
▁25 100
▁cond 100
SEQ 100
rightness 100
▁WLAN 100
DSP 100
EBUSY 100
qd 100
[% 100
duce 100
POLL 100
▁smc 100
62 100
▁BR 100
smmu 100
▁pxa 100
cycle 100
▁loop 100
▁pad 100
▁rd 100
ire 100
:: 100
SPACE 100
▁prog 100
nested 100
tegra 100
▁"$ 100
tlv 100
extra 100
timestamp 100
gso 100
CONN 100
PTE 100
▁initialize 100
RUN 100
FLUSH 100
atio 100
FORCE 100
▁Software 100
speci 100
packets 100
▁mddev 100
DIRE 100
response 100
6) 100
skip 100
thod 100
▁NETIF 100
emit 100
TRIG 100
▁real 100
PROG 100
OD 100
▁sensor 100
▁setting 100
▁remain 100
upper 100
batch 100
▁efi 100
WE 100
▁capa 100
ASM 100
mission 100
▁Make 100
▁watchdog 100
IDGE 100
▁single 100
cached 100
PACKET 100
▁common 100
▁ql 100
▁symbol 100
IES 100
dwc 100
▁width 100
63 100
atus 100
CAN 100
▁because 100
▁policy 100
ither 100
iw 100
calloc 100
chron 100
FACE 100
▁dif 100
program 100
11, 100
sci 100
BOARD 100
18_ 100
Error 100
ITCH 100
WARNING 100
TAG 100
make 100
known 100
mapped 100
UPDATE 100
arrier 100
51_ 100
iple 100
ITH 100
▁information 100
▁during 100
▁instance 100
road 100
▁DT 100
ail 100
▁prot 100
▁handling 100
▁software 100
▁sz 100
usage 100
EOP 100
EXIT 100
▁1. 100
SEG 100
▁want 100
pud 100
VS 100
AX 100
▁19 100
gadget 100
xdr 100
EMP 100
▁sbi 100
inet 100
vdd 100
bb 100
PKT 100
jor 100
▁printf 100
ian 100
ENSE 100
825 100
NIC 100
AUX 100
▁variable 100
NX 100
manager 100
PPC 100
BOOT 100
▁nto 100
ilfs 100
▁label 100
des 100
ocumentation 100
▁SA 100
ROOT 100
dword 100
retry 100
128 100
▁xdp 100
IPC 100
▁simple 100
tible 100
INET 100
▁doc 100
▁mwifiex 100
15, 100
▁KERN 100
props 100
controls 100
▁transfer 100
tuple 100
▁ri 100
EXP 100
▁ir 100
NOW 100
ENOENT 100
3; 100
▁5, 100
msix 100
▁devlink 100
▁where 100
model 100
▁bin 100
-2. 100
7) 100
▁OF 100
backlight 100
▁rf 100
▁Check 100
unaligned 100
▁pending 100
▁dsi 100
SIGN 100
NOS 100
[5 100
raid 100
16) 100
73 100
▁left 100
▁AMDGPU 100
quire 100
▁helper 100
lower 100
▁%08 100
LANE 100
▁rbd 100
▁SPDX 100
OLD 100
▁DW 100
stor 100
▁batadv 100
nh 100
RENT 100
wmi 100
qc 100
2410_ 100
mppc 100
ISP 100
irror 100
restart 100
inte 100
elf 100
lists 100
3. 100
tsc 100
uma 100
▁top 100
bucket 100
▁through 100
VT 100
▁SYS 100
slice 100
DED 100
SIC 100
memcg 100
▁echo 100
▁OP 100
clp 100
▁pix 100
EAGAIN 100
▁BU 100
MENT 100
▁always 100
sun 100
▁fault 100
gd 100
BYTES 100
▁er 100
cing 100
avail 100
▁IIO 100
workqueue 100
42_ 100
latency 100
RI 100
▁clean 100
RET 100
ding 100
qos 100
▁~0 100
metadata 100
RW 100
browser 100
▁descriptor 100
▁atmel 100
ECT 100
sge 100
sive 100
▁MV 100
▁Switch 100
imp 100
ended 100
sense 100
verify 100
prefix 100
struction 100
▁ind 100
▁typedef 100
available 100
00); 100
▁runtime 100
argv 100
ital 100
)}, 100
)+= 100
btrfs 100
▁iph 100
mixer 100
64, 100
NON 100
NOTSUPP 100
LOBAL 100
clone 100
dget 100
layback 100
▁TO 100
▁period 100
finish 100
devpriv 100
schedule 100
detach 100
ABIL 100
allowed 100
▁issue 100
▁ow 100
▁kobject 100
▁COMP 100
(1); 100
564 100
INTERRUPT 100
31_ 100
▁REQ 100
)& 100
▁see 100
▁ig 100
1- 100
09 100
▁vb 100
ermal 100
Type 100
quirks 100
▁FT 100
▁Mo 100
xlan 100
▁fall 100
FREE 100
EQ 100
02_ 100
▁Cle 100
▁idle 100
Pro 100
vha 100
▁See 100
AMD 100
390_ 100
▁cm 100
CLARE 100
INODE 100
/% 100
expi 100
prep 100
DESCR 100
▁again 100
metr 100
BAR 100
ANT 100
reason 100
bssid 100
ao 100
YNOS 100
▁two 100
_32_ 100
▁-1 100
▁guest 100
ruptible 100
QUEST 100
▁lookup 100
ctly 100
▁property 100
BRO 100
anes 100
(2 100
▁vif 100
activate 100
tables 100
▁sm 100
FULL 100
_1, 100
▁swap 100
mas 100
arr 100
split 100
security 100
78 100
ros 100
▁hlist 100
EOPNOTSUPP 100
kfree 100
▁"", 100
urned 100
GTH 100
▁missing 100
FLA 100
AUTHOR 100
lr 100
xi 100
▁volatile 100
UNIT 100
▁hp 100
eep 100
01, 100
▁rw 100
MASTER 100
▁remote 100
DISPLAY 100
nx 100
,/* 100
NAND 100
▁fuse 100
▁server 100
dereference 100
tk 100
inci 100
▁txq 100
aead 100
conntrack 100
neigh 100
dpll 100
graph 100
00) 100
▁mmu 100
▁btf 100
Rx 100
dac 100
wlan 100
SOFT 100
▁modify 100
cqe 100
any 100
▁ether 100
72 100
MLX 100
rout 100
COMMAND 100
▁PLL 100
▁dd 100
PULL 100
qq 100
▁exp 100
amp 100
mediate 100
▁right 100
API 100
▁6, 100
▁changed 100
▁notifier 100
Size 100
threshold 100
Index 100
No 100
▁protocol 100
▁PINCTRL 100
GMT 100
flip 100
PFC 100
txt 100
▁specific 100
▁failure 100
ERIC 100
▁EV 100
side 100
ucode 100
▁section 100
▁too 100
▁endpoint 100
▁PRO 100
98 100
▁curr 100
sim 100
exception 100
errors 100
▁xdr 100
LCD 100
eg 100
rings 100
rink 100
▁blocks 100
devlink 100
qcom 100
TM 100
ATH 100
▁Dis 100
reempt 100
svc 100
▁display 100
LEEP 100
IOS 100
idr 100
IPI 100
DOMAIN 100
ride 100
ENA 100
sche 100
▁sure 100
bilities 100
Identifier 100
amic 100
"\ 100
CID 100
cma 100
QP 100
License 100
msm 100
▁round 100
▁NR 100
ward 100
(5 100
XFS 100
cts 100
ii 100
hal 100
▁Note 100
lis 100
HEADER 100
cia 100
pgtt 100
▁mg 100
▁opp 100
WAKE 100
▁mic 100
]\ 100
STREAM 100
▁FOR 100
TOP 100
esw 100
era 100
WORD 100
DUCT 100
CTP 100
▁extra 100
▁bank 100
--) 100
▁GPL 100
vgpu 100
915: 100
▁ftrace 100
six 100
PIX 100
000, 100
folio 100
aes 100
isr 100
icate 100
▁<2>; 100
▁MUX 100
▁rcar 100
todate 100
▁:= 100
ranges 100
KVM 100
▁kvmppc 100
▁MSR 100
▁scatter 100
▁ethtool 100
256 100
AUDIO 100
CONTEXT 100
(). 100
▁gr 100
alarm 100
▁needed 100
vram 100
itions 100
setting 100
encode 100
trap 100
▁gfn 100
BC 100
▁, 100
view 100
79 100
ZX 100
▁schedule 100
ween 100
segs 100
▁based 100
cons 100
PRODUCT 100
discard 100
GATE 100
ynamic 100
cra 100
RESER 100
search 100
8000 100
▁1: 100
den 100
▁ee 100
Num 100
khz 100
▁suspend 100
CTX 100
▁my 100
ctory 100
ZERO 100
uuid 100
Val 100
▁vmw 100
▁ioc 100
▁features 100
multicast 100
smbus 100
cessary 100
bcm 100
mail 100
xl 100
▁nor 100
▁ha 100
3- 100
DVB 100
iwl 100
sgl 100
ization 100
▁following 100
coe 100
filename 100
drivers 100
ISTER 100
▁needs 100
pclk 100
recovery 100
▁2. 100
EGRA 100
▁TEGRA 100
FROM 100
PCH 100
fr 100
21_ 100
coex 100
▁early 100
▁ktime 100
PHYS 100
PROC 100
annel 100
▁pas 100
supp 100
timings 100
fetch 100
alias 100
pdate 100
THER 100
▁MIPS 100
compute 100
▁possible 100
REQUEST 100
▁10, 100
initdata 100
▁even 100
10000 100
issue 100
▁alc 100
ise 100
Un 100
pair 100
▁Cor 100
ohci 100
template 100
EW 100
MULTI 100
unce 100
xFFFF 100
▁encoder 100
jack 100
▁convert 100
▁payload 100
)", 100
inity 100
percpu 100
MMC 100
▁tristate 100
'; 100
accel 100
35_ 100
▁tcf 100
BF 100
erate 100
▁skl 100
▁PCIE 100
attri 100
FG 100
LENGTH 100
CODEC 100
RU 100
SDMA 100
tails 100
▁Inc 100
▁upper 100
▁iscsi 100
RAW 100
86/ 100
▁powerpc 100
CHANGE 100
primary 100
support 100
rss 100
▁wilc 100
packed 100
GER 100
▁elf 100
▁hot 100
▁MII 100
ORY 100
ope 100
OLL 100
puts 100
APIC 100
▁adv 100
▁lower 100
tests 100
LOT 100
GO 100
FTDI 100
alance 100
▁syn 100
20, 100
CLO 100
▁tail 100
IFS 100
ssp 100
AF 100
POINT 100
▁them 100
▁fence 100
ification 100
hv 100
▁nlmsg 100
mar 100
DESCRIP 100
BTRFS 100
[4] 100
▁So 100
▁rdma 100
▁trigger 100
_825 100
▁between 100
▁FL 100
HB 100
▁xt 100
INTERFACE 100
ABILITY 100
console 100
MUTE 100
▁Intel 100
orb 100
▁ent 100
qs 100
vsc 100
radeon 100
_0_ 100
spte 100
▁SDHCI 100
▁implement 100
▁`` 100
▁session 100
asoc 100
arge 100
_9 100
▁samsung 100
IWUSR 100
blocksize 100
FRM 100
▁FIELD 100
BRIDGE 100
umem 100
ras 100
▁tim 100
▁vector 100
▁7, 100
alog 100
aml 100
MIX 100
▁dep 100
AMP 100
▁doesn 100
interruptible 100
ndo 100
cont 100
msk 100
ffect 100
defer 100
▁SoC 100
▁thermal 100
71 100
../ 100
urst 100
subsys 100
▁rockchip 100
▁usage 100
aded 100
▁evsel 100
ADV 100
APP 100
ACCE 100
▁Device 100
);/* 100
DAT 100
rqstp 100
▁PF 100
▁ME 100
▁ph 100
OPS 100
LONG 100
RED 100
SLEEP 100
▁linux 100
OVER 100
ARGET 100
states 100
uble 100
CAM 100
trig 100
ferent 100
02, 100
gu 100
dpc 100
scratch 100
41 100
mall 100
mov 100
--- 100
devs 100
EXCL 100
▁ino 100
▁panel 100
ENG 100
▁256 100
RESH 100
tick 100
TT 100
▁PPC 100
fpu 100
ctr 100
DIG 100
▁am 100
osd 100
▁ioctl 100
modeset 100
[1]; 100
▁record 100
NEW 100
[1]. 100
CMP 100
oct 100
▁SUN 100
▁mb 100
MIB 100
btree 100
▁gpu 100
py 100
gn 100
▁LED 100
Addr 100
▁fill 100
▁RA 100
dmac 100
NOWN 100
▁16); 100
reloc 100
▁being 100
HS 100
▁AN 100
ffinity 100
sure 100
▁could 100
replace 100
▁̧ 100
▁AZX 100
df 100
▁audio 100
▁ll 100
attern 100
inf 100
Get 100
MIT 100
2800_ 100
ually 100
VA 100
▁sleep 100
wd 100
60_ 100
▁since 100
UC 100
▁vmx 100
▁files 100
SWITCH 100
90_ 100
role 100
disconnect 100
MAN 100
encrypt 100
@0 100
multi 100
▁AF 100
▁},/* 100
▁htons 100
udp 100
▁retry 100
▁allocated 100
INC 100
hop 100
▁item 100
LS 100
52 100
:\ 100
▁walk 100
exynos 100
XXX 100
runcate 100
▁dist 100
sink 100
netif 100
▁Found 100
hwfn 100
NORMAL 100
seek 100
xchg 100
(3 100
▁[% 100
▁## 100
shost 100
[1], 100
▁chain 100
eon 100
capable 100
OPT 100
ock 100
med 100
STACK 100
▁ALIGN 100
▁sl 100
STP 100
DIRECT 100
pDevice 100
idev 100
cla 100
needed 100
attrib 100
TRL 100
▁1] 100
▁smb 100
▁HCI 100
▁ovl 100
▁image 100
regions 100
aq 100
▁*__ 100
ample 100
ULATOR 100
▁NAND 100
▁GET 100
▁gs 100
▁CX 100
PRIV 100
▁fixed 100
roce 100
ORE 100
arp 100
ioaddr 100
convert 100
Add 100
round 100
▁rule 100
▁allocation 100
▁". 100
cpufreq 100
ASE 100
▁our 100
dimm 100
STEM 100
dlm 100
brightness 100
1] 100
ttm 100
watchdog 100
▁peer 100
▁main 100
8); 100
▁vp 100
▁!!( 100
ones 100
adix 100
▁returned 100
▁PT 100
▁ov 100
▁CP 100
▁either 100
bove 100
▁0}, 100
_0, 100
fff 100
▁store 100
▁expected 100
termios 100
32(& 100
14, 100
▁vaddr 100
writeback 100
▁24 100
▁NF 100
▁ag 100
capture 100
links 100
0), 100
arity 100
sv 100
vell 100
HC 100
▁3); 100
logy 100
▁Register 100
UNKNOWN 100
fwnode 100
IEEE 100
VR 100
▁close 100
TASK 100
-% 100
sli 100
ured 100
▁dlm 100
3( 100
cdc 100
city 100
▁musb 100
(2, 100
rqst 100
very 100
▁TEST 100
namespace 100
cor 100
objectid 100
▁ah 100
nprintf 100
ulong 100
▁va 100
▁best 100
Mode 100
DEP 100
▁Do 100
refcount 100
TLB 100
▁global 100
ough 100
▁SW 100
oob 100
▁hr 100
bile 100
▁ss 100
▁outb 100
▁adjust 100
framebuffer 100
none 100
▁specified 100
ARRAY 100
pulate 100
▁these 100
PEG 100
mcu 100
battery 100
▁netlink 100
hotplug 100
hpd 100
leds 100
▁Get 100
sur 100
Length 100
Host 100
▁cannot 100
▁CSR 100
SMP 100
▁{\ 100
▁ack 100
lies 100
lane 100
itional 100
factor 100
▁Don 100
sess 100
▁they 100
ptep 100
(0) 100
SENSOR 100
818 100
sof 100
modify 100
REGISTER 100
ose 100
xy 100
CALE 100
tgt 100
▁Update 100
reclaim 100
offs 100
reed 100
▁RTC 100
▁1024, 100
RG 100
]: 100
ffs 100
▁To 100
rans 100
QE 100
5: 100
Cur 100
▁second 100
AIF 100
SEND 100
lcnic 100
MAGIC 100
▁vnt 100
efi 100
rssi 100
KMS 100
▁later 100
▁security 100
IMM 100
▁mnt 100
raint 100
DES 100
32); 100
RPC 100
break 100
▁sockaddr 100
▁hold 100
DSI 100
lack 100
counters 100
kl 100
hwif 100
▁twl 100
▁FTDI 100
▁DEVICE 100
▁DRV 100
ATED 100
quota 100
▁iw 100
prob 100
hwmod 100
▁ehci 100
mad 100
▁opcode 100
86: 100
LDO 100
DEC 100
▁terms 100
got 100
▁(" 100
VO 100
cy 100
hwmon 100
▁might 100
▁reason 100
▁API 100
COMPLE 100
▁about 100
sx 100
▁channels 100
PWM 100
sysctl 100
sequence 100
always 100
Can 100
iven 100
▁multiple 100
SND 100
▁wiphy 100
▁hwm 100
limits 100
▁Sup 100
lex 100
▁cmp 100
[6 100
ARGS 100
NORE 100
worker 100
▁copied 100
▁ioremap 100
▁Foundation 100
▁sdata 100
sdma 100
renesas 100
fuse 100
▁DRIVER 100
cpuid 100
4( 100
▁RTL 100
COVER 100
GI 100
▁Playback 100
short 100
▁asoc 100
CAPS 100
▁5) 100
iomap 100
ona 100
▁vi 100
▁cycle 100
SUS 100
rot 100
vbus 100
UDP 100
ins 100
▁dai 100
▁"); 100
chk 100
00; 100
LLOC 100
▁sky 100
▁mdev 100
linear 100
▁split 100
Power 100
▁] 100
▁nodes 100
ILL 100
▁Inter 100
ORDER 100
▁patch 100
TOOL 100
lt 100
fdb 100
816 100
▁nilfs 100
virtual 100
▁warning 100
▁different 100
VIRT 100
ulation 100
▁feature 100
tcon 100
capability 100
.␍ 100
POS 100
BAND 100
▁mtu 100
monitor 100
pause 100
hisi 100
▁ia 100
kp 100
BAD 100
edev 100
stateid 100
rxq 100
mclk 100
REMO 100
mbus 100
YPE 100
scal 100
[2]; 100
▁word 100
ension 100
imer 100
verbs 100
▁fifo 100
▁take 100
4), 100
GAIN 100
hctx 100
remain 100
▁pgd 100
SED 100
BUILD 100
CSUM 100
▁RK 100
invalidate 100
2000 100
▁your 100
▁&( 100
▁csum 100
RESP 100
diff 100
▁vfs 100
▁DECLARE 100
iting 100
▁db 100
FRAG 100
▁mov 100
▁minor 100
VED 100
▁saa 100
▁TRACE 100
▁cq 100
SAMPLE 100
logical 100
SELE 100
STRING 100
saved 100
hold 100
export 100
uv 100
▁mount 100
▁mux 100
▁RCU 100
▁mpc 100
▁RF 100
▁mon 100
▁rel 100
dif 100
xF 100
▁family 100
▁rk 100
2), 100
▁gspca 100
uV 100
yaml 100
▁Vol 100
LOCKED 100
▁received 100
▁Un 100
gfn 100
nvme 100
▁crc 100
pcidev 100
▁vfio 100
MIS 100
conds 100
Par 100
▁dummy 100
PRES 100
▁rout 100
GRA 100
▁above 100
▁poll 100
revision 100
▁still 100
MACH 100
IENT 100
acquire 100
▁present 100
ldo 100
▁SZ 100
ASYNC 100
▁nbytes 100
stand 100
LAT 100
PAGES 100
unprepare 100
hu 100
▁band 100
ggtt 100
45_ 100
DESCRIPTION 100
▁unregister 100
▁OUT 100
pxa 100
PARA 100
allocated 100
▁tps 100
cifs 100
before 100
tached 100
210 100
▁rtnl 100
▁submit 100
Off 100
su 100
bv 100
LAVE 100
planes 100
▁VCPU 100
unlink 100
ALG 100
500 100
68 100
NF 100
▁%# 100
▁tpm 100
bpp 100
erature 100
ffic 100
▁kcalloc 100
seqno 100
TECT 100
▁32, 100
▁pass 100
fork 100
UST 100
orbell 100
ressed 100
major 100
thing 100
3", 100
ACTION 100
▁mr 100
LN 100
srq 100
▁cred 100
psr 100
ANK 100
checksum 100
390 100
▁FS 100
▁tw 100
mouse 100
fields 100
lue 100
COLOR 100
▁mgmt 100
HD 100
rtwdev 100
▁Documentation 100
▁msr 100
▁indio 100
▁running 100
INK 100
erase 100
ILED 100
AK 100
▁ctxt 100
ENET 100
▁rxrpc 100
refs 100
▁%02 100
57 100
agg 100
▁options 100
connected 100
▁pub 100
lished 100
asd 100
enet 100
istics 100
volatile 100
QUER 100
▁both 100
▁NUM 100
ethtool 100
▁correct 100
▁destroy 100
▁voltage 100
parameter 100
paddr 100
])) 100
▁dss 100
▁(0) 100
IQ 100
PSMC 100
▁dccp 100
▁'% 100
CLR 100
▁VID 100
CSI 100
rsv 100
cent 100
sin 100
▁hl 100
1⁄4 100
88_ 100
Max 100
4030_ 100
xen 100
40, 100
(' 100
▁fn 100
▁(; 100
▁bd 100
join 100
gpiod 100
UID 100
▁async 100
cgrp 100
bias 100
▁given 100
TG 100
TRIGGER 100
lied 100
_## 100
▁mptcp 100
▁scatterlist 100
warning 100
sysc 100
DISABLED 100
▁plat 100
MEMORY 100
▁SENSOR 100
38 100
DEN 100
▁Driver 100
▁sdio 100
LIC 100
cessed 100
SYSTEM 100
▁lockdep 100
ppgtt 100
OPEN 100
FTR 100
CIF 100
70_ 100
arger 100
▁AM 100
fier 100
VGA 100
▁Se 100
branch 100
nest 100
▁'\0 100
apply 100
abling 100
▁syscall 100
THRESH 100
DEON 100
▁shared 100
▁SI 100
ENUM 100
▁>>= 100
bounce 100
▁hfi 100
resses 100
▁BLK 100
bmap 100
QUERY 100
▁ALSA 100
▁wacom 100
should 100
TARGET 100
GLOBAL 100
▁http 100
▁private 100
▁response 100
▁details 100
ki 100
PASS 100
DY 100
▁pins 100
IWL 100
▁DM 100
▁MM 100
▁filp 100
()); 100
util 100
▁When 100
charge 100
▁ndev 100
PROT 100
▁gf 100
lines 100
ROP 100
▁nlattr 100
MOUNT 100
▁associ 100
pmic 100
ml 100
threads 100
▁npages 100
▁rds 100
CHAR 100
csk 100
▁internal 100
xfrm 100
▁area 100
leave 100
▁returns 100
ftrace 100
USED 100
affinity 100
IZ 100
resv 100
Read 100
PREP 100
interrupts 100
▁CRYPTO 100
tstamp 100
▁packets 100
nvm 100
▁auth 100
016 100
CLEAR 100
fm 100
▁dout 100
ology 100
▁mapped 100
▁LP 100
pha 100
▁adap 100
locks 100
LOOK 100
nmi 100
prec 100
(0); 100
▁GEM 100
XP 100
▁Ex 100
▁"0 100
▁sr 100
body 100
▁mmap 100
▁argument 100
compress 100
ahci 100
▁zfcp 100
phandle 100
BSS 100
Status 100
▁ports 100
ratio 100
▁written 100
Inter 100
▁eb 100
ONT 100
▁); 100
memcmp 100
SMB 100
mobile 100
LI 100
formats 100
▁prop 100
pstate 100
peg 100
ENGINE 100
written 100
▁assert 100
ctlr 100
▁Returns 100
915-> 100
lim 100
CREATE 100
▁ks 100
expected 100
random 100
ordered 100
PLUG 100
screen 100
4000 100
▁unit 100
▁example 100
▁strc 100
▁drive 100
CRC 100
rg 100
COMPAT 100
▁qlcnic 100
835 100
_11 100
initial 100
apb 100
▁igb 100
▁DEV 100
avg 100
▁"= 100
mcs 100
MMIO 100
NEED 100
▁transport 100
sect 100
para 100
▁aux 100
Le 100
▁xfer 100
devdata 100
mada 100
[1]); 100
▁SPE 100
AA 100
18, 100
▁msi 100
properties 100
▁Init 100
edp 100
QUOT 100
SERIAL 100
▁vmcs 100
parents 100
4- 100
nsec 100
Write 100
▁xp 100
IMX 100
DEL 100
XA 100
acked 100
▁iow 100
▁FA 100
▁rp 100
migrate 100
▁meson 100
▁6) 100
mcast 100
▁search 100
sets 100
▁physical 100
HAL 100
iant 100
▁ui 100
strto 100
▁hist 100
SCALE 100
sumer 100
▁keep 100
▁provide 100
RN 100
final 100
oper 100
derr 100
duct 100
LOOKUP 100
▁neigh 100
PERM 100
00000, 100
most 100
rps 100
diag 100
nents 100
partial 100
nn 100
Ite 100
_2, 100
ncmp 100
FIXED 100
actual 100
pv 100
extack 100
nat 100
ddi 100
EDGE 100
▁errno 100
sts 100
MIPS 100
EPH 100
hardware 100
▁would 100
magic 100
rub 100
8; 100
▁ec 100
▁Sh 100
▁hard 100
▁CIFS 100
roadcast 100
defined 100
▁empty 100
seu 100
▁frequency 100
CG 100
▁errors 100
▁offsetof 100
OPTION 100
89_ 100
ncy 100
▁CEPH 100
▁FE 100
▁ion 100
weight 100
▁0. 100
53_ 100
▁model 100
overlay 100
PED 100
rng 100
HOT 100
ubi 100
BLE 100
ANCE 100
BROAD 100
▁tsk 100
dssdev 100
IFTYPE 100
volume 100
▁gre 100
776 100
▁sum 100
(1) 100
▁fh 100
,% 100
Id 100
plic 100
TV 100
shot 100
00}, 100
hint 100
▁napi 100
▁TA 100
▁wakeup 100
TLV 100
▁mlog 100
hist 100
hif 100
Port 100
▁pud 100
COP 100
PENDING 100
lection 100
▁7) 100
01_ 100
▁Move 100
▁SCTP 100
▁scnprintf 100
▁connection 100
musb 100
MCS 100
▁prepare 100
lut 100
▁sci 100
▁dirty 100
▁replace 100
▁until 100
sram 100
▁definit 100
LAST 100
.␌ 100
possible 100
install 100
▁ocelot 100
▁SEC 100
▁oct 100
PMU 100
Count 100
rbd 100
mst 100
failure 100
iver 100
STD 100
ather 100
512 100
STORE 100
▁SMB 100
levels 100
:1; 100
values 100
lvds 100
▁(_ 100
▁ABS 100
▁priority 100
▁All 100
widgets 100
winner 100
▁CHE 100
▁userspace 100
xC 100
EF 100
RMWARE 100
FAILURE 100
▁FIX 100
▁et 100
▁CHECK 100
well 100
▁udp 100
▁POWER 100
▁MDIO 100
▁lm 100
smi 100
200_ 100
ICK 100
fsb 100
▁transaction 100
izona 100
▁stmmac 100
▁40 100
80, 100
initialized 100
tw 100
▁spinlock 100
[8 100
▁Linux 100
fck 100
idia 100
parms 100
▁tool 100
Buffer 100
parm 100
▁NOT 100
Invalid 100
ih 100
STAMP 100
requests 100
phan 100
▁dead 100
aw 100
▁flash 100
Time 100
requi 100
dequeue 100
▁Volume 100
CLIENT 100
ernal 100
▁*= 100
8723 100
cachep 100
rement 100
▁bfin 100
▁msecs 100
registers 100
▁quirk 100
8001_ 100
vg 100
▁14 100
mds 100
fbc 100
04, 100
▁Opt 100
▁ipc 100
sis 100
▁pgoff 100
READY 100
▁mid 100
▁rsp 100
74 100
▁udelay 100
DSS 100
UVD 100
▁apic 100
sus 100
▁emit 100
perm 100
mpc 100
nfc 100
pic 100
ifp 100
▁svm 100
sce 100
900 100
▁step 100
wnd 100
VOLT 100
PRINTK 100
cid 100
lif 100
NOFS 100
ution 100
pub 100
emu 100
>"); 100
DEST 100
▁hal 100
▁NLA 100
▁decode 100
▁raid 100
TRIES 100
▁exist 100
recover 100
▁qdisc 100
scode 100
▁00 100
sto 100
lector 100
iser 100
riov 100
xxxu 100
zx 100
Mem 100
▁Read 100
▁mvm 100
ql 100
CRYPTO 100
camera 100
▁WA 100
▁bss 100
WAY 100
trl 100
300 100
pctl 100
▁${ 100
peed 100
(10 100
dcb 100
▁11 100
779 100
915, 100
SREV 100
uplex 100
spinlock 100
mirror 100
▁-1); 100
BM 100
ITEM 100
▁pref 100
IRE 100
▁parameters 100
▁manage 100
BANK 100
▁msleep 100
Rate 100
ddev 100
barrier 100
▁completion 100
▁buffers 100
LEG 100
SELECT 100
vcc 100
03_ 100
▁inte 100
▁MS 100
native 100
appen 100
mips 100
needs 100
▁au 100
[0]) 100
plus 100
ws 100
algo 100
alesce 100
)] 100
▁INFO 100
▁TC 100
rott 100
GENERIC 100
▁commit 100
VOLUME 100
COMMON 100
_, 100
831 100
BCM 100
▁ufshcd 100
▁hub 100
wrap 100
linkage 100
▁512 100
▁otherwise 100
phdr 100
cdclk 100
sport 100
ersion 100
▁how 100
DST 100
startup 100
▁virtual 100
▁afs 100
RGB 100
rmap 100
▁ICE 100
▁window 100
stems 100
INST 100
MV 100
imm 100
VERB 100
element 100
▁network 100
▁alg 100
HAVE 100
devicetree 100
COND 100
pb 100
▁dcn 100
▁ubifs 100
▁Mic 100
Could 100
▁1)); 100
DF 100
VIEW 100
WELL 100
▁Disable 100
DEFER 100
REPORT 100
000000, 100
▁LOG 100
xor 100
relse 100
forman 100
▁SCSI 100
▁dso 100
blks 100
distri 100
▁Clear 100
stderr 100
VECTOR 100
FFFF 100
▁requested 100
ob 100
▁acc 100
formance 100
▁below 100
▁ADC 100
queued 100
stm 100
ENCE 100
mented 100
▁supports 100
ison 100
▁sent 100
▁depth 100
▁hy 100
subdevice 100
scription 100
Key 100
▁bdev 100
▁MES 100
getlb 100
Enable 100
vmcs 100
▁direction 100
GFX 100
listen 100
pn 100
audit 100
SPEC 100
▁ANY 100
▁soft 100
▁EXYNOS 100
RESERVED 100
▁STATIC 100
24_ 100
ARY 100
held 100
▁nfc 100
tran 100
Out 100
ait 100
sclk 100
SUPPLY 100
8: 100
4>; 100
▁iowrite 100
LIB 100
▁1000; 100
FIRST 100
▁RDMA 100
▁null 100
addrs 100
metric 100
BIAS 100
▁such 100
▁directory 100
▁PS 100
sst 100
PAN 100
▁proper 100
EXTENT 100
▁sdev 100
hether 100
▁restore 100
inv 100
▁cookie 100
static 100
IGNORE 100
RESULT 100
cer 100
▁SR 100
ERNAL 100
Mic 100
registered 100
dead 100
ADAP 100
nop 100
help 100
populate 100
▁0>; 100
▁rpcrdma 100
flo 100
pch 100
22_ 100
NESS 100
[7 100
63_ 100
80215 100
▁means 100
▁Te 100
DIF 100
▁LIST 100
_24 100
PW 100
▁alignment 100
▁caller 100
UNC 100
MAJ 100
▁13 100
MGMT 100
LOOP 100
SYN 100
GEM 100
script 100
cls 100
second 100
ifindex 100
LAKE 100
avinci 100
tz 100
▁dig 100
dot 100
▁32; 100
▁mdio 100
ibdev 100
▁MESON 100
▁vport 100
▁like 100
constant 100
cntl 100
capabilities 100
Value 100
ABORT 100
▁RCAR 100
(3, 100
▁Tx 100
RTS 100
lld 100
▁BRCM 100
▁*_ 100
FM 100
RAD 100
intc 100
▁Input 100
nlh 100
▁{}; 100
true 100
wk 100
▁lru 100
CY 100
the 100
WIN 100
8192_ 100
dram 100
iova 100
▁mdp 100
PRESENT 100
▁calls 100
▁stripe 100
esp 100
08, 100
qdisc 100
▁remaining 100
▁argc 100
▁EL 100
_100 100
apture 100
hdl 100
dax 100
isk 100
Head 100
▁davinci 100
▁component 100
_80 100
▁percpu 100
▁SIG 100
Unable 100
SLAVE 100
▁console 100
▁tuner 100
clientdata 100
23_ 100
LM 100
dcache 100
Channel 100
atermark 100
▁happen 100
GED 100
MEDIA 100
SLOT 100
atmel 100
▁VLAN 100
▁Data 100
▁place 100
Dis 100
▁ft 100
▁budget 100
SUPPORTED 100
uni 100
maph 100
▁pixel 100
1000>; 100
▁{/* 100
pul 100
▁cfs 100
0>; 100
parser 100
matches 100
000000>; 100
▁THE 100
▁LM 100
UEST 100
▁spu 100
▁uses 100
▁resume 100
ratelimit 100
▁tda 100
_12 100
maphore 100
▁bar 100
her 100
ever 100
headroom 100
▁timespec 100
▁MSI 100
▁nested 100
▁PCM 100
▁{} 100
▁dl 100
sriov 100
▁synchron 100
carrier 100
▁genl 100
▁logical 100
best 100
LICENSE 100
crt 100
915( 100
MINOR 100
▁track 100
▁SP 100
▁iv 100
▁ty 100
bose 100
DOG 100
▁maximum 100
execute 100
LEX 100
rix 100
▁EEPROM 100
unknown 100
-2.0 100
▁DVB 100
xid 100
capacity 100
fbdev 100
▁cfq 100
▁snap 100
▁iova 100
stripes 100
0}, 100
SUM 100
SETUP 100
quired 100
strncmp 100
pvt 100
LINUX 100
HID 100
ACY 100
▁kmap 100
▁tbl 100
010 100
FAILED 100
clr 100
▁kern 100
nth 100
▁cancel 100
▁cpus 100
inject 100
anon 100
pcs 100
▁published 100
evi 100
▁way 100
Se 100
▁12, 100
▁intr 100
▁Convert 100
brcm 100
clusive 100
qi 100
▁SM 100
wire 100
COPY 100
around 100
6: 100
plice 100
▁post 100
HO 100
burst 100
lport 100
700 100
expr 100
lake 100
CX 100
netlink 100
▁BNX 100
balance 100
FIRMWARE 100
pM 100
itle 100
▁idr 100
SYSCALL 100
▁TIM 100
oh 100
items 100
_20 100
extents 100
ECC 100
qla 100
skcipher 100
dsc 100
ea 100
99 100
DV 100
distribute 100
sca 100
fall 100
SCHED 100
▁added 100
▁dup 100
schemas 100
▁most 100
30, 100
UV 100
▁what 100
ANA 100
CRY 100
▁hwmon 100
▁tracing 100
unpin 100
▁mcp 100
transmit 100
progress 100
UMP 100
▁AUD 100
NOTIFY 100
Up 100
DUMP 100
older 100
▁token 100
▁attach 100
4-> 100
PLUS 100
unmask 100
▁xprt 100
rfkill 100
butt 100
attributes 100
▁gfx 100
▁fsc 100
▁hook 100
ks 100
▁ODM 100
▁fsnotify 100
5) 100
override 100
TXD 100
THREAD 100
adj 100
▁fan 100
button 100
AVE 100
1002, 100
▁IPPROTO 100
constraint 100
At 100
▁VIRT 100
▁substream 100
digest 100
▁touch 100
mhz 100
▁red 100
dv 100
wp 100
▁frames 100
▁sas 100
▁BO 100
▁huge 100
SUSPEND 100
▁journal 100
ton 100
▁vdev 100
LAB 100
▁TRIG 100
▁fields 100
▁buff 100
PINCTRL 100
▁0: 100
method 100
SPC 100
timi 100
eval 100
▁enc 100
.0 100
die 100
tpg 100
▁ic 100
"," 100
POST 100
sctp 100
ression 100
),\ 100
bandwidth 100
▁tick 100
DIRTY 100
vecs 100
600_ 100
▁backlight 100
maybe 100
TD 100
tps 100
argp 100
▁actual 100
▁DSI 100
qdev 100
100, 100
▁̈ 100
▁leg 100
unlocked 100
BP 100
▁adc 100
cpg 100
▁ob 100
ATI 100
Items 100
▁whether 100
ahb 100
▁sen 100
){ 100
mdp 100
FORM 100
tract 100
▁sch 100
amma 100
RETRY 100
▁Power 100
▁initialization 100
hole 100
blkcipher 100
pnt 100
▁gpiochip 100
▁CA 100
scm 100
prod 100
▁ranges 100
sound 100
sata 100
%04 100
asan 100
refresh 100
KILL 100
touch 100
atom 100
▁dec 100
▁pmu 100
nbytes 100
NING 100
adding 100
inal 100
aa 100
▁es 100
▁2: 100
▁abort 100
▁PG 100
▁color 100
EEPROM 100
▁bug 100
stride 100
trac 100
physical 100
yo 100
arted 100
VP 100
pitch 100
▁gc 100
ribu 100
under 100
ustre 100
geo 100
anti 100
▁daddr 100
dccp 100
_7 100
consistent 100
rength 100
COD 100
gy 100
▁wq 100
4", 100
alcon 100
calib 100
202 100
alignment 100
blob 100
▁eeh 100
[5] 100
▁vq 100
grity 100
licate 100
▁IFLA 100
mss 100
▁redistribute 100
coalesce 100
gap 100
▁hotplug 100
▁MEM 100
uar 100
▁intf 100
COUNTER 100
ARG 100
SSI 100
associ 100
("\ 100
SMC 100
:` 100
(&( 100
cture 100
3>; 100
▁TG 100
▁GIC 100
thresh 100
TRAP 100
kiocb 100
duration 100
ool 100
13_ 100
edge 100
syms 100
▁DAC 100
iotlb 100
CLA 100
tooth 100
▁TODO 100
inted 100
▁FIFO 100
ITION 100
▁preempt 100
▁previous 100
unds 100
▁clust 100
platdata 100
▁CLOCK 100
▁paddr 100
ISR 100
▁hcd 100
▁sto 100
▁bl 100
vectors 100
▁vsp 100
▁mbox 100
00000000, 100
baud 100
fat 100
(0), 100
completed 100
DROP 100
Address 100
▁lbs 100
600 100
▁yet 100
▁interval 100
▁vhost 100
~~~~ 100
resol 100
points 100
MIXER 100
git 100
▁asmlinkage 100
doc 100
itable 100
Init 100
EXIST 100
tic 100
partition 100
▁vxlan 100
scoder 100
▁detected 100
FIN 100
713 100
roduce 100
Mask 100
RCU 100
PRIO 100
▁instruction 100
ja 100
keep 100
▁IDE 100
▁associated 100
VAR 100
mcb 100
▁32) 100
▁vha 100
enqueue 100
ELE 100
▁simp 100
phase 100
dist 100
▁Only 100
hists 100
ination 100
iscsi 100
pskb 100
OBJECT 100
▁rval 100
cach 100
▁isp 100
clnt 100
offsets 100
HLEN 100
mix 100
0\ 100
VOLTAGE 100
STRU 100
▁safe 100
LIT 100
▁nic 100
acc 100
▁refcount 100
samsung 100
equal 100
711 100
bdi 100
▁BUILD 100
Config 100
uth 100
▁auto 100
15( 100
vation 100
consumer 100
13, 100
@1 100
PGA 100
ulated 100
vided 100
UTEX 100
▁method 100
CLOSE 100
▁10; 100
hier 100
SAVE 100
▁operations 100
▁IR 100
▁shadow 100
▁ntohs 100
IOD 100
cmds 100
necessary 100
▁cam 100
[]; 100
ndis 100
▁recv 100
▁fast 100
▁ram 100
numa 100
▁due 100
SF 100
6( 100
CQ 100
SAS 100
pcr 100
▁pn 100
▁ldr 100
ICH 100
OFDM 100
04_ 100
Table 100
FAST 100
▁sof 100
aps 100
GRP 100
RECOVER 100
orture 100
▁mmio 100
oose 100
▁cdev 100
718 100
chn 100
▁did 100
PMD 100
▁nh 100
PMC 100
▁requests 100
oi 100
((__ 100
pmi 100
ae 100
EVT 100
trim 100
▁GCC 100
surface 100
▁PRINT 100
UCH 100
writeb 100
tasklet 100
fattr 100
▁height 100
▁sysctl 100
descs 100
▁sequence 100
CRYPT 100
2400 100
oclass 100
▁pcmcia 100
915/ 100
dpcd 100
▁psp 100
cow 100
RXD 100
▁overflow 100
mipi 100
psp 100
500_ 100
nm 100
CLGE 100
dirent 100
▁evt 100
▁kref 100
130 100
▁hs 100
required 100
▁Support 100
▁gpiod 100
PARM 100
▁ethernet 100
▁̄ 100
ular 100
shrink 100
▁memcg 100
▁HOST 100
TIF 100
▁push 100
gh 100
58 100
▁app 100
▁17 100
pose 100
ERE 100
▁route 100
▁WAR 100
Packet 100
▁DWC 100
ipath 100
ommand 100
sizes 100
IFMT 100
ceiver 100
▁strcpy 100
▁assign 100
kfd 100
▁US 100
ABS 100
CFS 100
▁ix 100
BOX 100
SDIO 100
VCPU 100
UCODE 100
▁allowed 100
OX 100
arb 100
▁items 100
▁changes 100
admin 100
▁dn 100
▁Control 100
▁RREG 100
802154_ 100
erated 100
SWAP 100
▁ppc 100
specific 100
▁ax 100
▁cause 100
▁cxl 100
▁ignore 100
2] 100
crit 100
expires 100
▁24) 100
union 100
▁aq 100
▁cell 100
zu 100
eve 100
mpu 100
AE 100
▁WARRAN 100
▁ecc 100
sdvo 100
rts 100
▁kfd 100
▁say 100
COMPLETE 100
asp 100
sio 100
▁FB 100
▁Rx 100
▁atom 100
▁legacy 100
67 100
6; 100
PING 100
▁macro 100
▁timestamp 100
ustom 100
▁There 100
kbd 100
7615_ 100
▁--- 100
▁unmap 100
▁LCD 100
LEGACY 100
▁direct 100
▁service 100
▁kthread 100
XIO 100
MAJOR 100
▁iounmap 100
RP 100
'); 100
storage 100
▁useful 100
▁contains 100
': 100
▁additional 100
termine 100
loaded 100
▁EM 100
▁OFF 100
merge 100
GMAC 100
pdu 100
www 100
▁ident 100
▁coda 100
▁<<= 100
▁reading 100
BW 100
PLAT 100
▁resources 100
wlc 100
INV 100
▁ATTR 100
charger 100
LVL 100
▁ssi 100
▁SKB 100
▁2), 100
ALI 100
▁opts 100
▁10); 100
▁reserve 100
▁cla 100
ising 100
▁rev 100
▁0)); 100
8994_ 100
▁folio 100
▁dmaengine 100
2835_ 100
▁fwnode 100
1" 100
▁aligned 100
▁{0, 100
strings 100
▁micro 100
▁ntohl 100
accept 100
0000>; 100
instr 100
osb 100
0-> 100
▁5; 100
▁radix 100
▁su 100
paa 100
1/ 100
])); 100
▁mfd 100
pkts 100
▁indicate 100
▁xg 100
▁panic 100
▁Mode 100
green 100
pkey 100
▁044 100
▁win 100
▁td 100
▁reply 100
OND 100
PCS 100
isa 100
▁prefix 100
Byte 100
kprobe 100
MTD 100
▁RATE 100
ole 100
usbdev 100
cu 100
▁SMP 100
gart 100
iler 100
▁diff 100
8. 100
▁Out 100
▁Lo 100
MHZ 100
PORTS 100
_2( 100
▁FC 100
▁tlb 100
▁octeon 100
ocelot 100
DID 100
tenr 100
yle 100
▁IW 100
DEAD 100
665 100
mfc 100
Ser 100
slow 100
5640_ 100
-+ 100
▁Handle 100
eader 100
kern 100
osc 100
▁VF 100
prime 100
anted 100
▁connected 100
URN 100
ceph 100
tasks 100
MEL 100
hdrlen 100
ignore 100
▁Error 100
PARENT 100
ln 100
MPU 100
▁SOCK 100
▁vgic 100
▁aa 100
ISING 100
▁Int 100
▁WITH 100
SPIN 100
lier 100
▁MAP 100
eax 100
tpl 100
GRE 100
tom 100
gative 100
CCK 100
routes 100
▁blocksize 100
▁documentation 100
have 100
▁routine 100
▁locked 100
pattern 100
CTS 100
REGION 100
doorbell 100
▁ie 100
▁ima 100
(): 100
IRQS 100
LR 100
▁12) 100
parate 100
▁FIXME 100
mute 100
▁uvc 100
▁renesas 100
▁resets 100
rtw 100
965_ 100
readed 100
divider 100
fq 100
emulate 100
clkdm 100
▁CD 100
)))) 100
rease 100
++); 100
eser 100
GM 100
evf 100
▁processor 100
▁stand 100
00: 100
ained 100
idi 100
▁settings 100
coding 100
▁unnecessary 100
10) 100
▁{. 100
ULAR 100
pmlme 100
chr 100
ioapic 100
words 100
ient 100
▁evlist 100
▁WL 100
.* 100
hest 100
imed 100
▁10) 100
ua 100
gas 100
6); 100
▁gpa 100
ldev 100
27_ 100
▁vmbus 100
unable 100
▁Config 100
▁removed 100
ALU 100
PREFIX 100
XI 100
▁ohci 100
samples 100
eu 100
▁1]; 100
otify 100
▁WMI 100
▁prio 100
▁htonl 100
ICY 100
▁TASK 100
resched 100
▁/= 100
▁currently 100
▁uid 100
disks 100
▁kunmap 100
▁registered 100
ireless 100
▁ofs 100
52_ 100
pended 100
mtk 100
vga 100
▁partition 100
▁CPUs 100
PECT 100
▁mvpp 100
playback 100
chiq 100
span 100
▁segment 100
▁MTK 100
▁cdns 100
▁busy 100
SQ 100
VBInfo 100
:0 100
▁messages 100
LT 100
member 100
▁once 100
Offset 100
▁BSS 100
shm 100
▁saved 100
▁big 100
▁gra 100
Th 100
tags 100
duplex 100
▁timing 100
(4, 100
PB 100
▁leak 100
LANK 100
▁Page 100
▁attrs 100
▁LL 100
lify 100
ACON 100
##_ 100
EPROBE 100
deleg 100
ALLOW 100
uevent 100
▁gic 100
▁vdd 100
GUEST 100
PLANE 100
RELE 100
undle 100
encap 100
integer 100
rvu 100
orphan 100
QUOTA 100
▁DATA 100
STEP 100
splice 100
▁OCP 100
Bo 100
▁SOF 100
icsk 100
decrypt 100
ility 100
\" 100
cycles 100
cat 100
▁qe 100
▁sign 100
▁layer 100
twl 100
gpa 100
▁hrtimer 100
PART 100
hca 100
logic 100
COR 100
9) 100
ipa 100
▁BITS 100
FTA 100
▁PP 100
spdif 100
▁trap 100
▁owner 100
ENOSPC 100
#### 100
▁fsi 100
cli 100
qspi 100
▁bound 100
loopback 100
ear 100
▁meta 100
▁BE 100
▁argv 100
▁every 100
List 100
▁scr 100
▁xlog 100
position 100
▁their 100
rem 100
RESUME 100
▁cont 100
poration 100
▁ipa 100
▁within 100
visible 100
tile 100
wind 100
locate 100
isc 100
▁EFI 100
kmem 100
append 100
840_ 100
". 100
DDR 100
aker 100
▁unknown 100
▁names 100
▁cros 100
51 100
lanes 100
▁threshold 100
OTG 100
fec 100
1105_ 100
icmp 100
▁udev 100
sysclk 100
ont 100
▁detect 100
UTDOWN 100
▁lan 100
▁cy 100
ORKAGE 100
TIMING 100
HORKAGE 100
ARP 100
IER 100
nxt 100
▁Val 100
ufs 100
▁MMU 100
zones 100
membase 100
▁Corporation 100
8), 100
PAUSE 100
▁restart 100
▁never 100
▁PWM 100
▁ipo 100
▁vendor 100
PIO 100
VMX 100
▁*@ 100
▁checks 100
provider 100
CONST 100
probes 100
guid 100
03, 100
TEXT 100
001 100
share 100
ony 100
Int 100
▁cursor 100
iB 100
overflow 100
▁MED 100
hex 100
▁migrate 100
ICS 100
▁buflen 100
▁notify 100
cdb 100
▁vt 100
PLAY 100
▁text 100
FIXUP 100
rtlpriv 100
▁kill 100
▁waiting 100
▁pnfs 100
▁gpmc 100
devinit 100
▁memblock 100
▁NFP 100
▁enough 100
ahash 100
▁tools 100
▁jz 100
rpm 100
RUNNING 100
generation 100
>> 100
ONA 100
GTT 100
▁freed 100
▁oc 100
▁batch 100
▁dio 100
oling 100
▁VIDE 100
undef 100
▁pgprot 100
▁ptp 100
pw 100
RSP 100
▁MIN 100
▁radio 100
▁comment 100
ENOT 100
▁VIDEO 100
ENXIO 100
▁saddr 100
▁cluster 100
mbx 100
▁baud 100
enna 100
▁tcon 100
▁TPS 100
▁stor 100
▁exception 100
dsa 100
▁UP 100
BIND 100
shash 100
variant 100
CLU 100
truncate 100
Ex 100
▁~(1 100
▁know 100
▁quot 100
vxlan 100
dh 100
htt 100
basic 100
SSP 100
▁wrong 100
▁RADEON 100
tex 100
freeze 100
▁distribu 100
SHORT 100
ei 100
dtsi 100
▁6; 100
optional 100
ddc 100
gro 100
▁fid 100
▁warnings 100
MULT 100
ants 100
EMUL 100
thrott 100
acct 100
▁CC 100
taging 100
▁os 100
▁STATUS 100
same 100
img 100
*) 100
HOTPLUG 100
▁icmp 100
initcall 100
▁064 100
▁AES 100
dispatch 100
[3]; 100
▁9, 100
luetooth 100
TB 100
btcoex 100
broadcast 100
could 100
AU 100
oom 100
808 100
asure 100
(2) 100
▁mce 100
▁Staging 100
SERDES 100
▁AUT 100
GENMASK 100
▁hwif 100
APPLE 100
deferred 100
8188 100
px 100
()␝ 100
mce 100
inodes 100
41_ 100
MTU 100
PHA 100
pga 100
To 100
▁memp 100
▁mxs 100
80211: 100
xA 100
dux 100
▁EVENT 100
80000000 100
▁LE 100
cmpxchg 100
▁directly 100
)" 100
▁la 100
heap 100
▁vsi 100
EPERM 100
ETIME 100
hb 100
▁dce 100
▁crypt 100
pgtable 100
▁ld 100
vers 100
▁calling 100
▁Bo 100
itr 100
▁^= 100
genpd 100
DETECT 100
dom 100
lba 100
▁tunnel 100
ceed 100
HARD 100
▁IOMMU 100
xE 100
vin 100
▁fimc 100
which 100
19, 100
rus 100
▁SG 100
phone 100
▁query 100
▁CL 100
ddata 100
HANDLE 100
▁bi 100
RTL 100
[], 100
)/* 100
▁prevent 100
▁lcd 100
▁clone 100
stopped 100
LNK 100
EMPTY 100
stab 100
MF 100
▁pwr 100
sdhci 100
rport 100
eswitch 100
▁Max 100
▁ins 100
INTERVAL 100
▁DEBUGFS 100
PERIOD 100
MAY 100
verse 100
ENCY 100
outp 100
manage 100
((( 100
rib 100
▁iomap 100
threaded 100
▁fm 100
▁dpu 100
▁another 100
NXT 100
▁DIS 100
VDS 100
▁MEDIA 100
ini 100
pop 100
iir 100
ENDED 100
press 100
▁validate 100
▁TUN 100
▁look 100
Event 100
49 100
▁addresses 100
mcp 100
▁BRCMF 100
▁rvu 100
▁cre 100
▁Op 100
▁'\0'; 100
trylock 100
CRTC 100
visor 100
smb 100
SOCK 100
sctx 100
]), 100
▁STM 100
▁provided 100
▁external 100
inx 100
▁pmc 100
tmr 100
ibm 100
ross 100
▁edid 100
▁headers 100
menu 100
midi 100
mostly 100
▁least 100
DOUT 100
NETDEV 100
▁rep 100
FLG 100
vidioc 100
▁tasklet 100
▁Mixer 100
▁Failed 100
▁64, 100
▁IF 100
GHZ 100
▁large 100
vertising 100
RAP 100
▁CM 100
recla 100
dmabuf 100
[2], 100
NEXT 100
blocked 100
gre 100
tek 100
▁skcipher 100
▁wdt 100
VERT 100
pipes 100
▁"../ 100
sep 100
orted 100
train 100
▁misc 100
ished 100
WIFI 100
kb 100
▁ipu 100
rwsem 100
halt 100
vmw 100
tplg 100
▁nlh 100
CPUS 100
router 100
▁race 100
DEPTH 100
▁lines 100
nskb 100
TUNER 100
writew 100
State 100
wilc 100
refcnt 100
ZONE 100
_40 100
▁cons 100
▁eeprom 100
ENTRIES 100
▁1024 100
▁OV 100
NOPM 100
ILC 100
▁types 100
uninit 100
▁checksum 100
syscon 100
SPRN 100
▁passed 100
▁XFRM 100
fpga 100
▁QETH 100
gvt 100
▁vidioc 100
MOV 100
hwirq 100
▁maint 100
contain 100
PRIOR 100
gpr 100
▁What 100
xfe 100
▁shrink 100
AO 100
AES 100
dynamic 100
▁Sy 100
cesses 100
forms 100
▁phba 100
MUTEX 100
▁tt 100
150_ 100
MQ 100
▁ot 100
▁depen 100
cfqq 100
▁255 100
▁mii 100
compare 100
VEC 100
▁DEFAULT 100
_802 100
▁qc 100
Control 100
▁HV 100
Frame 100
proxy 100
▁kobj 100
POLICY 100
plicit 100
bbp 100
mps 100
scs 100
NG 100
3), 100
▁slots 100
ighest 100
deli 100
▁gp 100
▁inv 100
QDL 100
KM 100
SECTOR 100
zy 100
▁account 100
kref 100
▁HCLGE 100
▁You 100
▁SS 100
")); 100
CIPH 100
▁FIT 100
drain 100
28_ 100
CURRENT 100
ark 100
▁css 100
NI 100
ality 100
▁ok 100
▁rxe 100
▁wqe 100
2)) 100
6-> 100
mesh 100
pgdat 100
PRESS 100
▁</ 100
IZONA 100
▁hists 100
▁Write 100
▁alter 100
llc 100
▁MER 100
▁VI 100
XFER 100
▁PART 100
AQ 100
uff 100
Full 100
▁mhi 100
▁IPV 100
CIPHER 100
cop 100
▁double 100
▁maxItems 100
▁transmit 100
▁sst 100
adjusted 100
day 100
ggle 100
▁caps 100
▁aead 100
unbind 100
llseek 100
▁assigned 100
pq 100
▁ei 100
minate 100
▁ensure 100
ifa 100
ovl 100
BEACON 100
3000 100
▁well 100
▁NVME 100
139 100
24, 100
CHG 100
▁(& 100
npages 100
srv 100
strdup 100
pblk 100
pts 100
▁BTN 100
▁pblk 100
▁locking 100
▁multi 100
ACL 100
CHANGED 100
mw 100
transcoder 100
▁hu 100
alpha 100
▁vlv 100
▁EP 100
CEP 100
▁lane 100
rcar 100
watch 100
▁PWR 100
▁bfa 100
RECORD 100
▁successful 100
nvram 100
▁(2 100
▁ccw 100
strength 100
Me 100
parts 100
▁gpios 100
AIL 100
nouveau 100
▁VIRTIO 100
▁leaf 100
▁mth 100
serv 100
▁mss 100
GSO 100
POSE 100
▁ready 100
300_ 100
pgoff 100
WIND 100
KEN 100
recalc 100
DAIFMT 100
▁insert 100
iso 100
CHAIN 100
ppos 100
alled 100
BAT 100
▁MPT 100
xample 100
banks 100
cstate 100
▁pnp 100
▁), 100
▁9) 100
▁2)) 100
▁Allow 100
▁normal 100
▁MB 100
FLASH 100
TOUCH 100
RSS 100
digital 100
------------ 100
▁(1<< 100
▁SMC 100
▁drvdata 100
txen 100
▁special 100
DEFINE 100
▁bw 100
parameters 100
WC 100
sockopt 100
FAN 100
watermark 100
▁strl 100
MHz 100
▁wb 100
RDMA 100
uler 100
▁tls 100
210_ 100
ALIGNED 100
pur 100
▁kiocb 100
▁CFG 100
▁many 100
beat 100
RIGHT 100
_25 100
confi 100
▁AB 100
▁Per 100
IIO 100
▁REGULATOR 100
▁EFX 100
▁HAVE 100
gcc 100
SIGNAL 100
REAL 100
▁ALC 100
Buf 100
▁handled 100
PRIORITY 100
hdcp 100
IRUSR 100
▁beacon 100
TURE 100
URPOSE 100
case 100
▁iocb 100
▁ul 100
VIDIA 100
33_ 100
▁configure 100
▁brelse 100
0002 100
▁held 100
memcpy 100
▁Controller 100
zer 100
parc 100
gene 100
Ar 100
PROP 100
▁rename 100
osuspend 100
rxd 100
dissector 100
rproc 100
▁member 100
_4_ 100
▁mar 100
ipheral 100
strtoul 100
normal 100
▁ioread 100
MPEG 100
asid 100
Lo 100
qmp 100
WB 100
orith 100
ena 100
0000) 100
tact 100
RADIO 100
▁These 100
▁ipoib 100
▁ptep 100
0000); 100
▁pv 100
▁configured 100
je 100
▁MPI 100
tconn 100
▁FLAG 100
TRACK 100
retries 100
▁visor 100
SKIP 100
▁buil 100
▁ibmv 100
rypted 100
mes 100
▁EN 100
SES 100
dict 100
SUN 100
nfsd 100
margin 100
topology 100
▁Example 100
plication 100
▁sectors 100
SECTION 100
▁groups 100
▁Required 100
6000_ 100
decoder 100
CONNECTED 100
big 100
trb 100
WITH 100
▁annot 100
mdsc 100
CGROUP 100
mailbox 100
14_ 100
▁CUR 100
▁sense 100
actions 100
▁edac 100
1⁄2 100
lapic 100
▁primary 100
[16 100
REPLY 100
idate 100
sort 100
htc 100
eserved 100
tn 100
▁isn 100
7915_ 100
▁ARIZONA 100
▁PA 100
IOPAD 100
▁wlc 100
lvl 100
lid 100
rip 100
readdir 100
▁binding 100
echo 100
▁clocksource 100
▁SMU 100
▁sma 100
gating 100
CEPTION 100
DONT 100
indirect 100
tso 100
▁>; 100
File 100
nali 100
▁commands 100
▁VIDIOC 100
▁activ 100
▁proble 100
▁sq 100
ante 100
▁FITNESS 100
▁hdrlen 100
fsi 100
▁pk 100
supplies 100
txd 100
mpling 100
Name 100
more 100
▁MERCHAN 100
rn 100
emp 100
hes 100
▁<1 100
dtb 100
▁writeback 100
sam 100
▁phydev 100
dyn 100
▁small 100
2388 100
ybus 100
▁sja 100
streams 100
aggr 100
▁pcpu 100
BLOCKS 100
undant 100
TABILITY 100
_88 100
reo 100
▁fra 100
igration 100
THRESHOLD 100
▁completed 100
using 100
▁vga 100
110_ 100
.␝ 100
rules 100
NAT 100
▁MERCHANTABILITY 100
CODER 100
demod 100
▁finish 100
SHUTDOWN 100
TUNNEL 100
iry 100
ILOCK 100
uptodate 100
▁dynamic 100
▁endif 100
QUAD 100
▁loc 100
segments 100
oneg 100
cflag 100
:/ 100
rename 100
ahead 100
ddy 100
preempt 100
▁writing 100
OVERR 100
▁cached 100
rnp 100
SERV 100
expect 100
rdp 100
▁slab 100
mhi 100
rockchip 100
▁32- 100
▁TWL 100
vio 100
▁END 100
▁std 100
▁mail 100
▁tests 100
32)); 100
ICULAR 100
▁corresp 100
384 100
spu 100
obd 100
▁scale 100
sqe 100
7134_ 100
▁PURPOSE 100
callchain 100
▁PARTICULAR 100
TED 100
▁APIC 100
vars 100
ppc 100
▁apply 100
DRAM 100
through 100
 100
The 100
▁bindings 100
hpp 100
trs 100
rintf 100
nlink 100
▁queues 100
commands 100
▁filename 100
iserfs 100
UGE 100
objs 100
udio 100
▁binder 100
▁4), 100
IMA 100
▁adis 100
Hal 100
aio 100
tos 100
Uptodate 100
10- 100
ited 100
gw 100
▁own 100
PV 100
allo 100
▁guc 100
▁pch 100
INSN 100
STOR 100
MCR 100
▁osd 100
▁mk 100
ardown 100
▁script 100
apicid 100
buil 100
▁Le 100
_1000 100
▁PPSMC 100
uty 100
ox 100
▁rproc 100
1)) 100
SYM 100
boost 100
VDD 100
ETCH 100
8169_ 100
sfp 100
MBER 100
PROGRESS 100
asy 100
▁DS 100
alive 100
percent 100
pag 100
▁dpaa 100
osdc 100
(*( 100
▁mxc 100
50, 100
▁wmi 100
rio 100
PARAMS 100
AI 100
5000 100
▁temperature 100
ount 100
▁(-- 100
▁implementation 100
analog 100
▁jffs 100
002 100
5. 100
▁ISCSI 100
ENTER 100
sight 100
302 100
▁connect 100
▁ff 100
▁TCA 100
setkey 100
HV 100
▁Spe 100
udata 100
▁assume 100
WAYS 100
▁cpuidle 100
softc 100
dire 100
BITMAP 100
JMP 100
ISO 100
PAL 100
▁dsp 100
▁compile 100
MALLOC 100
vco 100
ottom 100
STRUCT 100
▁strn 100
▁im 100
NB 100
rgb 100
swp 100
▁tsc 100
▁bq 100
., 100
cdns 100
robe 100
ATCHDOG 100
▁armada 100
)__ 100
DET 100
For 100
vsync 100
▁usbhs 100
lsm 100
5- 100
▁il 100
▁LPFC 100
▁PACK 100
unction 100
▁tf 100
atic 100
phb 100
Version 100
915) 100
mediatek 100
nored 100
secondary 100
scrub 100
DDI 100
▁MHz 100
gamma 100
▁18 100
Sup 100
kthread 100
LEFT 100
▁esw 100
chipset 100
TERN 100
lent 100
▁dac 100
exist 100
tap 100
[4]; 100
roken 100
=$ 100
TID 100
macro 100
▁crash 100
DCAPS 100
▁Should 100
▁posix 100
▁detection 100
RGMII 100
▁dispc 100
ALIAS 100
FALL 100
▁final 100
VFS 100
▁nvm 100
scu 100
regulators 100
▁ptl 100
stage 100
▁rtsx 100
▁env 100
VERTI 100
AVAIL 100
▁Port 100
comedi 100
overnor 100
▁optional 100
815 100
▁rtd 100
scp 100
__) 100
▁Capture 100
csd 100
hdw 100
tape 100
ipu 100
▁cho 100
▁pvr 100
vals 100
▁sur 100
PTP 100
XB 100
▁fixup 100
SMBUS 100
noop 100
▁monitor 100
isoc 100
pinned 100
▁expect 100
LCR 100
▁CAN 100
sensors 100
REGULATOR 100
dfs 100
▁CHAN 100
moyo 100
ICT 100
ctime 100
32: 100
▁bs 100
CNTRL 100
buflen 100
▁phylink 100
▁BY 100
20) 100
On 100
▁ipath 100
▁[0 100
depen 100
▁nvmet 100
fallback 100
WD 100
cpp 100
▁32); 100
231 100
▁": 100
pcpu 100
▁An 100
▁PTE 100
▁front 100
▁WITHOUT 100
gmac 100
LOC 100
▁random 100
artbeat 100
vpd 100
▁WARRANTY 100
credits 100
Ext 100
▁IFF 100
▁TLB 100
ksettings 100
Trans 100
▁20, 100
)]; 100
▁sdma 100
▁((! 100
ket 100
special 100
devid 100
Al 100
quad 100
cntrl 100
▁encode 100
fclk 100
▁latency 100
budget 100
TREE 100
17, 100
ka 100
0" 100
▁3. 100
[6] 100
integrity 100
pet 100
apm 100
flower 100
byname 100
metrics 100
▁delete 100
bmc 100
IFLA 100
59 100
STE 100
-2 100
chandef 100
_3_ 100
▁"# 100
book 100
GU 100
gress 100
▁vchiq 100
▁ahci 100
▁mci 100
mcbsp 100
SUBDEV 100
hyper 100
meson 100
▁MIPI 100
note 100
▁DSP 100
ONY 100
qid 100
▁cfc 100
IAN 100
▁initialized 100
lli 100
ATURE 100
readb 100
iovec 100
5", 100
sai 100
▁SDF 100
precated 100
310 100
FCP 100
▁DUMP 100
▁QLA 100
▁Call 100
▁MMIO 100
Request 100
selector 100
istration 100
5; 100
PN 100
▁6); 100
cannot 100
advance 100
vmalloc 100
chanlist 100
ared 100
▁CAP 100
REQU 100
oframe 100
SUR 100
she 100
usr 100
elems 100
bypass 100
▁Ren 100
conti 100
mpol 100
vdso 100
SPLIT 100
HANDLED 100
▁modes 100
virtio 100
dx 100
HER 100
SHA 100
▁were 100
▁hif 100
▁invalidate 100
▁%% 100
itive 100
▁Interrupt 100
ILE 100
sack 100
▁hole 100
Cmd 100
8350_ 100
resync 100
IOV 100
XATTR 100
▁mipi 100
▁implied 100
descr 100
based 100
▁rm 100
endian 100
▁export 100
VISION 100
▁kernfs 100
▁job 100
INITIAL 100
lapsed 100
pkg 100
▁bcma 100
▁native 100
▁Bluetooth 100
▁button 100
▁ea 100
PSR 100
_* 100
▁SOFT 100
tcf 100
CAPTURE 100
NETIF 100
glock 100
▁Po 100
qh 100
scanned 100
autosuspend 100
writereg 100
RCV 100
supports 100
brd 100
▁sdw 100
▁oper 100
remaining 100
EXYNOS 100
ROUT 100
enu 100
POLAR 100
99_ 100
cpup 100
ampdu 100
▁created 100
EB 100
cec 100
▁wfx 100
▁offload 100
▁EC 100
05, 100
ACC 100
▁ionic 100
FY 100
pas 100
▁vec 100
wpa 100
jpeg 100
▁location 100
INTERNAL 100
SENSE 100
snapshot 100
SHOT 100
▁Reset 100
ARC 100
fro 100
▁SB 100
ICR 100
WRIT 100
▁($ 100
▁cpsw 100
rtt 100
▁Ar 100
▁SER 100
▁redundant 100
MEI 100
▁ai 100
▁Description 100
ucv 100
▁sel 100
FPGA 100
ARB 100
▁aac 100
gasas 100
▁profile 100
▁scmi 100
pow 100
WLAN 100
▁pack 100
▁netxen 100
▁negative 100
DD 100
account 100
▁turn 100
ISA 100
▁delayed 100
▁FILE 100
king 100
dcc 100
ueue 100
keypad 100
▁fails 100
▁\" 100
▁NI 100
▁MEI 100
XEN 100
▁cases 100
Freq 100
▁Rep 100
adsp 100
bundle 100
▁magic 100
▁KBUILD 100
MSIX 100
stolen 100
CIA 100
objects 100
usecs 100
sma 100
▁alarm 100
GL 100
▁necessary 100
▁attributes 100
chunks 100
Cannot 100
'\ 100
▁tv 100
▁sdp 100
▁ocp 100
Code 100
▁MODE 100
VERBS 100
alert 100
ptrace 100
▁1]. 100
IMR 100
▁tile 100
PROTOCOL 100
5( 100
▁SUP 100
▁jbd 100
ongs 100
312 100
PageUptodate 100
CLS 100
once 100
▁(~ 100
▁*), 100
▁iwlwifi 100
masked 100
▁attemp 100
JECT 100
partitions 100
TCA 100
____ 100
▁actually 100
PFN 100
▁note 100
TEGRA 100
intercept 100
▁nop 100
nlmsg 100
claim 100
61 100
▁offs 100
lq 100
▁wrap 100
handlers 100
▁dput 100
SSID 100
▁locks 100
25, 100
kick 100
End 100
Curr 100
▁QED 100
BRE 100
▁"[ 100
▁KM 100
lation 100
comb 100
DMAC 100
named 100
▁standard 100
▁POLL 100
copied 100
▁supply 100
▁PC 100
OG 100
▁appro 100
tle 100
▁LIN 100
functions 100
vebu 100
defaults 100
dquot 100
▁sunxi 100
SERVICE 100
▁gadget 100
san 100
▁vmf 100
▁Num 100
▁abs 100
▁ena 100
STAND 100
RDONLY 100
▁around 100
▁TYPE 100
redirect 100
CHUNK 100
▁requires 100
▁wc 100
▁TPM 100
semaphore 100
▁strlcpy 100
6), 100
▁Can 100
▁pca 100
unique 100
WDT 100
seudo 100
vgic 100
resid 100
▁iser 100
▁pair 100
TRAIN 100
64); 100
adapt 100
28, 100
▁keys 100
21, 100
vbi 100
▁occur 100
lat 100
ML 100
▁inb 100
blkno 100
▁At 100
▁MCP 100
▁DO 100
pcmcia 100
▁separate 100
>< 100
cru 100
onding 100
80) 100
▁lv 100
▁GFS 100
▁maintain 100
▁distributed 100
dip 100
sgt 100
bvec 100
ppy 100
▁4096 100
sired 100
5602_ 100
pipeline 100
vpu 100
rcms 100
(!( 100
hing 100
RSSI 100
▁%04 100
ALWAYS 100
▁PACKET 100
sol 100
inner 100
▁checking 100
965 100
915); 100
040_ 100
sinfo 100
▁pinmux 100
▁condition 100
spa 100
dency 100
gle 100
▁LPC 100
bly 100
721 100
INLINE 100
▁verify 100
3] 100
▁printed 100
▁netns 100
▁xsk 100
▁MGMT 100
CHANNELS 100
ced 100
▁expi 100
▁GENMASK 100
vor 100
2000_ 100
▁GATE 100
▁synchronize 100
placement 100
8500 100
▁Status 100
nfp 100
▁TIMER 100
▁Drop 100
modi 100
dpu 100
▁bucket 100
▁scratch 100
▁dasd 100
16); 100
▁OFFSET 100
▁fcoe 100
ctrls 100
devfn 100
▁nn 100
▁15, 100
▁mer 100
▁definitions 100
▁mirror 100
reqs 100
msgs 100
mn 100
▁DB 100
CLAIM 100
IMENT 100
fds 100
▁iput 100
▁management 100
IMENTAL 100
devexit 100
PERIMENTAL 100
LACE 100
10: 100
mul 100
odm 100
▁PCH 100
▁cvmx 100
▁shost 100
▁udf 100
RECOVERY 100
▁Scsi 100
00000000); 100
tls 100
▁regval 100
rove 100
▁die 100
timize 100
▁rates 100
▁workqueue 100
live 100
_8021 100
XY 100
▁APCI 100
mot 100
roll 100
REAS 100
EVENTS 100
▁logic 100
BOUND 100
▁those 100
8- 100
panic 100
irmware 100
▁wlan 100
statistics 100
ratelimited 100
▁modi 100
aic 100
▁FORCE 100
mib 100
NUMBER 100
▁mthca 100
ADMIN 100
UMA 100
_802_ 100
▁dax 100
ptl 100
OPTIONS 100
endisk 100
▁Some 100
vmlinux 100
▁processing 100
RDY 100
iphier 100
vict 100
▁1000); 100
BIOS 100
srcu 100
clusters 100
XMIT 100
▁MCF 100
Unknown 100
▁RTW 100
WF 100
0)) 100
sdhi 100
▁warr 100
usec 100
AGC 100
ccw 100
▁27 100
5000_ 100
structions 100
▁Say 100
virq 100
orithm 100
▁pDevice 100
TSO 100
▁OCFS 100
CONTIN 100
must 100
▁uc 100
▁Ether 100
wx 100
▁HI 100
requested 100
RV 100
fdt 100
vreg 100
▁BD 100
▁cec 100
GOL 100
QOS 100
...) 100
▁hlen 100
▁recovery 100
EO 100
723 100
8>; 100
ANGE 100
▁ENTRY 100
anty 100
product 100
xres 100
seconds 100
standing 100
TIMESTAMP 100
▁PMD 100
NFTA 100
xfff 100
▁Bit 100
▁sound 100
▁alt 100
▁allows 100
wol 100
RISING 100
Header 100
=1 100
FORK 100
▁HP 100
32)( 100
xFFFFFFFF 100
->_ 100
▁BC 100
SCLK 100
▁FMODE 100
execlists 100
▁TIPC 100
▁phandle 100
▁counters 100
BIN 100
▁azx 100
ipg 100
DIAG 100
▁CTL 100
▁TRANS 100
IOMUX 100
▁resol 100
leader 100
aque 100
▁dmi 100
▁dra 100
▁warranty 100
69 100
ELEM 100
▁bdi 100
▁RING 100
false 100
▁uv 100
4965_ 100
SDR 100
▁hugetlb 100
via 100
NVIDIA 100
cmu 100
SSAGE 100
▁selftests 100
cmdline 100
MK 100
spr 100
▁xs 100
SATA 100
▁callbacks 100
▁pnv 100
[( 100
▁mesh 100
:%02 100
tmu 100
▁0444, 100
▁lg 100
uapi 100
COE 100
▁ak 100
DISCARD 100
SCRATCH 100
▁reiserfs 100
ACCES 100
suspended 100
8250_ 100
▁Ser 100
▁bias 100
sibling 100
▁term 100
▁begin 100
1307 100
▁subdev 100
LOGIC 100
offline 100
mdup 100
▁(++ 100
▁require 100
asus 100
▁xmit 100
▁ldo 100
▁Other 100
-2.0- 100
double 100
sds 100
▁vmalloc 100
▁24, 100
▁ATMEL 100
▁let 100
87_ 100
▁POST 100
instruction 100
URES 100
▁obd 100
▁NETDEV 100
SIVE 100
ens 100
prm 100
▁lr 100
▁nvidia 100
▁pmic 100
▁kprobe 100
▁rem 100
mf 100
▁TTM 100
Ma 100
fte 100
Line 100
▁Change 100
subdevices 100
rsrc 100
▁iop 100
▁supp 100
▁sink 100
▁execute 100
▁7; 100
▁ol 100
▁gid 100
▁effect 100
▁gt 100
pasid 100
ccid 100
▁represent 100
▁enter 100
PLATFORM 100
vht 100
▁chips 100
▁barrier 100
cwnd 100
▁qca 100
▁ixgb 100
scmd 100
hsync 100
ktime 100
SOLE 100
▁204 100
▁element 100
ticks 100
▁8), 100
▁gsi 100
FLIP 100
_32( 100
alle 100
flowi 100
evict 100
hashtable 100
kmap 100
▁PAR 100
000); 100
▁Src 100
▁bpp 100
▁Replace 100
BIG 100
timeo 100
▁ssid 100
▁position 100
uthor 100
agp 100
shdr 100
▁smsc 100
package 100
dpi 100
CFLAGS 100
als 100
▁tables 100
teardown 100
users 100
netdevice 100
iate 100
title 100
dhc 100
Lock 100
rectly 100
wep 100
▁FLOW 100
compressed 100
ys 100
▁fat 100
▁edge 100
▁writes 100
rif 100
HPD 100
verage 100
▁threads 100
▁{0}; 100
clo 100
gpe 100
UNUSED 100
▁emulate 100
ETIMEDOUT 100
▁mixer 100
▁tlv 100
▁metadata 100
ASSOC 100
vmf 100
Number 100
▁RO 100
▁ls 100
▁1000000 100
▁htt 100
mgd 100
▁UFS 100
notif 100
coming 100
extended 100
external 100
▁cpuid 100
▁branch 100
cil 100
ulk 100
6591 100
▁ste 100
60, 100
▁reloc 100
WMI 100
▁udc 100
INCI 100
fbi 100
oned 100
pmlmepriv 100
▁brcms 100
CONNECTOR 100
bric 100
▁UBI 100
ddb 100
dmi 100
3945_ 100
forward 100
2/ 100
IZE 100
axi 100
lost 100
▁updated 100
MARY 100
▁mi 100
large 100
▁Ad 100
erred 100
9] 100
86_64 100
synchron 100
gdb 100
edac 100
ENDPOINT 100
Sw 100
3-> 100
ida 100
epc 100
ENDIAN 100
Documentation 100
▁TM 100
▁attached 100
REL 100
[]) 100
DAI 100
pgprot 100
▁NFC 100
cxl 100
▁LDO 100
pvec 100
▁Must 100
orrect 100
ilinx 100
otent 100
▁GB 100
cryptfs 100
▁MVPP 100
mtime 100
qdio 100
ERESTART 100
▁ecryptfs 100
▁capability 100
ads 100
xec 100
(4 100
▁choose 100
ALT 100
▁As 100
imit 100
▁arc 100
pdesc 100
zr 100
(1<< 100
fmr 100
▁RPC 100
6000 100
ima 100
peek 100
▁Cur 100
▁divider 100
▁mailbox 100
Cla 100
▁ud 100
07, 100
7- 100
▁pull 100
25840_ 100
CYCLE 100
devm 100
▁100; 100
vmcb 100
▁cma 100
QUEUES 100
xsk 100
ONIC 100
▁csr 100
alth 100
protect 100
det 100
LER 100
▁OPT 100
UNLOCKED 100
FH 100
▁` 100
DQ 100
SPINLOCK 100
▁Qdisc 100
xB 100
12) 100
▁How 100
infoframe 100
▁volume 100
SPECI 100
▁related 100
ADAPTER 100
FEC 100
▁describ 100
▁stac 100
NOP 100
gsi 100
▁lt 100
station 100
▁sata 100
gered 100
REASON 100
falcon 100
aro 100
▁BTF 100
▁arizona 100
EEP 100
▁4)) 100
cif 100
▁shutdown 100
cluding 100
chans 100
routing 100
drvr 100
▁linear 100
scope 100
=0; 100
tered 100
▁smi 100
▁INTC 100
▁fec 100
▁prob 100
)[ 100
TAL 100
ifb 100
▁av 100
ized 100
▁enet 100
WAKEUP 100
▁Mod 100
GOLDEN 100
mfd 100
counts 100
UNG 100
▁macros 100
▁mempool 100
cable 100
▁hope 100
bootmem 100
mlme 100
trip 100
▁gate 100
▁DPLL 100
uture 100
vator 100
▁TS 100
▁Clock 100
extension 100
▁partial 100
AHB 100
▁nothing 100
prcm 100
icache 100
http 100
▁lnet 100
▁5); 100
OPER 100
▁ERROR 100
▁extack 100
▁existing 100
login 100
▁protect 100
▁namespace 100
idata 100
allocation 100
nex 100
Base 100
rdi 100
OSD 100
100); 100
uverbs 100
▁Not 100
▁limits 100
cck 100
dbi 100
fwd 100
▁sizes 100
streaming 100
▁properly 100
zen 100
▁0644, 100
unted 100
▁explicit 100
headlen 100
▁qm 100
scaling 100
860 100
▁quota 100
▁capture 100
▁sport 100
exclusive 100
1"; 100
children 100
TING 100
REMOTE 100
76. 100
gfs 100
nft 100
replay 100
▁iface 100
10); 100
kip 100
navi 100
mqd 100
GIG 100
▁MCU 100
▁201 100
skl 100
rh 100
mpt 100
DMIC 100
symlink 100
▁archite 100
7; 100
lpfc 100
▁SCI 100
_3, 100
-1) 100
▁QLC 100
▁}) 100
▁rxq 100
bread 100
arizona 100
▁ksz 100
▁SPR 100
▁UINT 100
LSB 100
▁give 100
23885_ 100
kn 100
ROT 100
FETCH 100
▁Kernel 100
PPSMC 100
131 100
handled 100
▁cpuset 100
▁128, 100
▁revision 100
▁Trans 100
▁grp 100
configs 100
▁flo 100
▁hctx 100
backup 100
synth 100
High 100
714 100
INTF 100
▁ast 100
RIER 100
Current 100
FENCE 100
igital 100
820 100
▁RB 100
ctree 100
bdaddr 100
wdd 100
▁nt 100
▁Number 100
afe 100
bk 100
▁LINUX 100
▁override 100
lips 100
▁mpi 100
kcalloc 100
received 100
▁PL 100
arf 100
inb 100
ctive 100
▁Ac 100
▁rot 100
▁virq 100
PREEMP 100
></ 100
7: 100
ording 100
roc 100
OPCODE 100
compound 100
▁((1 100
builtin 100
▁starting 100
vsp 100
masks 100
blue 100
▁marvell 100
FIC 100
▁performance 100
subflow 100
adr 100
4] 100
classdev 100
ITOR 100
▁ptrace 100
▁dib 100
86, 100
therm 100
wbc 100
▁rvt 100
UA 100
8192 100
MSTP 100
iop 100
▁IT 100
▁nb 100
jump 100
▁RAM 100
▁psb 100
edded 100
irc 100
▁guar 100
01); 100
efuse 100
FEATURES 100
▁good 100
▁(1) 100
▁NFT 100
strlen 100
pal 100
▁nes 100
▁dpll 100
Sh 100
22, 100
wn 100
()␜ 100
▁DCCP 100
verted 100
HUB 100
MDIO 100
RAT 100
ibqp 100
▁UDP 100
reader 100
timers 100
MISS 100
▁MP 100
lseg 100
rcd 100
constraints 100
KB 100
▁nlm 100
▁%0, 100
▁slow 100
fficient 100
94 100
▁spte 100
▁typo 100
▁minimum 100
216 100
▁ida 100
loader 100
▁xattr 100
Interface 100
FSB 100
▁asus 100
flt 100
▁JZ 100
▁MACH 100
hostdata 100
MCI 100
20); 100
msrl 100
▁against 100
▁<18 100
holder 100
DELL 100
blocking 100
INI 100
TEN 100
▁DAI 100
▁Initialize 100
▁numa 100
ases 100
▁Author 100
ACTIV 100
▁ahash 100
lagn 100
▁ordered 100
import 100
(4) 100
792 100
fimc 100
▁img 100
▁BIOS 100
fcport 100
▁Mem 100
inactive 100
omatic 100
strict 100
TW 100
(1), 100
eof 100
qgroup 100
2"; 100
(3) 100
007 100
▁RS 100
OVERRIDE 100
▁subsystem 100
▁slice 100
imap 100
▁adjusted 100
▁polling 100
advertising 100
▁cxgb 100
FYI 100
▁hfs 100
▁prom 100
▁conditions 100
see 100
▁cycles 100
▁XX 100
skel 100
REVISION 100
▁greybus 100
TSC 100
[7] 100
voke 100
▁filesystem 100
4000_ 100
SMA 100
▁Ethernet 100
▁provides 100
Pkt 100
blkg 100
▁usleep 100
UBLE 100
two 100
▁style 100
hang 100
tio 100
verifier 100
memmap 100
(7 100
reboot 100
SAI 100
lict 100
▁SSB 100
▁determine 100
▁14, 100
licit 100
▁4: 100
urbs 100
memslot 100
▁install 100
dbs 100
▁sge 100
▁template 100
▁esp 100
SERVER 100
attached 100
container 100
008 100
ASIC 100
▁rndis 100
▁mips 100
▁vd 100
ALSE 100
▁PCIe 100
OFFLOAD 100
320 100
▁Ext 100
cfi 100
delegation 100
crdma 100
▁"/ 100
▁sort 100
MODEL 100
Command 100
pctldev 100
▁SPEED 100
Left 100
stable 100
),/* 100
▁64- 100
NAMIC 100
kmalloc 100
▁nvmem 100
CRT 100
▁menu 100
▁unix 100
car 100
▁LOOKUP 100
missing 100
apl 100
codes 100
PACK 100
poison 100
▁Bu 100
▁objects 100
▁selected 100
scl 100
▁vdso 100
radix 100
black 100
ptable 100
▁HAS 100
▁discard 100
▁Si 100
erator 100
yres 100
]", 100
XFRM 100
▁rfkill 100
asprintf 100
▁strncpy 100
xaa 100
setattr 100
▁TI 100
▁jump 100
UI 100
▁modules 100
deinit 100
▁except 100
EAR 100
UAL 100
qed 100
▁reclaim 100
▁(!* 100
▁qxl 100
center 100
000) 100
psmouse 100
1\ 100
fragment 100
umn 100
subsystem 100
▁protection 100
nids 100
▁notification 100
iu 100
Right 100
series 100
▁layout 100
▁AE 100
▁generate 100
▁|\ 100
jh 100
pnp 100
matrix 100
▁prior 100
marvell 100
▁acp 100
▁seconds 100
YUV 100
▁trig 100
DWORD 100
hyp 100
▁clo 100
▁corresponding 100
rest 100
▁srp 100
▁padding 100
6040_ 100
VX 100
DUAL 100
0000; 100
▁GLOBAL 100
bps 100
nthe 100
DOUBLE 100
▁row 100
▁<5 100
▁HT 100
iga 100
oll 100
four 100
▁Def 100
throttle 100
pps 100
▁HNS 100
▁plen 100
▁srcu 100
hwdev 100
ional 100
dropped 100
2" 100
820_ 100
▁extended 100
delalloc 100
weak 100
▁STA 100
▁COMEDI 100
TBL 100
▁11) 100
▁*)(( 100
▁iphdr 100
▁wbc 100
ACH 100
ets 100
▁allwinner 100
▁verbose 100
INTAIN 100
",& 100
▁QCA 100
0001 100
▁agg 100
reno 100
▁mvebu 100
grant 100
▁blkaddr 100
▁ratio 100
▁generation 100
▁9; 100
prealloc 100
▁loaded 100
BH 100
Req 100
ALARM 100
gbl 100
NDER 100
▁etc 100
▁datalen 100
GPR 100
▁ATOM 100
Min 100
5); 100
fsm 100
sbd 100
CAPABILITY 100
SPORT 100
PRIVATE 100
▁specify 100
},/* 100
ome 100
▁pur 100
dts 100
scaler 100
iling 100
▁"( 100
(5, 100
nalog 100
fwrt 100
Of 100
▁AUDIT 100
rxon 100
▁kasan 100
LIGHT 100
▁writeb 100
JO 100
irqchip 100
TMP 100
+1 100
namelen 100
uses 100
▁guarante 100
gpc 100
▁cop 100
sdiodev 100
backlog 100
clkdev 100
blkaddr 100
reclaimed 100
▁Man 100
PROFILE 100
EID 100
dav 100
▁NOTE 100
WMON 100
nvidia 100
ven 100
cold 100
evm 100
compr 100
▁original 100
nbd 100
▁ldlm 100
cooling 100
▁megasas 100
MID 100
pmem 100
11_0_ 100
cker 100
▁VC 100
drbd 100
▁aspeed 100
transition 100
VHT 100
kaddr 100
▁...) 100
fscache 100
ferred 100
freelist 100
bcast 100
zation 100
Per 100
▁xgene 100
▁definition 100
avi 100
12-> 100
NPHY 100
nilfs 100
▁STR 100
▁11, 100
ROCE 100
▁FEC 100
argc 100
gm 100
▁avail 100
▁isci 100
edma 100
▁vega 100
hlen 100
zd 100
901 100
MOUSE 100
qpn 100
▁lun 100
alloon 100
62_ 100
650 100
ASAN 100
MCLK 100
▁ADIS 100
afu 100
▁duration 100
generate 100
INTAINERS 100
INS 100
wacom 100
xs 100
567 100
Param 100
STRIPE 100
▁({ 100
BURST 100
SPK 100
▁sbp 100
▁anon 100
▁3: 100
BELL 100
gather 100
WP 100
sens 100
enic 100
▁elems 100
▁vcc 100
164 100
AMB 100
▁vs 100
102_ 100
mpic 100
▁assoc 100
▁vio 100
▁tomoyo 100
ISTC 100
notice 100
1394_ 100
cinfo 100
▁NOTIFY 100
origin 100
bprm 100
mout 100
mcasp 100
▁BAT 100
ssive 100
peat 100
uous 100
CLKCTRL 100
▁conversion 100
▁GPU 100
chars 100
startblock 100
▁analog 100
.2 100
▁MK 100
▁iovec 100
areq 100
▁leave 100
▁rdp 100
▁Address 100
WATCHDOG 100
allwinner 100
▁MPC 100
▁factor 100
ocp 100
▁fpu 100
emac 100
▁sim 100
▁flowi 100
lblk 100
Odm 100
▁Mux 100
▁scal 100
MBOX 100
▁comb 100
davinci 100
▁Kconfig 100
IMP 100
LPC 100
▁RD 100
baseT 100
▁tuple 100
▁USE 100
serio 100
▁hsw 100
▁devfn 100
gi 100
jz 100
▁kunit 100
▁shmem 100
INF 100
32), 100
MCU 100
DG 100
256_ 100
▁idev 100
▁introduce 100
111 100
▁saf 100
▁ndlp 100
▁lu 100
▁really 100
)((( 100
▁argp 100
tric 100
▁CRC 100
_( 100
▁ISP 100
ROUTE 100
13) 100
▁ELF 100
▁rights 100
▁CORE 100
10; 100
▁phase 100
▁syscon 100
▁GENERIC 100
success 100
_(0, 100
▁pio 100
▁capabilities 100
ifr 100
▁eq 100
▁xa 100
▁less 100
▁queued 100
mpp 100
▁simplify 100
cfqd 100
cies 100
▁helpers 100
DN 100
▁comments 100
9: 100
TAIL 100
▁ge 100
▁systems 100
backing 100
▁MAINTAINERS 100
lbl 100
▁roundup 100
▁application 100
55_ 100
▁selinux 100
rlc 100
nvdimm 100
srb 100
ssc 100
▁NVM 100
readw 100
lruvec 100
▁aes 100
▁ICMP 100
Desc 100
06, 100
MMAP 100
▁fallback 100
stub 100
dg 100
4740_ 100
MICRO 100
REP 100
ropy 100
PULLUP 100
Register 100
5), 100
writer 100
mplement 100
iew 100
deci 100
BYPASS 100
eng 100
buck 100
initconst 100
shmem 100
▁MUSB 100
▁Adapter 100
uate 100
RELEASE 100
seed 100
▁SDIO 100
Properties 100
BOOK 100
▁Wait 100
▁HD 100
governor 100
▁umode 100
▁iwlagn 100
802. 100
Phy 100
bitrate 100
95_ 100
cmsg 100
▁msghdr 100
485 100
▁SECT 100
DIGIT 100
agent 100
CLUSTER 100
dispc 100
memdup 100
82_ 100
01) 100
feed 100
ONGS 100
tot 100
mpoline 100
▁Avoid 100
vcn 100
year 100
VSYNC 100
TIAL 100
▁uni 100
▁vfsmount 100
refclk 100
REMOVE 100
32; 100
▁seqno 100
tdm 100
▁basic 100
CDC 100
▁flex 100
priate 100
MONITOR 100
1⁄4 100
TF 100
▁ba 100
Driver 100
▁potent 100
rfcsr 100
335 100
cmn 100
DEVID 100
▁Default 100
▁sparse 100
protected 100
prd 100
▁12; 100
naviv 100
626_ 100
kind 100
fprintf 100
torture 100
550 100
▁*(( 100
WINDOW 100
xmm 100
gdev 100
▁remap 100
▁Revert 100
▁points 100
 100
nvmem 100
nae 100
xlate 100
flight 100
330 100
EON 100
[0]-> 100
▁SOFTWARE 100
▁structures 100
▁SHA 100
[2]); 100
▁HWMON 100
ulp 100
aclk 100
▁destination 100
903 100
▁mismatch 100
dual 100
atek 100
▁acl 100
▁cn 100
▁PINMUX 100
PAS 100
▁compute 100
▁adding 100
sky 100
ritems 100
sdr 100
RESERVE 100
CPT 100
>/ 100
(0)); 100
▁lustre 100
deactivate 100
▁nvec 100
ipher 100
itize 100
▁enables 100
allel 100
▁permission 100
resize 100
▁LO 100
dmic 100
roots 100
MSUNG 100
▁MSTP 100
10}, 100
HDA 100
PRT 100
ergy 100
▁tasks 100
($ 100
keymap 100
93_ 100
▁PTP 100
▁XXX 100
EEXIST 100
Hw 100
MET 100
ldisc 100
▁RESET 100
CONSOLE 100
datalen 100
irst 100
deb 100
100>; 100
0"; 100
METER 100
xD 100
gettime 100
argument 100
...\ 100
▁mal 100
ETHTOOL 100
pcp 100
risc 100
purge 100
=== 100
▁BUS 100
▁kvfree 100
mpe 100
BUCK 100
▁Start 100
▁dquot 100
devfreq 100
eed 100
▁<33 100
PEER 100
asc 100
▁cputime 100
▁registration 100
loff 100
▁truncate 100
6", 100
▁CE 100
00\ 100
▁TUNER 100
RECV 100
▁wdev 100
fu 100
SIS 100
▁pattern 100
▁MTD 100
confirm 100
▁pattrib 100
▁sets 100
pVBInfo 100
▁interfaces 100
▁gain 100
WEP 100
DPLL 100
"( 100
>. 100
MESH 100
▁ovs 100
▁Right 100
pat 100
pdn 100
blockcount 100
LRU 100
▁won 100
GIN 100
THIS 100
ONESHOT 100
▁immediate 100
__(( 100
▁ivt 100
003 100
genet 100
▁battery 100
▁BAR 100
▁Pre 100
▁LASSERT 100
ngpio 100
▁"_ 100
Test 100
GRAPH 100
crtcs 100
divisor 100
▁extcon 100
▁mediatek 100
:= 100
ili 100
grab 100
rows 100
▁doing 100
HL 100
▁HE 100
CRIT 100
▁VMX 100
▁vfree 100
UNI 100
▁hyper 100
las 100
▁Current 100
▁Select 100
▁Net 100
reuse 100
polarity 100
kv 100
engines 100
ptop 100
aving 100
▁ssp 100
ified 100
msrs 100
▁vx 100
▁perform 100
88, 100
897 100
▁along 100
▁sid 100
1000, 100
▁brightness 100
smem 100
▁decoder 100
MSB 100
LVDS 100
mini 100
fake 100
▁PMU 100
▁NSEC 100
▁netfilter 100
11) 100
004 100
PERIP 100
els 100
flex 100
gbe 100
▁usbdux 100
ism 100
spm 100
STATION 100
byt 100
pec 100
▁ADVERTI 100
OFS 100
CALIB 100
Hand 100
▁CPG 100
▁MSM 100
▁scic 100
DYNAMIC 100
[1]) 100
tnl 100
▁calculate 100
▁bm 100
btcoexist 100
hdac 100
▁AIC 100
▁NUMA 100
Kconfig 100
6- 100
mei 100
(15 100
▁DID 100
▁aic 100
pstr 100
390/ 100
▁ipw 100
▁switchdev 100
hsw 100
▁stored 100
RECLAIM 100
hugepage 100
08_ 100
JACK 100
rdata 100
SIO 100
CORR 100
▁PCA 100
syscalls 100
Cnt 100
▁___ 100
▁MASK 100
Level 100
020 100
▁orion 100
txpower 100
▁ICH 100
▁VGA 100
876 100
where 100
▁duplicate 100
▁MCI 100
774 100
defs 100
crq 100
▁xx 100
▁sony 100
IOMUXC 100
LLOW 100
PCLK 100
scif 100
tipc 100
▁VIA 100
PRIMARY 100
wal 100
▁outp 100
▁entity 100
▁erofs 100
▁times 100
953 100
allsyms 100
▁tot 100
▁irqs 100
RPM 100
▁KUNIT 100
vring 100
▁retri 100
oe 100
MIPI 100
calculate 100
fspr 100
vmid 100
79_ 100
uap 100
hpriv 100
▁bonding 100
▁PK 100
▁pcf 100
▁gets 100
dqp 100
▁FM 100
effect 100
9003_ 100
RR 100
iator 100
elements 100
tracer 100
TOTAL 100
PCR 100
▁ECC 100
▁pal 100
▁IC 100
▁XGI 100
ACCEL 100
▁cg 100
RAID 100
▁rid 100
URITY 100
▁debugging 100
32(0 100
cw 100
fep 100
▁document 100
psy 100
Net 100
msecs 100
aper 100
▁gtt 100
INTC 100
Link 100
ALOG 100
stall 100
ticket 100
ribe 100
isol 100
ATTRIB 100
pulse 100
▁amdtp 100
clar 100
uprobe 100
lg 100
DOOR 100
att 100
▁going 100
timeline 100
ier 100
09, 100
QM 100
uvd 100
verbose 100
wvif 100
▁ivtv 100
▁sending 100
▁according 100
▁hc 100
rmw 100
EXCEPTION 100
▁opal 100
acp 100
ENOSYS 100
▁"" 100
GIGA 100
lain 100
FAT 100
buddy 100
Led 100
▁beha 100
lpc 100
3000_ 100
unload 100
▁=> 100
lcdc 100
▁FSL 100
_% 100
ISDIR 100
white 100
ISH 100
tune 100
AXI 100
UINT 100
icmd 100
permission 100
IH 100
▁netvsc 100
timespec 100
ctls 100
▁ffs 100
▁wireless 100
cores 100
▁controls 100
stc 100
HIER 100
fsid 100
NOTICE 100
▁exists 100
pinfo 100
▁<3>; 100
ttl 100
▁30 100
▁COMM 100
roadcom 100
rds 100
pfe 100
dpms 100
▁compound 100
▁appropriate 100
loss 100
▁PGA 100
frac 100
▁LINK 100
bn 100
31, 100
_1( 100
configuration 100
▁SoCs 100
▁cach 100
▁nvdimm 100
▁vblank 100
▁gcc 100
cbs 100
pctrl 100
000000) 100
▁hba 100
backend 100
▁ioaddr 100
SLO 100
expand 100
ITS 100
271_ 100
vbt 100
ROW 100
▁"+ 100
EXPECT 100
▁$@ 100
▁Be 100
000; 100
Entry 100
▁idxd 100
tsf 100
rotation 100
TXQ 100
▁ifp 100
▁rsi 100
▁videobuf 100
compl 100
vref 100
CURSOR 100
▁veth 100
▁inside 100
▁8- 100
iget 100
▁CLKDEV 100
104 100
▁stv 100
rsk 100
bytenr 100
POWERPC 100
▁Host 100
▁Memory 100
jit 100
RENDER 100
▁ENABLE 100
635 100
tmpl 100
gmail 100
▁kind 100
pld 100
0899_ 100
IPHY 100
▁stage 100
▁retries 100
▁ucode 100
reco 100
▁IVT 100
Op 100
times 100
RATES 100
neta 100
eight 100
▁xenbus 100
▁BB 100
POOL 100
▁hdac 100
▁dmas 100
▁amount 100
280_ 100
Low 100
ppd 100
▁cqe 100
rgmii 100
▁DISP 100
▁atomisp 100
peri 100
started 100
demux 100
▁accept 100
▁correctly 100
writable 100
65_ 100
rtnl 100
▁automatic 100
gf 100
40) 100
▁́ 100
▁san 100
headers 100
erp 100
LOOPBACK 100
▁psmouse 100
pmx 100
▁SYSC 100
tas 100
%016 100
2"); 100
ofdev 100
▁IOC 100
▁LIB 100
▁alias 100
▁yes 100
▁bios 100
ctrlpipe 100
▁OHCI 100
MAPPED 100
▁mmUVD 100
GN 100
leak 100
DEBUGFS 100
hwrm 100
▁very 100
,& 100
waiter 100
DELAYED 100
META 100
tcm 100
iases 100
psize 100
oa 100
ially 100
HostIF 100
▁DSS 100
▁Comp 100
▁nskb 100
0/ 100
GENER 100
SUPER 100
dcn 100
buckets 100
iplier 100
▁CFI 100
uaccess 100
sip 100
▁TV 100
SIOC 100
0000000, 100
rum 100
ptes 100
▁mach 100
▁serio 100
Couldn 100
cport 100
▁defines 100
adis 100
▁ptlrpc 100
▁Otherwise 100
▁implemented 100
911 100
▁wcn 100
▁links 100
ronlake 100
▁bvec 100
toggle 100
dce 100
Start 100
stype 100
sources 100
hdisplay 100
▁bandwidth 100
DATE 100
▁rqstp 100
vis 100
▁[0] 100
▁numbers 100
health 100
keyring 100
▁IVTV 100
icon 100
▁das 100
▁stride 100
▁Channel 100
LESS 100
CAR 100
MDS 100
▁IPv 100
▁Red 100
▁execlists 100
▁endian 100
Sub 100
▁12); 100
▁SKL 100
▁Create 100
RLC 100
arer 100
▁IPC 100
▁clamp 100
pers 100
▁sis 100
dport 100
251 100
40000 100
▁Rename 100
expire 100
▁PE 100
▁7); 100
▁tl 100
portid 100
OPY 100
hpage 100
ecx 100
▁zyn 100
101 100
▁RET 100
▁indicates 100
▁gm 100
GID 100
tracing 100
▁Contact 100
dlc 100
bq 100
noc 100
▁Dst 100
ofdm 100
▁hex 100
▁topology 100
CHNL 100
▁TTY 100
▁MD 100
▁usbnet 100
FCR 100
7000 100
▁bc 100
hws 100
▁[1] 100
▁Value 100
▁amba 100
▁imm 100
▁gfar 100
lish 100
▁qib 100
▁otx 100
188 100
unicast 100
SIX 100
scb 100
Disable 100
mdb 100
▁started 100
▁keylen 100
zram 100
RESTORE 100
btc 100
▁platforms 100
Reset 100
CHK 100
mtx 100
psc 100
Conne 100
serdes 100
aled 100
rsvd 100
ptt 100
antenna 100
opaque 100
lavor 100
▁whole 100
eeh 100
hva 100
▁ATOMIC 100
▁fetch 100
hugetlb 100
▁ixgbevf 100
▁matching 100
▁charact 100
xffffff 100
▁Interface 100
TAP 100
▁fdt 100
extend 100
rupted 100
deliver 100
EDP 100
hwss 100
▁rdt 100
uaddr 100
▁tran 100
SX 100
837 100
DSC 100
TON 100
DH 100
▁avg 100
vnode 100
▁better 100
hostname 100
▁worker 100
▁However 100
iba 100
▁XDP 100
chains 100
ention 100
▁built 100
selection 100
▁=~ 100
GSTRING 100
▁cls 100
WQ 100
ept 100
▁ignored 100
endio 100
clients 100
Mac 100
REVID 100
INTERRUPTI 100
▁major 100
▁qh 100
urbo 100
▁IPA 100
▁<4>; 100
▁nsim 100
CMU 100
▁pointers 100
MMY 100
[10 100
▁nlmsghdr 100
miss 100
DUMMY 100
sbp 100
▁4. 100
▁RG 100
▁arp 100
_8723 100
gmc 100
▁Since 100
oif 100
▁xid 100
▁samples 100
SAM 100
▁hwirq 100
▁reduce 100
eline 100
ause 100
▁CTRL 100
."); 100
▁SSP 100
▁oob 100
osite 100
brk 100
▁PIO 100
moval 100
resolve 100
▁ksm 100
devinfo 100
▁updates 100
ADJ 100
WRAP 100
0] 100
▁But 100
ingress 100
▁MXC 100
LABEL 100
freed 100
pI 100
040 100
▁THER 100
PROTECT 100
ramp 100
IOMMU 100
▁cipher 100
▁prefetch 100
SCL 100
angefs 100
octeon 100
▁lw 100
▁STATE 100
▁broken 100
reservation 100
▁props 100
▁states 100
ERESTARTSYS 100
▁Output 100
[3], 100
iunlock 100
▁Ro 100
trr 100
▁LINE 100
DPM 100
▁OTHER 100
leb 100
▁strchr 100
▁known 100
stime 100
chips 100
▁EXTENT 100
oke 100
▁SEQ 100
▁words 100
hose 100
▁Imp 100
heartbeat 100
bufsize 100
▁Time 100
▁BSD 100
sampling 100
▁bcmgenet 100
=$( 100
▁pcl 100
EXTRA 100
fsync 100
rofile 100
▁uuid 100
▁rtllib 100
sysreg 100
KL 100
vdpa 100
SMMU 100
elif 100
bitmask 100
▁ironlake 100
fws 100
pools 100
▁CODA 100
pde 100
▁vin 100
▁ASIC 100
▁forward 100
7); 100
ONSE 100
▁EMIT 100
▁parser 100
Ad 100
▁BCMA 100
CONTINUE 100
BOSE 100
▁User 100
pwrdm 100
▁notice 100
wcid 100
915)) 100
103 100
tec 100
ceeded 100
▁100, 100
SOCKET 100
▁controllers 100
NVM 100
OLLER 100
AMPDU 100
ITECH 100
fourcc 100
insns 100
▁tmio 100
▁QUERY 100
sendmsg 100
▁RTM 100
subsc 100
54_ 100
▁lpc 100
▁ModRM 100
1271 100
ccu 100
▁elem 100
variable 100
▁DPRINTK 100
CTLR 100
▁including 100
▁bulk 100
VIS 100
MILY 100
▁csi 100
aid 100
▁ON 100
▁Allocate 100
▁"- 100
Attr 100
▁axp 100
▁sparc 100
).\ 100
5200 100
▁SUPPORT 100
callbacks 100
MAPPING 100
download 100
~~~~~~~~ 100
[12 100
vmm 100
mos 100
▁cat 100
dle 100
SNDRV 100
▁cleared 100
pagelist 100
FCS 100
▁digital 100
850_ 100
fatal 100
AVINCI 100
▁enetc 100
▁namelen 100
mbedded 100
crash 100
vmsg 100
intfdata 100
-1, 100
umb 100
rack 100
lazy 100
▁skge 100
recur 100
▁BOND 100
edia 100
TEK 100
csa 100
want 100
▁btree 100
▁itself 100
▁mvneta 100
▁DAVINCI 100
SCO 100
OWNER 100
lgr 100
SYSV 100
▁icl 100
lustre 100
pDM 100
▁TIO 100
▁LOAD 100
▁calib 100
▁hnae 100
Timer 100
▁outw 100
INPROGRESS 100
unix 100
▁((* 100
MVM 100
RAND 100
pred 100
3120_ 100
INTERRUPTIBLE 100
THERMAL 100
▁divisor 100
▁extension 100
▁descriptors 100
moving 100
SYSC 100
▁problem 100
ETHER 100
icated 100
▁leds 100
extcon 100
dice 100
pads 100
RADEON 100
EGR 100
▁online 100
nlp 100
IDR 100
▁13, 100
fname 100
shiba 100
▁ADV 100
%% 100
QLA 100
[8] 100
extract 100
FLD 100
CCA 100
lpm 100
erofs 100
▁BNXT 100
Po 100
BUFS 100
▁CONTR 100
LOGITECH 100
▁mdelay 100
97, 100
▁llc 100
▁qid 100
acm 100
lush 100
▁Byte 100
▁longer 100
NOWAIT 100
▁#% 100
▁KERNEL 100
▁reboot 100
andidate 100
wptr 100
pxmit 100
▁coresight 100
Dram 100
sband 100
-3 100
TCR 100
▁acm 100
APB 100
▁dcb 100
INACTIVE 100
VL 100
icd 100
▁kmemdup 100
2\ 100
ibss 100
BLANK 100
,0), 100
paths 100
secure 100
EINT 100
▁able 100
▁fscrypt 100
▁tos 100
Headphone 100
mcr 100
MESSAGE 100
fsf 100
targets 100
FAMILY 100
▁unlikely 100
sdc 100
▁NCR 100
▁sinfo 100
ipvs 100
▁PROT 100
▁hpsa 100
dealloc 100
ATTA 100
edx 100
POINTER 100
microcode 100
tda 100
▁SST 100
condition 100
============ 100
EROFS 100
etm 100
▁fput 100
▁TRUE 100
FALLING 100
▁<3300000>; 100
SRAM 100
▁3), 100
RXL 100
antiate 100
80); 100
▁otg 100
XL 100
ADR 100
lsn 100
scheduler 100
▁ipmi 100
BTN 100
▁PO 100
▁termin 100
Res 100
SCTP 100
boundary 100
▁instructions 100
▁mtspr 100
NOIO 100
PAIR 100
▁axi 100
ablkcipher 100
▁bch 100
▁variables 100
▁KE 100
▁1}, 100
▁'0 100
▁16- 100
▁Par 100
▁increase 100
SLICE 100
▁%016 100
▁mfspr 100
@2 100
Sy 100
xbb 100
▁rkisp 100
▁incorrect 100
▁COMPILE 100
BER 100
▁Each 100
▁WILC 100
▁pkey 100
▁AX 100
dro 100
goal 100
uled 100
DECLARE 100
▁strict 100
▁something 100
yes 100
VRAM 100
▁maps 100
▁binary 100
periodic 100
▁SAS 100
reorder 100
workers 100
32- 100
▁timed 100
▁NMI 100
▁sem 100
inuse 100
_15 100
rome 100
coeff 100
▁much 100
▁scrub 100
OTHER 100
▁pagevec 100
▁64; 100
pable 100
▁trip 100
▁scmd 100
identify 100
unref 100
regbase 100
consume 100
▁xgifb 100
SKL 100
▁]; 100
rerror 100
▁spd 100
(10); 100
ICKEN 100
mitted 100
PREEMPT 100
atime 100
▁PMIC 100
▁cards 100
)"); 100
264_ 100
MODNAME 100
race 100
guous 100
ibern 100
DISC 100
PIXEL 100
▁devid 100
▁pqi 100
UNLOCK 100
icc 100
SREG 100
16(& 100
▁BIP 100
devtype 100
▁kstrdup 100
▁Off 100
general 100
DISK 100
nexthop 100
LING 100
cfq 100
817 100
SOF 100
▁ASYNC 100
construct 100
SEM 100
▁Optional 100
bno 100
▁ln 100
verity 100
▁AND 100
NMI 100
ering 100
▁sfp 100
▁overlay 100
SCI 100
230_ 100
ming 100
progs 100
▁SIOC 100
▁consi 100
fcs 100
lkb 100
▁future 100
▁consume 100
▁WI 100
▁igc 100
▁<12 100
bcd 100
pbl 100
▁RV 100
BROADCOM 100
vnic 100
▁regulators 100
clip 100
PROMISC 100
8", 100
CHR 100
dbgfs 100
ITER 100
mrq 100
COEX 100
Comp 100
interfaces 100
wab 100
▁care 100
HANDLER 100
▁enabling 100
glob 100
invert 100
temperature 100
RK 100
ocfs 100
▁20) 100
▁ipr 100
▁reservation 100
ICAL 100
MULTIP 100
previous 100
SIM 100
WQE 100
32. 100
Spe 100
PHASE 100
PRESET 100
dependent 100
▁side 100
DPC 100
▁deli 100
▁ww 100
▁rmap 100
▁unsupported 100
▁had 100
custom 100
▁recover 100
▁nents 100
HEL 100
▁UNIP 100
▁pstr 100
▁genpd 100
Bit 100
izing 100
newsk 100
srctree 100
▁SSI 100
emon 100
80000 100
▁zram 100
STATIC 100
▁xor 100
contig 100
dbf 100
▁disabling 100
▁Introduce 100
▁areq 100
CIFS 100
836 100
MULTICAST 100
MCP 100
xas 100
32(( 100
▁"=& 100
latform 100
▁Implement 100
ices 100
arc 100
▁works 100
_8_ 100
▁gem 100
DOORBELL 100
▁Ens 100
▁1000) 100
nthesize 100
signature 100
vey 100
▁SL 100
▁mcs 100
DIGITAL 100
ield 100
▁adf 100
qup 100
untry 100
▁LI 100
TRUNC 100
(7, 100
▁PFN 100
▁fdb 100
slaves 100
wood 100
▁Mark 100
amon 100
TK 100
193 100
icr 100
SYSVIPC 100
▁strcmp 100
_10_ 100
▁etm 100
▁256, 100
readpage 100
FUSE 100
▁CEC 100
Check 100
Cle 100
▁NIC 100
▁boards 100
PLAYBACK 100
▁virtqueue 100
"␍ 100
ko 100
955 100
MN 100
SEN 100
▁pvt 100
▁qt 100
enand 100
▁devfreq 100
lw 100
oton 100
startoff 100
lps 100
▁cid 100
exists 100
▁users 100
▁ever 100
▁graph 100
▁fpga 100
▁adj 100
▁fscache 100
fabric 100
RESTART 100
translate 100
▁ADD 100
PATTERN 100
▁SYSCALL 100
DCB 100
▁By 100
PSC 100
▁RW 100
▁dpc 100
devname 100
noise 100
CAPABLE 100
TOR 100
calls 100
ebx 100
coef 100
FIO 100
CHIQ 100
▁ssb 100
creds 100
(6, 100
▁Inst 100
METH 100
▁elements 100
mth 100
fcoe 100
mant 100
▁SetPage 100
duplicate 100
outs 100
vior 100
preferred 100
▁<1800000>; 100
_{ 100
unc 100
▁ifindex 100
targ 100
vdisplay 100
▁fq 100
▁""); 100
collect 100
VIA 100
FORCED 100
modules 100
CONTROLLER 100
dqm 100
SIST 100
▁ccid 100
▁workaround 100
rsc 100
▁MIC 100
▁outbox 100
_802_11_ 100
waitqueue 100
▁CAL 100
▁msix 100
bottom 100
▁Link 100
CORRUP 100
Output 100
2= 100
STALL 100
▁bytenr 100
▁VX 100
▁odm 100
▁btc 100
skbuff 100
▁genlmsg 100
autoneg 100
highest 100
}" 100
DUP 100
▁PRE 100
▁rest 100
▁And 100
3"; 100
▁none 100
▁Test 100
48, 100
bch 100
RETURN 100
association 100
▁*)__ 100
▁Speci 100
performance 100
TEC 100
▁TRAP 100
▁framebuffer 100
YV 100
kr 100
pct 100
ength 100
vered 100
archy 100
▁ddata 100
ptrs 100
SETTING 100
40000000 100
BK 100
ghz 100
atest 100
▁intc 100
VERIFY 100
▁efuse 100
▁rhashtable 100
zip 100
ORIG 100
▁offsets 100
measure 100
▁fixes 100
pitches 100
mcc 100
urg 100
iprintf 100
typec 100
▁https 100
▁issues 100
offloads 100
lectron 100
7921_ 100
DEVICES 100
▁0>, 100
5100_ 100
▁clks 100
▁vring 100
▁THERMAL 100
itv 100
MASKED 100
▁QLCNIC 100
▁reads 100
▁progress 100
RMW 100
slices 100
▁INPUT 100
BSSID 100
▁LOCK 100
▁655 100
sacked 100
▁uniphier 100
5651_ 100
▁disp 100
5-> 100
9_0_ 100
▁erase 100
▁&__ 100
▁SLAB 100
UMB 100
2800 100
icks 100
▁ccp 100
▁declar 100
ASP 100
bob 100
SLAB 100
sage 100
eper 100
▁smmu 100
_4, 100
systems 100
SECURITY 100
:" 100
▁sir 100
▁Send 100
Fe 100
▁fcport 100
DLM 100
HASWELL 100
SEGMENT 100
23, 100
▁role 100
▁sctx 100
powerplay 100
▁share 100
promisc 100
revalidate 100
SDHC 100
bject 100
▁append 100
▁results 100
directory 100
▁apci 100
realloc 100
80; 100
CTEON 100
▁burst 100
waiting 100
FLO 100
▁dpm 100
iterator 100
▁nx 100
▁IA 100
▁mappings 100
IIR 100
OLE 100
ARGE 100
▁ppgtt 100
104_ 100
lockres 100
pbuf 100
▁AUX 100
▁dat 100
▁pop 100
GAM 100
▁TIF 100
Cache 100
ufa 100
discovery 100
altsetting 100
writepage 100
▁TRB 100
▁ibm 100
▁29 100
passive 100
▁hclgevf 100
▁tz 100
▁suc 100
643 100
xcc 100
▁SCHED 100
▁selector 100
85_ 100
STM 100
Opt 100
sih 100
bfin 100
▁jack 100
usable 100
▁loading 100
011 100
NOOP 100
▁blkg 100
▁Version 100
fold 100
OO 100
▁ACL 100
▁iobase 100
atl 100
▁RAID 100
(12 100
▁'/ 100
▁amp 100
▁1000, 100
▁df 100
▁#0 100
()-> 100
▁statistics 100
ibs 100
wow 100
▁WD 100
_); 100
▁pgtable 100
▁bfq 100
ittle 100
sglist 100
egress 100
▁symbols 100
▁GPIOD 100
▁timings 100
ints 100
▁iattr 100
▁gendisk 100
SCC 100
STRICT 100
BXT 100
keycode 100
▁FAULT 100
▁22 100
1378 100
suite 100
verti 100
▁10000 100
▁Ensure 100
▁improve 100
YU 100
▁Micro 100
outstanding 100
HALF 100
PARTIAL 100
▁DPRINT 100
OVERFLOW 100
nsup 100
▁denali 100
ularity 100
RESPONSE 100
▁ETHTOOL 100
▁identifier 100
▁gk 100
140 100
8)( 100
▁MAY 100
uintptr 100
▁swiotlb 100
▁ctlr 100
▁optlen 100
ndlp 100
CSC 100
▁RTA 100
APPEND 100
IGRATE 100
.0", 100
AML 100
regset 100
▁Ma 100
icm 100
retrans 100
actor 100
▁COPY 100
▁shash 100
Handler 100
)* 100
VSC 100
▁deci 100
▁uverbs 100
una 100
psock 100
tiling 100
ifs 100
acx 100
}| 100
gus 100
▁regions 100
400, 100
▁hop 100
IMAGE 100
genic 100
▁fake 100
▁ER 100
▁UNIPHIER 100
apa 100
▁taken 100
▁actions 100
uk 100
▁ADDR 100
▁byt 100
ird 100
Block 100
Clock 100
ceiv 100
laptop 100
___ 100
480 100
-1); 100
▁weight 100
▁cpuinfo 100
76, 100
BRAN 100
AGG 100
▁STE 100
▁isert 100
▁various 100
wac 100
▁qede 100
stal 100
emc 100
venc 100
ibility 100
XDP 100
▁macb 100
5380_ 100
sev 100
▁PID 100
SECOND 100
▁arguments 100
▁dependency 100
▁merge 100
▁parsing 100
initrd 100
▁OTG 100
utils 100
nphy 100
▁autofs 100
BIO 100
wide 100
pevent 100
BROADCAST 100
120 100
msdu 100
▁INVALID 100
hea 100
arms 100
▁EEH 100
irty 100
rotl 100
Be 100
LATENCY 100
▁libbpf 100
urther 100
▁memcmp 100
.␜ 100
9- 100
Jo 100
▁8)) 100
▁0;/* 100
CHICKEN 100
CLEAN 100
HSYNC 100
▁mclk 100
▁msgs 100
lar 100
CEPT 100
JPEG 100
▁VLV 100
ROUP 100
▁pcibios 100
exts 100
aring 100
▁26 100
8379 100
▁**) 100
RATION 100
iods 100
mpeg 100
protection 100
HUGE 100
pframe 100
▁Function 100
BREAK 100
Setting 100
▁agno 100
nodeid 100
initions 100
▁boundary 100
isize 100
multiple 100
xo 100
5682_ 100
annot 100
cpsw 100
vhost 100
nocache 100
▁tgt 100
▁fragment 100
MPT 100
SESSION 100
kset 100
▁unless 100
7", 100
▁Type 100
evaluate 100
_60 100
64; 100
EMAC 100
▁scp 100
render 100
ully 100
sblk 100
▁flip 100
PULLDOWN 100
smd 100
iclog 100
▁AMP 100
caller 100
umc 100
chno 100
wdata 100
▁acquire 100
▁3)) 100
pdp 100
▁sti 100
zs 100
▁1>; 100
pcmd 100
▁multicast 100
SUBTYPE 100
nsupported 100
-1; 100
BSP 100
motu 100
▁?: 100
zdev 100
▁URB 100
000>; 100
▁txd 100
▁bssid 100
▁processed 100
crop 100
090 100
dws 100
_16_ 100
licon 100
glue 100
wanted 100
▁corrupt 100
By 100
Map 100
▁pctl 100
SELF 100
ADATA 100
▁ilog 100
80211( 100
managed 100
▁PCMCIA 100
16; 100
ocal 100
BASIC 100
▁EDID 100
runs 100
wireless 100
mkdir 100
hrtimer 100
TU 100
herit 100
ERG 100
agc 100
ench 100
▁beiscsi 100
persistent 100
▁formats 100
▁lost 100
▁plug 100
▁getting 100
▁xc 100
ISER 100
plen 100
▁han 100
▁ARMV 100
▁qdio 100
_128 100
▁SATA 100
ssk 100
▁%- 100
softirq 100
▁<2 100
itical 100
▁(4 100
▁RQ 100
VIDIOC 100
wmm 100
COEF 100
uation 100
fsoc 100
▁evo 100
()\ 100
▁DST 100
▁33 100
▁anything 100
▁reported 100
cputime 100
boards 100
▁{{ 100
lling 100
200, 100
▁../ 100
▁import 100
######## 100
ELF 100
tcb 100
xfc 100
CUST 100
prph 100
gnt 100
▁grace 100
26, 100
gdt 100
sptep 100
EINTR 100
▁UVC 100
▁COMMON 100
▁desired 100
▁secondary 100
600, 100
▁rnp 100
YLAKE 100
▁dual 100
▁Pointer 100
PERFCTR 100
memblock 100
NP 100
putc 100
labs 100
writesize 100
▁($( 100
▁encrypt 100
rax 100
▁MCE 100
TECTION 100
▁memmove 100
▁MR 100
SCAL 100
periph 100
▁AHCI 100
GOOD 100
ethernet 100
celer 100
bnx 100
▁hang 100
▁capacity 100
▁balance 100
%0, 100
▁System 100
▁Reserved 100
36_ 100
SHAD 100
filled 100
▁vmlinux 100
▁digest 100
▁osc 100
chanctx 100
ATER 100
▁rather 100
mptcp 100
▁title 100
qeth 100
REMAP 100
▁writew 100
poch 100
▁deprecated 100
[32 100
TSTAMP 100
(6 100
Smu 100
▁hsotg 100
anularity 100
stb 100
▁custom 100
▁constraint 100
cpt 100
SPDIF 100
HEIGHT 100
SIMPLE 100
▁package 100
▁dlen 100
▁BATADV 100
DX 100
OOB 100
/1: 100
06_ 100
0__ 100
Image 100
111_ 100
▁31 100
▁expr 100
▁100); 100
EBAD 100
EGER 100
chdr 100
▁equal 100
▁pframe 100
seen 100
sses 100
EACCES 100
SVC 100
mite 100
▁VER 100
▁nameidata 100
▁semaphore 100
LSR 100
PIC 100
▁POSTING 100
▁indirect 100
TILE 100
▁nhoff 100
VEGA 100
pulated 100
IRC 100
CAUSE 100
SGMII 100
966 100
▁blkdev 100
aby 100
▁rio 100
▁SUB 100
▁mix 100
movable 100
20- 100
▁browser 100
chs 100
hit 100
chanism 100
▁sgl 100
nto 100
vop 100
xtal 100
44_ 100
bla 100
apert 100
bands 100
precv 100
MSGSIZE 100
▁bdaddr 100
▁filemap 100
uf 100
_18 100
abi 100
icen 100
▁24; 100
▁Devices 100
RECE 100
▁SRC 100
pcid 100
sects 100
rystal 100
802_ 100
▁DESC 100
▁Request 100
▁snapshot 100
chained 100
AME 100
Bus 100
waitq 100
▁9); 100
▁nbd 100
▁SDMA 100
▁readb 100
▁parport 100
gpmc 100
TYPES 100
LEDS 100
vmap 100
scc 100
expired 100
bfqq 100
▁rss 100
▁Elf 100
NODMA 100
3430_ 100
▁DCB 100
▁swp 100
▁creation 100
nof 100
6210_ 100
cessor 100
▁dropped 100
▁algorithm 100
qlen 100
▁rts 100
▁cast 100
▁AK 100
29, 100
modifier 100
terminate 100
Not 100
did 100
MCAST 100
TICK 100
IDENT 100
▁enic 100
JA 100
▁}\ 100
▁rdata 100
▁dg 100
ani 100
vger 100
schema 100
LOWER 100
codecs 100
leted 100
▁white 100
etherdev 100
▁ioat 100
was 100
▁doorbell 100
7. 100
CSS 100
▁atl 100
▁TLV 100
pgt 100
▁mmSDMA 100
DCN 100
▁rsvd 100
339 100
▁xxxx 100
▁ISA 100
migration 100
01; 100
ENOTSUPP 100
HF 100
IBM 100
datagram 100
8000, 100
▁released 100
ucontext 100
▁callchain 100
▁typec 100
SUPPORTS 100
▁general 100
simd 100
▁psize 100
Ant 100
VALL 100
hpte 100
dwmac 100
423 100
▁isol 100
fld 100
xfd 100
^^ 100
▁outl 100
OSC 100
mbt 100
quiry 100
#% 100
tce 100
EYVIEW 100
encrypted 100
▁60 100
maxlen 100
980 100
BID 100
IXGBE 100
▁dmar 100
CQE 100
rusted 100
SAMSUNG 100
▁dapm 100
SMU 100
rval 100
hlist 100
)+ 100
▁car 100
EXACT 100
CLOSEST 100
▁CPUFREQ 100
▁successfully 100
Swap 100
13783_ 100
,0, 100
iowrite 100
drc 100
pltfm 100
BRANCH 100
fication 100
"> 100
NEST 100
atory 100
▁clp 100
▁polarity 100
▁movl 100
▁Left 100
44, 100
▁movq 100
▁31, 100
IFACE 100
TRANSFER 100
ushed 100
988 100
▁edev 100
recvmsg 100
▁COMPAT 100
ilter 100
erra 100
evtchn 100
exclude 100
hf 100
▁Me 100
ANON 100
▁MPP 100
UED 100
▁Base 100
FFF 100
irkwood 100
lnk 100
▁802. 100
▁VE 100
▁rcv 100
8994-> 100
▁dssdev 100
VALLEYVIEW 100
▁GT 100
▁credits 100
ndx 100
FAM 100
uts 100
▁wi 100
endm 100
LUN 100
▁Btrfs 100
filters 100
spt 100
▁SAVE 100
▁selection 100
eip 100
▁gl 100
(2), 100
gpad 100
REACH 100
BATCH 100
▁Hz 100
pgio 100
standard 100
?? 100
▁SMI 100
▁bma 100
▁half 100
▁cfi 100
▁mean 100
▁vgpu 100
SDHCI 100
clocksource 100
${ 100
oked 100
iron 100
176 100
BOND 100
20; 100
34, 100
▁mf 100
▁transition 100
dib 100
▁"${ 100
rsize 100
▁Skip 100
▁ethhdr 100
▁NETLINK 100
gested 100
BULK 100
▁tcphdr 100
ufacture 100
tu 100
▁Exp 100
follow 100
▁compare 100
cmt 100
binary 100
correct 100
▁xilinx 100
regval 100
▁IMA 100
ISCSI 100
clamp 100
:", 100
▁portid 100
▁End 100
▁1024; 100
PARAMETER 100
vqs 100
flat 100
▁nmi 100
bip 100
▁SAA 100
▁Please 100
If 100
imr 100
sda 100
ving 100
▁live 100
⁄4 100
good 100
pattrib 100
▁whichfork 100
forced 100
odp 100
iounmap 100
-1] 100
nfit 100
▁bxt 100
▁Clean 100
MPC 100
hcon 100
▁DEVLINK 100
▁etnaviv 100
tod 100
tpt 100
▁HC 100
setsockopt 100
58_ 100
irrus 100
▁edma 100
mstp 100
▁PAD 100
truesize 100
1= 100
▁15) 100
▁PSR 100
bmbt 100
▁origin 100
▁28 100
fire 100
▁2)); 100
atm 100
anced 100
hwtstamp 100
▁LD 100
▁DSA 100
ONENT 100
pls 100
ROTO 100
This 100
▁ingress 100
▁dereference 100
▁Date 100
parity 100
sdw 100
tok 100
▁included 100
_1); 100
_660 100
Queue 100
Memory 100
.", 100
▁falcon 100
▁LTC 100
mcdi 100
▁calculation 100
▁commun 100
*\ 100
▁OK 100
AREA 100
▁BXT 100
ERA 100
FILL 100
PROCESS 100
ZO 100
▁å 100
DYN 100
PXA 100
▁COM 100
▁ctr 100
▁ntb 100
addresses 100
but 100
▁pasid 100
ENCRYPT 100
tpm 100
▁bg 100
▁Save 100
▁SUPPORTED 100
IZED 100
oriz 100
▁references 100
ipsec 100
xygen 100
▁%8 100
▁VP 100
▁bsize 100
Interrupt 100
MAKE 100
ANALOG 100
▁nfserr 100
ECH 100
_256 100
▁alpha 100
▁compiler 100
vfd 100
▁unwind 100
TAB 100
NODES 100
▁fmode 100
▁persistent 100
DBF 100
▁qstr 100
▁preemp 100
▁assignment 100
;) 100
6521 100
ITR 100
DIMM 100
INED 100
kexec 100
BRCM 100
▁STB 100
▁higher 100
TWL 100
ddp 100
mpi 100
txdesc 100
▁trying 100
▁100) 100
▁storage 100
▁ios 100
▁arvif 100
subscript 100
clc 100
00), 100
▁sms 100
pernet 100
▁integer 100
▁percent 100
PAY 100
▁tape 100
tbo 100
Chip 100
▁brd 100
▁pic 100
▁Also 100
▁tell 100
MANAGE 100
▁surface 100
__( 100
▁disconnect 100
4/ 100
:/* 100
AST 100
CTIONAL 100
notification 100
snps 100
NONBLOCK 100
▁shmobile 100
+0 100
AFE 100
▁tpg 100
▁accesses 100
▁increment 100
▁shall 100
publ 100
▁Sub 100
▁pul 100
GREEN 100
▁1))) 100
layers 100
polling 100
128_ 100
▁msp 100
ilock 100
RUNTIME 100
EK 100
VERBOSE 100
EXPERIMENTAL 100
▁\"% 100
METHOD 100
elapsed 100
▁loopback 100
168 100
pmtu 100
contexts 100
ongson 100
▁potential 100
solete 100
▁compressed 100
summed 100
[8]; 100
dB 100
conv 100
▁DLM 100
alculate 100
▁Find 100
sectorsize 100
FLOWER 100
▁malloc 100
_5_ 100
mems 100
ssth 100
irtual 100
tee 100
meter 100
Capture 100
▁made 100
▁1.2 100
▁ras 100
noirq 100
▁mq 100
▁srq 100
inum 100
▁WACOM 100
▁ven 100
▁50 100
armada 100
rxt 100
Firmware 100
clkr 100
▁Bus 100
▁STEP 100
▁matches 100
instantiate 100
▁pdc 100
gmt 100
otp 100
illi 100
#/ 100
bx 100
timed 100
▁CHECKSUM 100
40); 100
shake 100
90, 100
Scan 100
▁ltc 100
uhci 100
mali 100
NOWARN 100
!! 100
tho 100
8712_ 100
bsize 100
excel 100
▁Command 100
▁holding 100
DISCONNECT 100
uto 100
▁ingenic 100
▁20; 100
ILBOX 100
192 100
▁beco 100
|| 100
▁Try 100
WIFIEX 100
▁En 100
▁isr 100
caches 100
userspace 100
olean 100
NVME 100
BASED 100
agn 100
▁48 100
MTK 100
▁lvds 100
▁entire 100
Bytes 100
▁signed 100
▁UL 100
EXTENDED 100
▁23 100
reject 100
▁parts 100
▁modified 100
ground 100
▁CFLAGS 100
▁cleaned 100
HOC 100
cov 100
hsmmc 100
LID 100
▁', 100
pst 100
▁CONTROL 100
nq 100
dmc 100
subs 100
▁THREAD 100
Car 100
ubuf 100
▁SYM 100
▁lba 100
▁SCIF 100
▁"< 100
WIDGET 100
EINPROGRESS 100
▁protected 100
IEs 100
msp 100
getattr 100
▁agp 100
▁pitch 100
Receive 100
hfi 100
USAGE 100
_8250_ 100
csdev 100
upload 100
▁ENET 100
hyst 100
SENSORS 100
▁qup 100
modrm 100
▁duty 100
▁initrd 100
▁unneeded 100
RULE 100
[2]. 100
RANDOM 100
▁silent 100
retprobe 100
▁Res 100
▁vnic 100
MONO 100
typeof 100
operand 100
ALSA 100
▁deadlock 100
▁hmm 100
pebs 100
blink 100
ofday 100
METADATA 100
chnl 100
synchronous 100
▁cgrp 100
LAYOUT 100
64)( 100
txrx 100
));\ 100
▁XEN 100
▁Lock 100
▁CT 100
nss 100
ioda 100
listener 100
mxc 100
▁sit 100
▁EXIT 100
unmapped 100
▁bitmask 100
oss 100
identity 100
▁sram 100
▁util 100
▁INTER 100
_83 100
outb 100
NETLINK 100
32)) 100
WACOM 100
▁docs 100
CLKDIV 100
Array 100
gpuobj 100
▁512, 100
10. 100
cbc 100
opal 100
tagged 100
▁maintainers 100
▁fep 100
NUMA 100
posix 100
VBUS 100
▁PFX 100
▁ulong 100
unsupported 100
CW 100
duty 100
symbols 100
150 100
▁PXA 100
00000000}, 100
▁containing 100
▁OS 100
kbuf 100
▁ALLOC 100
wrq 100
EXCLU 100
ROY 100
json 100
ordin 100
▁variant 100
inputs 100
sseu 100
▁SIGN 100
MiB 100
hmac 100
pinmux 100
cxt 100
▁od 100
LATER 100
▁SUNXI 100
▁blkcg 100
▁14) 100
▁copies 100
MOS 100
▁LAN 100
Dev 100
beep 100
WS 100
▁uhci 100
▁obtain 100
dls 100
devt 100
UNDER 100
▁listen 100
▁gss 100
▁pb 100
SECT 100
▁sband 100
destruct 100
BUT 100
DCE 100
▁ET 100
PUSH 100
▁gso 100
rbm 100
▁oxygen 100
030 100
▁pause 100
detected 100
▁ih 100
▁*(. 100
pcdev 100
plink 100
▁fattr 100
activity 100
ECN 100
▁Qu 100
▁UVD 100
▁pinned 100
▁ilk 100
Parameter 100
description 100
17_ 100
▁Digital 100
qps 100
xgmi 100
SPROM 100
tions 100
64. 100
inval 100
ioend 100
_1; 100
NORM 100
▁ksmbd 100
▁framework 100
fwstate 100
eoi 100
iif 100
▁upd 100
ACCEPT 100
▁HPAGE 100
▁series 100
▁termios 100
ABI 100
aming 100
PKG 100
ignal 100
intval 100
("[ 100
▁few 100
▁FPGA 100
▁Audio 100
Reserved 100
lectronics 100
▁ACCESS 100
RATIO 100
choose 100
▁PMBUS 100
▁inner 100
HalData 100
▁Called 100
▁rect 100
xtime 100
▁charger 100
QPT 100
▁BM 100
▁ntfs 100
ilar 100
▁NEW 100
dvi 100
TRIX 100
bcn 100
▁bufs 100
▁lq 100
10), 100
▁rxd 100
▁bail 100
FID 100
cpuidle 100
zap 100
aspm 100
▁charge 100
gpiochip 100
▁(8 100
MOTE 100
WANT 100
▁CRTC 100
▁zpci 100
refill 100
▁chosen 100
▁exclusive 100
▁&_ 100
▁1>, 100
▁addi 100
TERM 100
▁hwmgr 100
readahead 100
▁explicitly 100
NER 100
frozen 100
▁QCOM 100
Features 100
▁First 100
▁rssi 100
▁imap 100
unwind 100
dra 100
▁sep 100
IRR 100
011_ 100
▁MTU 100
15) 100
ATU 100
▁hpet 100
cpuset 100
▁4)); 100
HR 100
▁UNI 100
▁ids 100
▁FP 100
pmdp 100
▁deal 100
▁CN 100
8997_ 100
▁segs 100
10000>; 100
writephy 100
▁WQ 100
83795_ 100
7), 100
9), 100
▁fbdev 100
▁DAS 100
arning 100
wkup 100
▁Core 100
▁returning 100
212 100
00000; 100
connectors 100
▁likely 100
PANEL 100
DISSECTOR 100
watermarks 100
3⁄4 100
▁NISTC 100
LPM 100
▁30, 100
(~ 100
ats 100
sme 100
▁ced 100
INTEGER 100
WOR 100
elo 100
shrinker 100
▁Jack 100
LLC 100
770_ 100
EARLY 100
▁annotate 100
mkey 100
▁PMC 100
uobject 100
▁stopped 100
ffix 100
SLOTS 100
▁44 100
▁QP 100
▁adt 100
mappings 100
prefetch 100
mec 100
CASE 100
reverse 100
wcn 100
wall 100
▁takes 100
▁Source 100
ERRY 100
plan 100
▁rpm 100
SIP 100
hooks 100
sad 100
definitions 100
lro 100
mdma 100
amdkfd 100
iftype 100
COMPONENT 100
ASER 100
▁uasm 100
00. 100
▁Log 100
SIGBUS 100
▁mgr 100
psn 100
▁DDR 100
▁Doc 100
STALE 100
COUNTERS 100
Lx 100
pie 100
▁(3 100
blocknr 100
▁(*( 100
▁TDA 100
EEK 100
UPPER 100
▁thus 100
processed 100
▁PD 100
0)/* 100
▁blob 100
▁timeo 100
glo 100
sar 100
AMBLE 100
▁ULONG 100
▁mmp 100
▁Simp 100
▁attempt 100
240 100
Cap 100
▁ES 100
USEC 100
ading 100
HELPER 100
hashinfo 100
18271_ 100
BROKEN 100
▁Ste 100
▁Setup 100
peripheral 100
VLV 100
▁nci 100
▁marked 100
rsnd 100
▁BIO 100
▁ii 100
▁generated 100
ors 100
(7) 100
LASH 100
▁makes 100
▁immediately 100
bpc 100
▁INTR 100
DESTROY 100
opregion 100
TRANSPORT 100
umbo 100
▁gmc 100
synthesize 100
48_ 100
10", 100
oxfw 100
sdkp 100
▁FD 100
Call 100
mcspi 100
CCR 100
THR 100
blkcg 100
▁emac 100
tdp 100
QUEUED 100
DONTWAIT 100
▁ì 100
poweroff 100
▁restri 100
CIP 100
ves 100
▁scm 100
statfs 100
▁ibmvnic 100
56_ 100
netns 100
POSITION 100
MODIFY 100
▁removal 100
eff 100
sdb 100
▁NAPI 100
DTV 100
1251_ 100
dsidev 100
CurrByte 100
mtt 100
ROLE 100
credit 100
defrag 100
blacklist 100
▁gnt 100
lision 100
▁IRQs 100
macaddr 100
newpage 100
▁tempor 100
▁automatically 100
▁qos 100
▁drain 100
agi 100
VECT 100
norm 100
pear 100
kallsyms 100
▁outside 100
55, 100
wrapper 100
coal 100
removed 100
028 100
INSTR 100
kgd 100
▁GMAC 100
▁consistent 100
bour 100
sequ 100
CACHED 100
ALC 100
porch 100
▁includes 100
▁orangefs 100
Pwr 100
opmode 100
deregister 100
64)); 100
ssify 100
maximum 100
unreserve 100
HOR 100
SSC 100
ADHOC 100
blkdev 100
▁VCHIQ 100
▁ucontrol 100
workaround 100
vx 100
MDP 100
lst 100
ERNET 100
▁edesc 100
▁Invalid 100
CMN 100
▁cfqq 100
▁hit 100
legal 100
psw 100
STYPE 100
▁(!__ 100
workload 100
Flags 100
unreference 100
MAS 100
SIL 100
50); 100
gestion 100
WARD 100
scsit 100
PARITY 100
MCA 100
▁psr 100
bably 100
GENERAL 100
LG 100
Ptr 100
XGB 100
spd 100
▁FR 100
VBLANK 100
STANDBY 100
CRB 100
bos 100
rfc 100
8821 100
▁TIOCM 100
▁pxmit 100
ufacturer 100
▁RFC 100
▁ixp 100
100) 100
small 100
▁125 100
1000: 100
▁kaddr 100
UMC 100
fter 100
▁((__ 100
▁strings 100
structure 100
rbuf 100
▁architecture 100
SMI 100
dpcm 100
▁changing 100
197_ 100
ATING 100
▁Usage 100
▁hpriv 100
enumerated 100
ioa 100
▁AXP 100
▁MISC 100
ttv 100
▁RES 100
▁rtas 100
▁spk 100
ACCOUNT 100
POLARIS 100
sheet 100
grade 100
reload 100
-4 100
[4], 100
▁migration 100
hsi 100
symtab 100
SLI 100
▁IBM 100
LARGE 100
pOF 100
▁PH 100
▁CACHE 100
▁form 100
lockdep 100
assigned 100
tracking 100
FU 100
psb 100
ENNA 100
▁USER 100
ordinate 100
sie 100
vsel 100
▁Stop 100
drvinfo 100
▁critical 100
ringbuffer 100
▁<3 100
▁goal 100
MSM 100
rxe 100
nate 100
▁HFI 100
▁safexcel 100
BCN 100
4000, 100
1[ 100
▁EIP 100
brcmf 100
▁maybe 100
9052_ 100
alter 100
▁team 100
▁instr 100
ifc 100
HOOK 100
▁upon 100
▁view 100
▁partic 100
QS 100
▁18, 100
▁git 100
DRIVE 100
▁unable 100
▁SVGA 100
▁station 100
_0); 100
▁LRU 100
▁fallthrough 100
csc 100
pdc 100
▁futex 100
offsetof 100
▁strerror 100
agf 100
_13 100
hwc 100
ymm 100
▁PAL 100
▁subsys 100
AIC 100
blit 100
OPERATION 100
binding 100
▁825 100
▁ich 100
NEE 100
▁oz 100
▁STACK 100
urious 100
ULP 100
REEN 100
▁pgdat 100
▁handlers 100
▁zd 100
1111_ 100
susp 100
▁risc 100
formed 100
COMB 100
SCpnt 100
821_ 100
SLOW 100
▁PLANE 100
▁reject 100
BLA 100
▁WB 100
oem 100
ised 100
▁BUFF 100
▁nvif 100
EH 100
inta 100
▁nest 100
▁Now 100
▁blan 100
otype 100
HCD 100
_50 100
requeue 100
▁expires 100
WT 100
SAA 100
▁Line 100
PAYLOAD 100
decompress 100
DELE 100
trampoline 100
sections 100
▁irqflags 100
▁units 100
",0 100
639 100
dirs 100
▁fbi 100
ADT 100
OUND 100
NETFILTER 100
buttons 100
eflags 100
sighand 100
cyc 100
▁CARD 100
aperture 100
▁sev 100
[16]; 100
▁____ 100
denali 100
▁versions 100
INGS 100
added 100
▁touchscreen 100
▁AQ 100
▁SOR 100
8086, 100
LAYER 100
▁cxt 100
▁fsg 100
▁lis 100
kprobes 100
▁reader 100
▁FALSE 100
("/ 100
270_ 100
ABSENT 100
ioport 100
OUS 100
tcam 100
▁OPAL 100
SECURE 100
vce 100
▁tfm 100
issued 100
▁away 100
105 100
▁mcr 100
▁further 100
▁dom 100
9063_ 100
freqs 100
rnd 100
adma 100
keeping 100
▁SECTOR 100
Endpoint 100
afinfo 100
▁hpd 100
lations 100
▁happens 100
▁contents 100
TTY 100
TRIM 100
▁geo 100
reinit 100
genl 100
ORING 100
arounds 100
19_ 100
WILC 100
devnum 100
AUDIT 100
▁XFER 100
CHERRY 100
nolock 100
MER 100
▁OPP 100
▁XATTR 100
▁Key 100
▁WAKE 100
▁ping 100
Select 100
▁dmz 100
stdout 100
chanspec 100
▁peripheral 100
rgd 100
gpt 100
arvell 100
Active 100
▁BLOCK 100
▁functionality 100
NEG 100
MINI 100
dynt 100
▁cable 100
iffy 100
pR 100
.16 100
ACER 100
5645_ 100
7146_ 100
ALPHA 100
▁pipes 100
NM 100
▁Size 100
rmb 100
533_ 100
strt 100
▁iucv 100
▁resolution 100
1620 100
▁mwl 100
wards 100
▁Used 100
▁BP 100
SPARE 100
▁json 100
▁Timer 100
msb 100
▁RAD 100
▁usbh 100
tgid 100
▁caam 100
▁blocking 100
▁allocator 100
EA 100
▁unique 100
dpp 100
▁WDT 100
▁paths 100
MASKGENMASK 100
▁{1, 100
stereo 100
ssifier 100
wmb 100
Free 100
▁sgt 100
FMTBIT 100
▁ticks 100
▁CK 100
8_0_ 100
▁VMW 100
HWBLK 100
ayout 100
wldev 100
keylen 100
'. 100
▁sv 100
5677_ 100
(32)); 100
dais 100
dinode 100
315 100
cfclk 100
▁MKDEV 100
▁iscsit 100
posed 100
▁Wireless 100
BUTTON 100
multiplier 100
uck 100
▁lowest 100
▁padapter 100
840 100
RFP 100
HALT 100
------ 100
bbt 100
sif 100
hclk 100
Input 100
▁Comm 100
▁backing 100
,$( 100
procname 100
uming 100
71_ 100
intvec 100
maxdata 100
▁36 100
012 100
▁xgbe 100
cpuinfo 100
▁testing 100
WK 100
[0]), 100
bufflen 100
_1) 100
agno 100
▁64) 100
ffffff 100
Unsupported 100
▁ifa 100
Dirty 100
score 100
TGT 100
abm 100
tech 100
▁CSI 100
▁SYNC 100
ENCODER 100
99, 100
kctl 100
▁clip 100
▁ones 100
▁Buffer 100
220 100
TRANSM 100
handles 100
saa 100
alit 100
▁FOLL 100
BROADWELL 100
▁behavior 100
recs 100
grams 100
SHADOW 100
alitos 100
finalize 100
▁bcd 100
▁venus 100
▁"__ 100
▁BYT 100
▁dgap 100
▁mute 100
32-> 100
alrm 100
▁Correct 100
005 100
▁grab 100
Support 100
660 100
WISE 100
▁PROC 100
Headset 100
license 100
CDB 100
ntb 100
Huge 100
SISTENT 100
Err 100
▁OVS 100
▁unsure 100
modem 100
▁highest 100
▁dot 100
)_ 100
24) 100
SDA 100
ecn 100
ISREG 100
Linux 100
▁isize 100
mfn 100
OCFS 100
UDMA 100
▁CAM 100
▁black 100
"␌ 100
SID 100
cans 100
KIND 100
▁ipt 100
▁ACK 100
AMS 100
ris 100
POLARITY 100
qpc 100
selftest 100
VCE 100
1_0_ 100
userptr 100
emulated 100
▁SVM 100
▁HEAD 100
▁respect 100
▁examples 100
PREAMBLE 100
bebob 100
▁respon 100
EFI 100
NOTI 100
3\ 100
[* 100
Pre 100
▁$? 100
▁extract 100
▁QM 100
memp 100
quash 100
Io 100
2.2 100
(\ 100
▁SDW 100
(6) 100
▁ENDPROC 100
ltc 100
flock 100
NEEDED 100
▁bne 100
EMSGSIZE 100
DOT 100
lbr 100
tore 100
TABLES 100
lpa 100
tss 100
▁MOD 100
▁bel 100
pcount 100
▁reuse 100
40; 100
ipp 100
vpe 100
dpio 100
▁Board 100
xef 100
encryption 100
830_ 100
▁roce 100
800_ 100
▁timers 100
inic 100
Intel 100
CHERRYVIEW 100
OLEAN 100
blings 100
_44 100
pda 100
zc 100
GIW 100
DCS 100
stringify 100
hour 100
▁gma 100
cblist 100
breakpoint 100
STK 100
▁With 100
blkbits 100
▁blen 100
▁compatibility 100
CSD 100
dvc 100
rkey 100
▁tvp 100
▁8)); 100
results 100
PAE 100
▁tcm 100
▁unlink 100
OVL 100
REQUENCY 100
estab 100
▁mpic 100
subtype 100
▁ioapic 100
▁four 100
▁rele 100
▁SCpnt 100
260 100
idxd 100
▁%10 100
SUITE 100
▁scripts 100
@3 100
70, 100
▁trb 100
veral 100
Log 100
pcf 100
▁HS 100
pagate 100
▁lruvec 100
▁vectors 100
FRO 100
▁'- 100
12); 100
cmap 100
▁IDs 100
pac 100
style 100
ENCODE 100
▁larger 100
▁irqchip 100
▁NE 100
485_ 100
▁pcim 100
\"\ 100
▁ROM 100
stick 100
deassert 100
▁blocked 100
Gfx 100
ccr 100
▁exceed 100
▁finished 100
▁.; 100
finished 100
▁ISR 100
▁ddb 100
▁RKISP 100
updated 100
84_ 100
1)); 100
▁dmub 100
CEC 100
rth 100
▁nc 100
▁MIB 100
▁ADF 100
MMD 100
(5), 100
▁pag 100
▁wor 100
oogle 100
▁umem 100
▁Techno 100
Context 100
▁ocrdma 100
1024 100
▁pmem 100
htab 100
▁RTN 100
indir 100
Switch 100
▁IOMUX 100
uartclk 100
33, 100
BMAP 100
▁things 100
MPS 100
rioc 100
▁hint 100
tokens 100
unpack 100
▁BUFFER 100
mono 100
Wa 100
▁ACT 100
▁One 100
moved 100
PERIPH 100
▁FLASH 100
1100_ 100
▁NODE 100
▁hose 100
fences 100
▁quirks 100
++]; 100
▁rules 100
eqe 100
SYSFS 100
ILFS 100
dflt 100
MG 100
▁Ass 100
▁precv 100
cansleep 100
▁TB 100
▁tsf 100
marker 100
▁please 100
▁UT 100
VMID 100
staging 100
2303_ 100
asket 100
▁cachep 100
Priv 100
▁ND 100
pit 100
▁unexpected 100
PARE 100
efer 100
geth 100
Limit 100
attemp 100
▁nvram 100
ATTRIBUTE 100
LAG 100
html 100
▁rspi 100
▁described 100
ihl 100
▁adm 100
@4 100
ipl 100
WORLD 100
inbuf 100
cip 100
dtor 100
?\ 100
▁pps 100
writes 100
Is 100
+1, 100
QUAL 100
▁ecmd 100
▁msk 100
elevator 100
▁Simplify 100
▁nodemask 100
341_ 100
guard 100
nvmeq 100
▁lport 100
▁rocker 100
▁MDP 100
▁MFP 100
nritems 100
CONNTRACK 100
blen 100
▁ARG 100
NOC 100
▁24); 100
Vol 100
▁measure 100
▁emulation 100
dspi 100
site 100
▁17, 100
(5) 100
seqid 100
-20 100
ehdr 100
nice 100
▁HAL 100
▁AU 100
▁mcasp 100
Use 100
floppy 100
9015_ 100
EU 100
59_ 100
VEN 100
Temp 100
skbs 100
▁widget 100
_64_ 100
utable 100
▁affect 100
Cfg 100
▁Pin 100
ASH 100
FIER 100
▁WID 100
ATIME 100
▁across 100
SPARC 100
12: 100
ipip 100
SIZ 100
▁tic 100
▁VD 100
excl 100
▁WIFI 100
▁Offset 100
754 100
URNAL 100
▁mul 100
2)); 100
SNAP 100
Micro 100
nodemask 100
zonelist 100
▁visible 100
ATL 100
▁cu 100
perline 100
configured 100
dim 100
veth 100
cmdq 100
5150_ 100
minimum 100
CEL 100
mpll 100
▁wlvif 100
.... 100
MOVE 100
clkctrl 100
▁allocating 100
610_ 100
THRO 100
lapse 100
▁vxge 100
amble 100
▁MWIFIEX 100
INTERLACE 100
audi 100
metry 100
▁inodes 100
immediate 100
PREC 100
ioread 100
((1 100
URB 100
▁*(__ 100
▁uspi 100
DVI 100
nxp 100
▁jh 100
▁phdr 100
▁SBI 100
strip 100
VIN 100
▁spdif 100
▁reporting 100
NAE 100
TFM 100
mxs 100
SAFE 100
▁mfc 100
▁para 100
▁throtl 100
chdrs 100
▁nexthop 100
411 100
3589 100
KEYS 100
66_ 100
FPU 100
hael 100
▁FAN 100
30) 100
▁configfs 100
occ 100
▁IOP 100
▁IPR 100
MW 100
nfo 100
Series 100
▁batman 100
FRAGS 100
switchdev 100
BCR 100
_6_ 100
sgs 100
801_ 100
kdev 100
▁Analog 100
izz 100
▁beq 100
asing 100
NLA 100
ULE 100
▁dpcd 100
▁working 100
▁copyright 100
▁oh 100
HARDWARE 100
rsn 100
unch 100
PERTY 100
iomux 100
▁Card 100
▁sdkp 100
memslots 100
(. 100
idmap 100
16), 100
▁ibmvfc 100
▁mechanism 100
8903_ 100
▁outer 100
notifiers 100
STOPPED 100
SV 100
MED 100
024 100
36, 100
Sta 100
checks 100
▁RPM 100
uling 100
▁HPTE 100
▁ZFCP 100
devel 100
unreg 100
FREQUENCY 100
2[ 100
mmd 100
bearer 100
▁operating 100
cpm 100
gates 100
▁keypad 100
112 100
▁4>; 100
sdmmc 100
▁wifi 100
mapbase 100
bxt 100
▁AUTO 100
walker 100
▁recur 100
▁rtlpriv 100
▁signature 100
64/ 100
▁KFD 100
▁typeof 100
COMPRESS 100
submission 100
Description 100
fll 100
nls 100
->__ 100
▁MFD 100
▁asd 100
[3]); 100
▁optimize 100
CPUID 100
▁SDVO 100
COLD 100
itsu 100
jitsu 100
ALE 100
▁64); 100
execbuffer 100
dnode 100
DOMAINS 100
composite 100
En 100
bpmp 100
▁USA 100
▁subs 100
▁VT 100
hdlc 100
TFLAG 100
▁1024) 100
▁capable 100
116 100
rmt 100
▁bsg 100
7621_ 100
utime 100
wwn 100
▁qat 100
Connect 100
▁routines 100
▁SVC 100
▁tags 100
EXTERNAL 100
_0; 100
▁parm 100
▁rctx 100
▁Table 100
▁conti 100
▁moved 100
0,0 100
vdbg 100
▁gasket 100
▁metric 100
RFC 100
▁alternative 100
▁IMP 100
STRIDE 100
pcap 100
▁camera 100
512_ 100
ASID 100
orce 100
units 100
ages 100
nsp 100
▁api 100
ESR 100
tdls 100
▁ads 100
related 100
tpr 100
▁cer 100
▁viafb 100
xdev 100
HYPER 100
UNSPEC 100
▁offline 100
▁ADVERTISED 100
Clear 100
ridge 100
tools 100
▁2000 100
*( 100
star 100
▁20); 100
▁ehea 100
siginfo 100
versions 100
▁mqd 100
labpc 100
▁VAL 100
▁fls 100
.) 100
▁stolen 100
bang 100
▁13) 100
scanf 100
▁Configure 100
▁CDNS 100
▁INET 100
▁pclk 100
checkpoint 100
▁vco 100
gmu 100
BTREE 100
xsave 100
▁Frame 100
▁prealloc 100
▁Display 100
IRECTIONAL 100
▁31) 100
Unit 100
limited 100
▁CB 100
IBSS 100
▁IPSET 100
securitypriv 100
DFS 100
▁aio 100
▁pmbus 100
details 100
TMR 100
▁asic 100
hx 100
acr 100
----- 100
3)) 100
▁sus 100
incoming 100
▁88 100
mods 100
iants 100
WEIGHT 100
▁inser 100
selected 100
outer 100
FACTOR 100
BALANCE 100
helpers 100
2000, 100
lockup 100
ship 100
00000) 100
25821_ 100
ETHERNET 100
▁Ig 100
WPTR 100
▁siginfo 100
FLT 100
maxpacket 100
PPI 100
SPR 100
NVKM 100
upcall 100
▁three 100
211 100
▁ear 100
training 100
▁mrq 100
coexist 100
=' 100
OLEN 100
many 100
swiotlb 100
▁uninitialized 100
(3), 100
srcs 100
CREAT 100
perag 100
FFS 100
vic 100
▁sche 100
▁inlen 100
cacheline 100
clockevent 100
▁preferred 100
ryptfs 100
▁tcmu 100
VCO 100
▁Ltd 100
dbuf 100
▁isl 100
CAMERA 100
BIDIRECTIONAL 100
ANG 100
▁202 100
754_ 100
reti 100
reduce 100
▁Queue 100
▁stdout 100
PROTECTION 100
0100 100
BIC 100
bsg 100
compression 100
SCM 100
rxb 100
ivsize 100
EndpointAddress 100
GUC 100
▁'. 100
▁NX 100
COOK 100
ENODATA 100
▁traffic 100
afs 100
sdhc 100
9170_ 100
▁ggtt 100
INSERT 100
▁damon 100
-8 100
9000_ 100
ENCAP 100
rxrpc 100
▁parity 100
äo 100
rptr 100
DTR 100
bInterface 100
-+-+ 100
▁SPIN 100
ONLINE 100
▁scope 100
▁mat 100
AMDGPU 100
▁handles 100
SPD 100
SENT 100
sence 100
revoke 100
=%02 100
MOUT 100
produ 100
▁integr 100
00000001 100
scade 100
▁sprd 100
▁targets 100
fdi 100
tive 100
▁DPU 100
infra 100
▁DL 100
▁person 100
SOL 100
400_ 100
KEEP 100
BRIGHT 100
784 100
oops 100
▁grep 100
▁psta 100
▁Cleanup 100
IDER 100
Join 100
owned 100
▁ppos 100
▁remainder 100
▁SCR 100
▁ibdev 100
CCM 100
▁(- 100
."), 100
[0])) 100
dcfclk 100
▁startup 100
▁character 100
RL 100
SCREEN 100
▁receiver 100
▁registering 100
▁scheduler 100
istic 100
calibrate 100
FORWARD 100
IFORK 100
(100); 100
▁ifdef 100
combo 100
▁XHCI 100
41, 100
▁creating 100
9. 100
SMD 100
▁DIO 100
WATER 100
▁sclk 100
ATTACH 100
LINEAR 100
phylink 100
▁aggreg 100
encoding 100
(8) 100
IMC 100
crumb 100
▁Tegra 100
dmub 100
foo 100
▁SIZE 100
▁SIGNAL 100
▁useless 100
[11 100
00000001, 100
paca 100
▁NLM 100
chrdev 100
RETRIES 100
▁zynqmp 100
871 100
▁shm 100
▁DRA 100
▁vram 100
▁KASAN 100
tributes 100
cobj 100
WOW 100
_93 100
2__ 100
jrdev 100
content 100
▁several 100
CRED 100
Message 100
▁PTRACE 100
SMART 100
▁mite 100
har 100
SACK 100
rief 100
▁2.6. 100
UNCE 100
aneg 100
▁hsr 100
▁cFYI 100
resolution 100
▁translation 100
▁5. 100
▁76 100
victim 100
▁disks 100
ERRORS 100
AZ 100
00", 100
▁fork 100
▁cooling 100
tracepoint 100
[5]; 100
loops 100
clkout 100
▁Wa 100
Bits 100
▁hfa 100
▁LVDS 100
optlen 100
>\ 100
DIST 100
swab 100
7219_ 100
MAILBOX 100
▁triggered 100
had 100
mart 100
NATIVE 100
CNTR 100
▁Map 100
▁FAIL 100
lft 100
▁nsec 100
▁licen 100
▁probably 100
▁rmi 100
initiator 100
trunc 100
[15 100
VXLAN 100
360 100
Fail 100
Default 100
3" 100
dvo 100
DECL 100
EDID 100
FRAC 100
jection 100
thods 100
Speaker 100
▁tracer 100
zo 100
▁_( 100
▁21, 100
POSIX 100
CYCLES 100
DEVCTL 100
10000000 100
bulkpipe 100
continue 100
▁broadcast 100
SCp 100
▁fully 100
MIP 100
▁levels 100
▁signals 100
\\ 100
▁bno 100
▁gdp 100
Clause 100
▁Access 100
▁activate 100
▁~(0 100
/< 100
eps 100
lite 100
edesc 100
▁rqst 100
fffffff 100
▁manager 100
▁constant 100
▁TIME 100
▁press 100
▁usecs 100
▁jmp 100
scsih 100
corrupt 100
40: 100
BFIN 100
FRONT 100
▁resid 100
▁stuff 100
0004 100
ano 100
hdp 100
uio 100
dock 100
▁PCL 100
▁inactive 100
PROD 100
ensa 100
▁sqe 100
▁fit 100
oidle 100
▁seen 100
▁screen 100
sanitize 100
}_ 100
38, 100
dcdc 100
nvec 100
wbuf 100
voltages 100
MCBSP 100
DLS 100
▁bb 100
HST 100
▁CQ 100
▁BYTE 100
roma 100
▁hpte 100
▁sess 100
Result 100
snprintf 100
All 100
▁EDAC 100
SRQ 100
fhp 100
▁409 100
scape 100
spawn 100
▁stub 100
▁tcpm 100
rwlock 100
yuv 100
▁lc 100
61_ 100
▁vsc 100
5682 100
▁OBD 100
hdata 100
QUI 100
▁256; 100
▁21 100
▁REGMAP 100
Src 100
▁127 100
NEEDS 100
▁SWAP 100
CHARGE 100
bEndpointAddress 100
VPORT 100
▁uaddr 100
▁pstore 100
ovo 100
pvr 100
tci 100
▁scb 100
sysdev 100
▁pmlme 100
ucontrol 100
pnfs 100
tdma 100
REJECT 100
▁stmpe 100
nexthdr 100
MST 100
▁vsync 100
cre 100
▁dent 100
6] 100
neg 100
▁rl 100
descriptors 100
▁fr 100
autocfg 100
▁lowpan 100
▁simply 100
tailroom 100
triggered 100
SFT 100
▁freeing 100
SGI 100
▁BEG 100
ISON 100
wmem 100
37_ 100
▁*)) 100
hpa 100
▁GO 100
▁rth 100
▁didn 100
tpc 100
pfvf 100
▁BEGIN 100
TN 100
TRI 100
hel 100
adar 100
4430_ 100
tring 100
fwspec 100
535 100
VIC 100
idt 100
dreq 100
acs 100
atr 100
dointvec 100
▁ARC 100
ining 100
asycap 100
detail 100
signals 100
▁though 100
▁Ind 100
▁mbx 100
▁indent 100
40- 100
▁2] 100
▁Prev 100
▁FN 100
▁little 100
▁QSERDES 100
Rec 100
▁filled 100
une 100
02); 100
fish 100
mthd 100
▁sclp 100
termin 100
58, 100
jbd 100
7188 100
FTRACE 100
aul 100
ALERT 100
TMU 100
HDCP 100
cision 100
nexpected 100
30- 100
▁SOL 100
125 100
icount 100
▁bMask 100
▁QMP 100
▁counts 100
▁oprofile 100
▁tracking 100
USD 100
choice 100
VIO 100
ixp 100
IFREG 100
tocol 100
▁blank 100
mesg 100
▁CXL 100
EXCLUSIVE 100
720 100
▁allocations 100
&0 100
SINK 100
▁EXC 100
PARTITION 100
MFR 100
ivity 100
▁lists 100
pathname 100
DIP 100
▁starts 100
▁timeval 100
YO 100
FOUND 100
▁regcache 100
[6]; 100
half 100
▁similar 100
associate 100
." 100
bma 100
mpd 100
20000 100
LISTEN 100
iterate 100
8386 100
PQ 100
kiq 100
▁CF 100
algs 100
rspi 100
▁kexec 100
▁switching 100
UUID 100
▁40, 100
DIGEST 100
[0])); 100
▁heap 100
▁IE 100
TIG 100
TUNE 100
XHCI 100
▁pnum 100
▁PI 100
▁Mon 100
htotal 100
▁QUIRK 100
dml 100
xbf 100
▁28, 100
▁IORING 100
▁FEATURE 100
ora 100
▁That 100
flavor 100
jmp 100
▁wmb 100
srp 100
SCIF 100
▁isa 100
olute 100
posure 100
SECONDARY 100
▁execution 100
psta 100
summary 100
tfd 100
energy 100
reconnect 100
▁px 100
psci 100
▁oom 100
defineAT 100
wmidi 100
tmo 100
BOTH 100
LCDC 100
▁FPU 100
changes 100
▁subflow 100
02) 100
▁0- 100
0010 100
83627 100
▁NLMSG 100
ISS 100
▁ahd 100
pregs 100
▁cdrom 100
lseek 100
ssids 100
▁spear 100
▁Samsung 100
unded 100
RAS 100
ana 100
lowcore 100
)(0 100
_28 100
▁Manage 100
▁memslot 100
UFS 100
▁qtnf 100
8962_ 100
▁prep 100
▁scif 100
PREFETCH 100
rescan 100
▁EXPECT 100
PET 100
BNXT 100
uing 100
ringbuf 100
ACTIVATE 100
MORE 100
Node 100
kuid 100
sgmii 100
▁hantro 100
buffered 100
16)( 100
pick 100
▁hwc 100
▁refer 100
▁sampling 100
▁8: 100
▁HR 100
▁4>, 100
▁xenvif 100
tone 100
▁nvc 100
▁oops 100
steps 100
debounce 100
MNT 100
OBJECTID 100
▁particular 100
▁lnum 100
▁aliases 100
ESP 100
ncm 100
ppa 100
▁--> 100
INTEGR 100
▁bufsize 100
POP 100
rdt 100
chp 100
ULSE 100
▁vme 100
▁pstate 100
pme 100
ICL 100
PEN 100
▁CLA 100
▁claim 100
▁TXD 100
▁pow 100
>` 100
YAML 100
▁VFIO 100
Qu 100
XOR 100
DCDC 100
RCTL 100
rlim 100
DELTA 100
▁choice 100
▁RZ 100
OFFS 100
ipmi 100
noring 100
unsafe 100
bdp 100
Msg 100
ocr 100
▁"1: 100
hsr 100
ioat 100
oriq 100
pdma 100
strm 100
▁NVKM 100
▁Configuration 100
▁CVMX 100
▁SWITCH 100
▁managed 100
▁addition 100
INITIALIZED 100
vfio 100
▁CALL 100
▁List 100
▁synth 100
▁sysdev 100
▁kasprintf 100
IXP 100
FCOE 100
▁Limit 100
▁dwarf 100
evision 100
clientid 100
icl 100
MPDU 100
pseudo 100
Ctrl 100
▁certain 100
increment 100
BILE 100
▁OB 100
RSC 100
_64( 100
▁PLAT 100
arator 100
▁EXPERIMENTAL 100
64(& 100
HOLD 100
dynticks 100
▁Gu 100
▁trunc 100
▁Restore 100
▁({\ 100
▁hpp 100
▁Force 100
Ste 100
▁solo 100
xstate 100
▁Com 100
▁codes 100
▁Report 100
▁lirc 100
committed 100
/0 100
MANU 100
pline 100
ASSIGN 100
entropy 100
▁elapsed 100
82, 100
gcm 100
VISOR 100
wwan 100
▁spect 100
▁anyway 100
▁license 100
fcf 100
1100 100
inoco 100
▁atm 100
▁scaling 100
XC 100
0003 100
▁NFSD 100
ADAPTEC 100
WO 100
▁atp 100
PGD 100
▁lvl 100
▁Firmware 100
▁LR 100
rust 100
▁""; 100
27, 100
544 100
gpadc 100
ONGSON 100
INVALIDATE 100
▁hws 100
▁FUSE 100
▁wdata 100
▁sections 100
▁kHz 100
sit 100
umr 100
▁hva 100
tries 100
CUSTOM 100
preamble 100
ccb 100
---+ 100
▁FUNC 100
▁ksft 100
strtol 100
ked 100
going 100
▁vdpa 100
▁IOCTL 100
mpdu 100
Using 100
ROUTING 100
BACKLIGHT 100
35, 100
dsm 100
iocg 100
TKIP 100
unless 100
▁fatal 100
8"; 100
▁gu 100
notes 100
▁adds 100
ioprio 100
fastopen 100
Fi 100
▁<4 100
MSIZ 100
vcpus 100
NAMSIZ 100
INDIRECT 100
928 100
Over 100
Total 100
msiof 100
tector 100
uobj 100
▁TLS 100
▁deferred 100
920 100
(25 100
IPU 100
cility 100
▁waiter 100
▁blkbits 100
▁identify 100
SAMP 100
mman 100
dencies 100
tol 100
pairs 100
unsol 100
▁2005 100
CBCR 100
orgi 100
verdict 100
labels 100
dmaengine 100
TLS 100
2412_ 100
7180_ 100
psi 100
WORDS 100
▁BF 100
RISC 100
▁vrf 100
▁Code 100
optarg 100
rotate 100
MY 100
ipe 100
twsk 100
WPA 100
intent 100
wlandev 100
iucv 100
usart 100
relocs 100
▁rpmsg 100
sidency 100
PACA 100
ctype 100
smart 100
cortex 100
tained 100
SPECIAL 100
▁hstate 100
▁AO 100
▁sysc 100
INTSTS 100
conflict 100
TIES 100
prof 100
▁2018 100
quashfs 100
DPG 100
▁WH 100
▁mds 100
grow 100
▁RTS 100
▁IPI 100
NLMSG 100
updates 100
ioctls 100
▁modem 100
▁strdup 100
gss 100
clic 100
licated 100
pagesize 100
▁sf 100
nsim 100
▁CCM 100
▁ask 100
▁clr 100
▁2* 100
RSVD 100
SICAL 100
▁omapdss 100
▁relative 100
▁integrity 100
520 100
▁*/\ 100
resha 100
1307-> 100
▁hinic 100
cessible 100
▁Wr 100
▁reports 100
▁sx 100
▁arr 100
relative 100
▁SU 100
▁adsp 100
▁UPDATE 100
erry 100
Found 100
▁detach 100
MES 100
rcc 100
▁ck 100
mirrors 100
▁tk 100
▁bprm 100
▁ByteOp 100
▁NETXEN 100
congested 100
▁2015 100
FOLLOW 100
WIRELE 100
unplug 100
MODESET 100
▁Maximum 100
▁fire 100
WIRELESS 100
▁Release 100
chipselect 100
wrb 100
▁lb 100
ppnt 100
▁ifeq 100
inition 100
▁secure 100
psl 100
▁PB 100
DRAIN 100
▁DISABLE 100
▁Nv 100
750_ 100
reporting 100
▁Currently 100
sndctrlpipe 100
▁why 100
▁refs 100
disconnected 100
+1) 100
WRM 100
▁MCS 100
SEMI 100
reqtfm 100
ppp 100
2.0. 100
imable 100
HIGHMEM 100
emer 100
STORAGE 100
loading 100
Mon 100
Book 100
▁mini 100
SURFACE 100
powerpc 100
▁parisc 100
defconfig 100
▁machines 100
Bss 100
();\ 100
▁DPIO 100
ICMP 100
▁pcs 100
▁vcn 100
▁boolean 100
▁regno 100
BOOLEAN 100
pfdev 100
polic 100
rndis 100
decimal 100
▁perror 100
▁stable 100
adi 100
fuc 100
▁Over 100
686 100
clt 100
rctx 100
▁VB 100
padding 100
BARRIER 100
preload 100
▁UV 100
userns 100
▁everything 100
▁superblock 100
KR 100
LIM 100
▁MPTCP 100
▁chunks 100
IDS 100
NFC 100
ley 100
fmsg 100
USDHC 100
▁bypass 100
_65 100
inger 100
▁File 100
mkwrite 100
_2); 100
▁RSND 100
▁chipset 100
▁INTERCEPT 100
_8( 100
▁secs 100
▁RXRPC 100
AW 100
▁QE 100
▁est 100
rinfo 100
▁Mask 100
speaker 100
▁tracepoint 100
NETA 100
SPAR 100
BEGIN 100
▁appear 100
ALGO 100
Ac 100
ELV 100
xit 100
▁xas 100
XYGEN 100
310_ 100
▁rtable 100
▁uncore 100
▁consider 100
▁dwmac 100
caching 100
▁inject 100
-2- 100
plt 100
icode 100
polled 100
TLE 100
SKYLAKE 100
%. 100
atum 100
▁spa 100
stera 100
▁GPIOF 100
PRM 100
▁having 100
)$( 100
6)) 100
hat 100
▁OXYGEN 100
▁cmpxchg 100
▁frontend 100
▁22, 100
epoch 100
IOLOCK 100
SECTORS 100
positive 100
▁interconnect 100
sgid 100
Return 100
TPS 100
▁bv 100
11-> 100
▁FLD 100
nowait 100
OTP 100
▁TMP 100
apriv 100
icator 100
XGI 100
scd 100
▁2008 100
gether 100
COMPRES 100
adm 100
amsdu 100
▁Always 100
▁rg 100
▁ddc 100
▁tee 100
omeda 100
▁overlap 100
▁MG 100
cork 100
▁fore 100
4\ 100
')) 100
(4); 100
▁room 100
03) 100
▁BA 100
cntr 100
▁ALL 100
▁dbs 100
▁pmx 100
sregs 100
▁bclk 100
tir 100
16(0 100
▁qdev 100
rawmidi 100
▁He 100
▁fu 100
asrc 100
mport 100
anchor 100
▁'\0') 100
▁possi 100
ATOM 100
mdir 100
▁nat 100
▁BRIDGE 100
)| 100
INCOMPAT 100
AVAILABLE 100
42, 100
01}, 100
▁1], 100
▁vnet 100
▁pulse 100
uh 100
▁NIX 100
pagevec 100
LUT 100
rsi 100
▁accessed 100
EFLAGS 100
TRANSA 100
255 100
_5, 100
▁HISI 100
502 100
lkey 100
preter 100
▁readw 100
scsicmd 100
▁populate 100
▁igt 100
NVDEV 100
TOKEN 100
ABORTED 100
9000 100
pref 100
flood 100
nesdev 100
reshape 100
rdy 100
▁NS 100
NDIS 100
▁wp 100
SEGV 100
▁iwe 100
quies 100
fop 100
skt 100
▁gd 100
▁CLKID 100
futex 100
umount 100
45, 100
▁segments 100
COMPLETION 100
84, 100
▁CIP 100
CELL 100
▁trim 100
▁pseudo 100
coredump 100
7( 100
lh 100
onet 100
▁nfit 100
▁pthread 100
▁problems 100
tdev 100
sels 100
▁lov 100
▁SEEK 100
nod 100
acha 100
binder 100
215 100
464 100
▁%5 100
▁PCF 100
▁cdb 100
ENAND 100
mrioc 100
▁1]); 100
paging 100
▁extend 100
rdesc 100
ecryptfs 100
32(" 100
MAGE 100
▁hyp 100
▁IOMAP 100
▁older 100
▁devres 100
WRITEBACK 100
bay 100
SUSP 100
istry 100
▁rapl 100
preset 100
MCE 100
tmf 100
▁DIG 100
inquiry 100
TRAINING 100
▁ClearPage 100
rtllib 100
▁Count 100
breadcrumb 100
747 100
cii 100
qca 100
tor 100
xfb 100
CLUD 100
FLEX 100
▁dip 100
IRROR 100
▁PATH 100
▁iproc 100
CLUDING 100
WRITTEN 100
pressure 100
▁pu 100
▁LIMIT 100
cpuinit 100
pixelformat 100
vbl 100
▁htab 100
Vendor 100
mapcount 100
328_ 100
▁2012 100
▁Array 100
▁hweight 100
737 100
RCS 100
0200 100
hdrs 100
▁mcast 100
EXPI 100
▁pde 100
▁CDEBUG 100
▁iosize 100
reporter 100
▁<16 100
▁iso 100
cfpga 100
▁IOCB 100
(". 100
DIFF 100
cmpl 100
91: 100
6586 100
▁stdr 100
adt 100
ccm 100
ATIHDMI 100
lradc 100
secret 100
▁uprobe 100
080_ 100
360_ 100
▁cpp 100
137 100
64- 100
aggreg 100
▁thrott 100
PDMA 100
II 100
(8, 100
4.4 100
IOW 100
2835 100
▁2013 100
Handle 100
MOBILE 100
0040 100
1"); 100
QD 100
▁GPMC 100
▁After 100
---------- 100
05_ 100
[0- 100
bid 100
1704 100
nohz 100
uport 100
▁iavf 100
lowest 100
flowlabel 100
▁clearing 100
Gen 100
dptr 100
nvbo 100
SYSCLK 100
▁AUDIO 100
emmc 100
▁New 100
INFRA 100
▁XGMAC 100
▁checked 100
tkip 100
DIVIDER 100
@% 100
▁NONE 100
▁bottom 100
▁stk 100
▁cnic 100
▁GC 100
2500 100
▁SLOT 100
csb 100
HSW 100
.1", 100
aser 100
vmbus 100
▁ZONE 100
▁twice 100
▁Define 100
olar 100
▁SPRN 100
▁driv 100
▁refactor 100
fsc 100
ipo 100
SHOW 100
COHER 100
mally 100
▁apple 100
▁:: 100
987 100
lix 100
gprs 100
▁gsm 100
▁SCAN 100
0700_ 100
retlen 100
▁usbip 100
▁coding 100
▁kstrto 100
▁optimi 100
(2); 100
16400_ 100
▁strsep 100
▁Hardware 100
▁transfers 100
RINGS 100
▁todo 100
Product 100
▁encoding 100
▁subdevice 100
oot 100
▁25, 100
▁restriction 100
▁tn 100
transceiver 100
QCOM 100
when 100
440 100
▁AG 100
SCOPE 100
▁STAC 100
mountpoint 100
mock 100
▁tas 100
▁##__ 100
280 100
PSE 100
▁DI 100
HOLE 100
▁4096, 100
▁QUEUE 100
BNX 100
▁PN 100
DISCOVER 100
DLY 100
▁DISPLAY 100
vn 100
▁Work 100
isi 100
▁{}, 100
▁2007 100
▁shdr 100
UVERBS 100
▁refresh 100
DDC 100
powerdown 100
20>; 100
▁CTX 100
▁RST 100
rcdev 100
▁MACv 100
▁5), 100
▁UDF 100
FILES 100
vlans 100
▁128; 100
except 100
BRIGHTNESS 100
DESCRIPTOR 100
anion 100
803 100
cut 100
PTRS 100
ISL 100
effective 100
▁lio 100
orion 100
▁rvin 100
RDWR 100
▁bmc 100
BBReg 100
column 100
UNREACH 100
▁PV 100
▁vis 100
▁altera 100
remainder 100
jd 100
HIT 100
NFP 100
land 100
▁DUP 100
▁iir 100
▁pVBInfo 100
ari 100
▁rr 100
2410 100
▁exfat 100
scaled 100
tuning 100
▁accounting 100
▁depending 100
81, 100
spk 100
rstc 100
▁SDM 100
▁pkts 100
▁column 100
sal 100
oken 100
works 100
▁Using 100
9); 100
▁pw 100
▁IXP 100
ENBIT 100
1__ 100
575 100
▁Makefile 100
WOL 100
svsk 100
▁loops 100
18) 100
pauge 100
shell 100
ibp 100
▁eval 100
▁holds 100
sdi 100
▁Go 100
_928 100
font 100
FSL 100
▁abx 100
▁dpi 100
▁stale 100
)]= 100
FWD 100
▁inl 100
lette 100
▁tries 100
KP 100
775_ 100
ateg 100
▁srb 100
exact 100
probed 100
▁CONNE 100
▁cinfo 100
BUSWIDTH 100
▁enqueue 100
acb 100
bytesperline 100
/$ 100
▁oi 100
ISHED 100
▁span 100
hashed 100
▁sirfsoc 100
▁Instru 100
cong 100
mtrr 100
blkif 100
▁Tree 100
nes 100
▁EMAC 100
uppauge 100
▁concurrent 100
some 100
kasan 100
▁Temp 100
ctures 100
▁ivsize 100
401_ 100
TERY 100
_828 100
▁PAN 100
ERASE 100
perms 100
BUFFERS 100
accessed 100
trail 100
▁rtrs 100
recent 100
▁MHI 100
ORDERED 100
scatter 100
(11 100
VCN 100
pdf 100
PX 100
8(& 100
lang 100
▁kgd 100
ualcomm 100
▁smaller 100
420 100
ahd 100
▁GL 100
FIED 100
8522_ 100
51, 100
undo 100
▁late 100
▁contin 100
arily 100
ina 100
▁ASM 100
▁hier 100
▁affinity 100
wowlan 100
▁watermark 100
SLP 100
aborted 100
▁checkpatch 100
scripts 100
▁MIGRATE 100
▁fanotify 100
910_ 100
JD 100
900_ 100
▁UBIFS 100
trc 100
ability 100
annotate 100
▁regulatory 100
aac 100
▁cpm 100
Class 100
amlogic 100
fsnotify 100
FBC 100
▁vop 100
▁cores 100
blksize 100
▁logging 100
SCD 100
▁iterator 100
▁annotation 100
BTF 100
▁dtb 100
▁Event 100
inverted 100
readable 100
ASUS 100
mpls 100
▁QSPI 100
▁arbit 100
4096 100
cfb 100
eno 100
Send 100
team 100
▁50, 100
▁SIR 100
▁Pass 100
▁Provide 100
▁subject 100
exc 100
OSITE 100
qplib 100
▁retrieve 100
bclk 100
▁occ 100
▁BOOT 100
▁toggle 100
▁earlier 100
▁Ap 100
vnet 100
olicy 100
wIndex 100
CONNECTION 100
cci 100
▁28) 100
▁Phy 100
puart 100
▁wlcore 100
)? 100
(4), 100
0400 100
BOOL 100
esdhc 100
▁deadline 100
▁Freescale 100
SHM 100
opf 100
LANES 100
Enabled 100
readonly 100
525 100
aif 100
tre 100
▁uh 100
pport 100
ENB 100
▁BTC 100
10_0_ 100
▁<8>; 100
keysize 100
setxattr 100
▁MF 100
iated 100
usdhc 100
vbios 100
▁80 100
fair 100
000000; 100
gva 100
ftr 100
▁lst 100
▁udphdr 100
Bad 100
uvc 100
WDOG 100
▁PVR 100
▁sigset 100
▁ablkcipher 100
_2) 100
msa 100
lmac 100
▁kgdb 100
inherit 100
75_ 100
mtc 100
Down 100
PANIC 100
▁headroom 100
VPD 100
rank 100
▁NFSv 100
+1] 100
dccps 100
▁bgmac 100
nonblock 100
migratetype 100
YN 100
04) 100
CRA 100
HAUP 100
pmac 100
sprom 100
ufshcd 100
▁HRTIMER 100
rid 100
BMCR 100
stations 100
chainmask 100
▁conflict 100
▁hypervisor 100
Network 100
siblings 100
IIC 100
▁rst 100
iation 100
symname 100
▁Initial 100
39, 100
▁DMAC 100
Interval 100
▁Document 100
▁previously 100
3/ 100
--------- 100
▁KernelVersion 100
hdrc 100
▁FRA 100
▁gvt 100
mmcif 100
overlap 100
▁rfcomm 100
MBX 100
vmmc 100
syncobj 100
1211 100
EHCI 100
_64. 100
▁NOR 100
▁Could 100
ipr 100
faults 100
ifm 100
320_ 100
FATAL 100
▁SLAVE 100
UNSUPPORTED 100
▁pT 100
▁"[% 100
FICATION 100
________ 100
16: 100
61, 100
sat 100
PINMUX 100
▁tnode 100
lyr 100
Dell 100
smps 100
▁rqd 100
(1)); 100
▁iblock 100
▁domains 100
▁greater 100
mca 100
SURF 100
dispclk 100
▁asy 100
usbdux 100
imem 100
▁Any 100
▁cpl 100
9118_ 100
▁activity 100
▁corruption 100
386 100
bsp 100
77693_ 100
skipped 100
cep 100
▁zs 100
skey 100
▁HFS 100
devno 100
▁mn 100
COOKIE 100
seqcount 100
rtr 100
txwi 100
subdevs 100
▁wrmsrl 100
GRAPHICS 100
sockaddr 100
▁XT 100
unset 100
▁Di 100
▁mxt 100
wrong 100
ckpt 100
▁content 100
Attributes 100
▁scs 100
▁START 100
VIRTUAL 100
96_ 100
prcmu 100
▁vmid 100
▁nvbios 100
8] 100
regno 100
DEFINED 100
▁parallel 100
▁adr 100
▁PHYS 100
netfilter 100
MFP 100
arvif 100
▁indiv 100
▁refclk 100
'}, 100
EIM 100
▁tep 100
▁wbuf 100
▁aborted 100
CORRUPTED 100
▁EMUL 100
▁Module 100
classify 100
ACR 100
▁ux 100
into 100
populated 100
zz 100
ONEG 100
SEQU 100
▁avs 100
▁ppa 100
bitops 100
ILOG 100
▁LOW 100
▁nmk 100
▁Block 100
▁FLUSH 100
pbm 100
=%08 100
▁SCU 100
ldt 100
canf 100
▁gva 100
▁dget 100
resets 100
@5 100
SIW 100
aer 100
hpt 100
icv 100
▁produ 100
EXTENTS 100
▁FTRACE 100
▁MASTER 100
_2; 100
▁ae 100
2412 100
▁PIC 100
▁UPF 100
▁cross 100
69_ 100
▁SRAM 100
procfs 100
▁GPIOs 100
▁frags 100
▁calibration 100
86_32 100
steal 100
▁specification 100
CMR 100
7] 100
RAPH 100
▁cport 100
INSTANCE 100
EOF 100
▁asc 100
▁mock 100
posted 100
▁incre 100
rand 100
▁rsv 100
ented 100
UTABLE 100
yond 100
ITIES 100
TILED 100
steering 100
BAUD 100
▁box 100
starget 100
PageSwap 100
▁Is 100
turbo 100
▁16), 100
adreno 100
deadline 100
▁dy 100
▁crt 100
IPSET 100
keybit 100
▁encap 100
▁compress 100
]" 100
78, 100
▁Video 100
8-> 100
TDM 100
GLO 100
fcr 100
▁BQ 100
sset 100
parsed 100
▁develo 100
▁dispatch 100
dtr 100
rex 100
INCLU 100
isert 100
▁come 100
▁venc 100
vant 100
▁kdb 100
pared 100
protocols 100
▁IGB 100
mctrl 100
AFT 100
▁96 100
eint 100
260_ 100
_2_4, 100
spare 100
▁dgnc 100
getable 100
sap 100
DPCM 100
armv 100
orth 100
clkin 100
ENOBUFS 100
forcewake 100
▁removing 100
▁ade 100
▁advk 100
8000000 100
▁kp 100
1010_ 100
▁elen 100
isolate 100
▁embedded 100
▁23, 100
▁kick 100
Beacon 100
otonic 100
▁rotation 100
1,0 100
PAUGE 100
▁EDMA 100
▁palmas 100
▁product 100
▁FORCEWAKE 100
alsa 100
aries 100
endpoints 100
flg 100
▁vl 100
▁spufs 100
translations 100
▁join 100
▁Instruments 100
UMBO 100
thon 100
retransmit 100
GUID 100
hpet 100
pnetdev 100
▁1024); 100
▁torture 100
workarounds 100
ptype 100
_6, 100
wor 100
Anon 100
▁Min 100
▁ahc 100
▁vreg 100
ACLK 100
country 100
tis 100
▁day 100
▁hsync 100
fragments 100
91, 100
fiers 100
flvl 100
▁playback 100
▁Management 100
warm 100
▁1<< 100
rodata 100
▁updating 100
▁EXCEPTION 100
301 100
FLL 100
▁watch 100
software 100
930 100
ENOVO 100
▁rlen 100
mle 100
IOMEM 100
Source 100
▁others 100
SmuFeatures 100
++], 100
[9 100
_48 100
▁qspi 100
▁cstate 100
lope 100
CALLBACK 100
▁compression 100
9; 100
sir 100
too 100
TIPC 100
memset 100
mwifiex 100
FCTL 100
usbh 100
▁gru 100
digit 100
ya 100
10>; 100
dout 100
▁perm 100
▁aborting 100
elete 100
iic 100
PCIe 100
nomin 100
▁ipip 100
created 100
starting 100
IPA 100
nfsi 100
▁jit 100
stale 100
▁Prevent 100
fpriv 100
▁notrace 100
/2 100
atu 100
cea 100
1111 100
Server 100
MEDIATE 100
▁strcat 100
intained 100
XD 100
NID 100
epf 100
PULSE 100
cv 100
war 100
DCCP 100
exch 100
ISERFS 100
quiesce 100
▁UAC 100
▁vars 100
PHYSICAL 100
5] 100
emap 100
▁rom 100
MH 100
▁xl 100
8998_ 100
INTEN 100
▁libcfs 100
▁repeat 100
olden 100
transid 100
▁extents 100
virtqueue 100
xed 100
▁<6 100
▁qgroup 100
LSI 100
1015_ 100
▁beyond 100
▁controlled 100
▁rdmsrl 100
Arch 100
pvid 100
sparc 100
▁probing 100
scnprintf 100
71, 100
UGET 100
frost 100
LENOVO 100
▁hfsplus 100
▁EDP 100
810 100
vise 100
trics 100
_00 100
inp 100
GENE 100
▁PLX 100
▁dspi 100
▁mouse 100
▁matrix 100
772 100
TCO 100
▁AA 100
idth 100
izer 100
▁far 100
))\ 100
ISE 100
FDB 100
HAUPPAUGE 100
390: 100
▁2>; 100
EFUSE 100
▁1;/* 100
aspeed 100
▁modeset 100
samp 100
▁infra 100
candidate 100
MANAGEMENT 100
APCI 100
▁limited 100
21- 100
sson 100
▁phb 100
URATION 100
axp 100
iclk 100
▁Amp 100
LONGS 100
TRUE 100
▁60, 100
_34 100
▁./ 100
scroll 100
QPS 100
pcfg 100
▁Conne 100
▁Index 100
▁evict 100
xts 100
dppclk 100
▁cdclk 100
pptable 100
reflink 100
▁processors 100
▁chars 100
validity 100
txb 100
▁tu 100
())) 100
▁MPU 100
retri 100
btv 100
BOUNCE 100
PERCPU 100
▁gnttab 100
combined 100
fio 100
apad 100
",0}, 100
cksum 100
▁High 100
▁Name 100
▁nbits 100
▁evergreen 100
DLL 100
MEN 100
ali 100
lidp 100
sigmask 100
▁linked 100
225 100
GPE 100
jid 100
▁dq 100
rxtx 100
▁BFA 100
alink 100
lackfin 100
▁Broadcom 100
XS 100
▁GM 100
ADSP 100
Master 100
(13 100
▁LT 100
LOUD 100
UGETLB 100
hilips 100
vtotal 100
▁MVNETA 100
▁collect 100
SCU 100
▁overhead 100
032 100
OPC 100
▁FAILED 100
inflight 100
deprecated 100
sff 100
sumers 100
Idx 100
186_ 100
[]){ 100
cedu 100
▁light 100
timeouts 100
▁storvsc 100
▁obsolete 100
▁ctnetlink 100
4)) 100
▁wd 100
SRIOV 100
keeper 100
▁Exynos 100
▁=% 100
Path 100
▁30) 100
▁sme 100
▁%. 100
▁LS 100
UOUS 100
iint 100
▁**/ 100
▁bogus 100
DIE 100
ixgbe 100
▁dram 100
NESTED 100
▁ordering 100
501_ 100
▁FEAT 100
EGRESS 100
msec 100
▁named 100
▁toshiba 100
▁ICL 100
uinfo 100
▁asid 100
▁acceler 100
SAR 100
aly 100
▁[2] 100
stone 100
TILING 100
▁dataoff 100
▁entropy 100
pcl 100
deep 100
umac 100
▁GRE 100
▁WIN 100
TRANSMIT 100
▁cmdline 100
▁specifies 100
▁AI 100
▁slen 100
fsdata 100
JOURNAL 100
ISOL 100
▁%1, 100
BUFSIZE 100
ALS 100
UNIX 100
ATHER 100
▁strip 100
inel 100
pfns 100
rphy 100
hwsim 100
▁====== 100
,- 100
Mhz 100
Rule 100
LEVELS 100
asecmp 100
▁zones 100
INGRESS 100
▁prestera 100
▁CRT 100
▁mib 100
Kernel 100
portal 100
▁iclog 100
cpuc 100
▁mpls 100
ADJUST 100
▁haddr 100
.</ 100
006 100
16- 100
▁pdu 100
malize 100
subreq 100
cryptlen 100
_8, 100
inl 100
lvb 100
FCLK 100
balloon 100
granularity 100
NLS 100
YCBCR 100
TRR 100
▁pskb 100
▁qual 100
▁genphy 100
▁pac 100
later 100
faultfd 100
qedf 100
vgdev 100
▁Drivers 100
▁iterate 100
components 100
▁KB 100
16(( 100
▁rng 100
prctl 100
Analog 100
▁pteval 100
▁Generic 100
LDX 100
▁35 100
▁ADM 100
▁zor 100
kfifo 100
▁shouldn 100
▁chk 100
writers 100
▁issued 100
▁kbuild 100
▁backend 100
chi 100
▁sca 100
▁Desc 100
COMMIT 100
RH 100
ZEN 100
▁kstat 100
▁DstMem 100
gpl 100
lnet 100
rbio 100
bounds 100
▁milli 100
>& 100
▁ABI 100
busid 100
=- 100
cise 100
▁tcb 100
▁midi 100
▁ravb 100
▁15; 100
▁SJA 100
reach 100
▁aggr 100
BRK 100
▁tre 100
▁Chip 100
▁Load 100
▁ehca 100
▁COMMAND 100
dsaf 100
irqd 100
brary 100
▁regular 100
sical 100
▁*)); 100
▁cval 100
▁walker 100
WRITABLE 100
Unexpected 100
SCP 100
▁Syn 100
▁construct 100
▁SGTL 100
9( 100
▁*)0 100
BPP 100
MEAS 100
iocbq 100
mday 100
▁ebt 100
7530_ 100
▁dequeue 100
▁Platform 100
ZD 100
▁GUC 100
[32]; 100
▁EHCI 100
▁uinfo 100
Hi 100
=0, 100
Ses 100
WFID 100
▁<11 100
pgmap 100
▁bttv 100
124 100
shim 100
▁SYN 100
writev 100
TTL 100
tea 100
▁'# 100
spmi 100
lence 100
rating 100
▁DUPLEX 100
▁TARGET 100
▁gw 100
strs 100
▁lir 100
Alloc 100
ipoib 100
▁feed 100
▁guid 100
Di 100
RNG 100
420_ 100
▁clnt 100
newval 100
▁5: 100
indexed 100
▁IV 100
errs 100
9200_ 100
ERANGE 100
▁hidpp 100
▁public 100
NOGET 100
encies 100
RETRANS 100
oobsize 100
DramAddr 100
dlen 100
▁PDEBUG 100
▁Serial 100
▁WARRANTIES 100
TOS 100
fixups 100
▁Flush 100
▁mdiobus 100
Next 100
▁ltq 100
sigaction 100
1}, 100
72_ 100
76: 100
LOST 100
▁gap 100
▁newer 100
Writeback 100
26_ 100
▁ireq 100
liable 100
▁CHANNEL 100
▁Setting 100
▁routing 100
cir 100
hns 100
▁XG 100
tlink 100
sscanf 100
▁komeda 100
READABLE 100
Supported 100
▁lk 100
(10, 100
0800 100
Soft 100
▁RCV 100
▁dell 100
▁dport 100
▁stall 100
cpustat 100
apt 100
segno 100
commended 100
▁declaration 100
08) 100
30); 100
umpages 100
WFIDrv 100
54, 100
▁jsonw 100
Counter 100
SFP 100
OPTS 100
▁lar 100
rived 100
▁pick 100
▁constraints 100
989 100
zing 100
▁cpuc 100
INVERT 100
2+ 100
04); 100
LIED 100
rdai 100
repr 100
udma 100
▁RDS 100
instances 100
RXQ 100
PINS 100
0828_ 100
heads 100
ioctx 100
1/; 100
9", 100
cis 100
OTH 100
pwrseq 100
grh 100
lpss 100
utmi 100
▁aper 100
VELL 100
raise 100
▁WORK 100
▁pciehp 100
xFE 100
▁DAMAGE 100
▁': 100
UPLE 100
hind 100
rmem 100
▁dal 100
▁ddr 100
▁*)(& 100
▁16)) 100
System 100
IBLE 100
NTSC 100
▁INSN 100
Mo 100
pdd 100
▁um 100
▁19, 100
fip 100
ROOM 100
DINODE 100
▁uptodate 100
CPLD 100
▁18) 100
jiffy 100
▁usec 100
(8 100
160 100
▁%[ 100
axis 100
▁deb 100
▁vpd 100
▁NEXT 100
2000>; 100
▁masks 100
sequent 100
20000000 100
._ 100
xh 100
PDC 100
LITE 100
cost 100
▁fbcon 100
▁MSTPCR 100
outbound 100
▁pfc 100
▁LSM 100
▁Run 100
▁adp 100
Media 100
JoinBss 100
▁design 100
TPM 100
▁sscanf 100
signaled 100
TPC 100
▁GFX 100
hibit 100
▁Ignore 100
comparator 100
SLT 100
Need 100
Part 100
▁CLONE 100
▁VXLAN 100
CONSTRA 100
▁smiapp 100
ELx 100
)++; 100
SEMB 100
▁flushing 100
▁effective 100
▁umc 100
▁512; 100
AROUND 100
KHZ 100
mgp 100
nocb 100
▁guarantee 100
2(0 100
))-> 100
ADMA 100
THERM 100
nbits 100
▁Open 100
pAdapter 100
▁executed 100
ALK 100
stid 100
▁tss 100
KASAN 100
syncp 100
▁rely 100
ically 100
uncharge 100
sco 100
regd 100
▁APP 100
DWC 100
TRACT 100
▁labpc 100
▁seems 100
▁SERIAL 100
matching 100
▁192 100
▁TSC 100
▁pbuf 100
AGGR 100
transform 100
vrr 100
▁%* 100
▁FDI 100
REQUI 100
NFT 100
sku 100
isci 100
CABLE 100
▁rport 100
▁HNAE 100
broken 100
BATTERY 100
periods 100
▁ASPEED 100
critical 100
bort 100
muic 100
wndw 100
▁IPW 100
selinux 100
▁recent 100
▁dh 100
DPIO 100
herency 100
CU 100
CGC 100
▁COL 100
scheme 100
fdc 100
▁MID 100
▁SCM 100
107 100
7110 100
NFSD 100
▁volt 100
recursive 100
97-> 100
User 100
GROUPS 100
▁smack 100
▁mmci 100
hwaddr 100
▁pipeline 100
▁Ver 100
▁sanity 100
▁idetape 100
ELS 100
sti 100
5063 100
doit 100
msvc 100
▁srpt 100
▁cdc 100
▁unicast 100
▁temporary 100
-5 100
snr 100
hasis 100
▁dpcm 100
0008 100
CLKS 100
MMHUB 100
authsize 100
cpos 100
xlnx 100
opened 100
windows 100
▁geneve 100
▁validation 100
VSI 100
▁vbus 100
50633_ 100
|_ 100
rtm 100
08); 100
▁pcr 100
AFTER 100
ENOTTY 100
preemp 100
▁children 100
ldr 100
trast 100
▁ifreq 100
vertise 100
processing 100
Wr 100
mA 100
sdm 100
CONFI 100
negot 100
▁exclude 100
pmk 100
▁%4 100
▁dx 100
ROBE 100
▁MCDI 100
▁boost 100
PREALLOC 100
Classifier 100
ssn 100
bases 100
slock 100
▁Sync 100
▁dimm 100
VALIDATE 100
▁phm 100
************ 100
dumb 100
11: 100
xive 100
▁reach 100
▁follows 100
330_ 100
ouch 100
ELEMENT 100
rkisp 100
gendisk 100
PCA 100
upd 100
▁dv 100
64), 100
▁MIX 100
ategory 100
tys 100
vdec 100
iext 100
▁qpc 100
hcall 100
Do 100
thr 100
ixel 100
specs 100
PacketSize 100
IFF 100
SENS 100
100000 100
▁sources 100
cio 100
stored 100
Digital 100
MARVELL 100
▁usually 100
▁Sem 100
▁pkg 100
▁movr 100
▁mfsprr 100
tof 100
utf 100
TECH 100
▁7)) 100
Timeout 100
OE 100
▁NON 100
hinfo 100
ignored 100
▁keyring 100
UF 100
bts 100
RECIP 100
cmdbuf 100
▁0600, 100
▁segno 100
cols 100
idual 100
young 100
KBUILD 100
Locked 100
▁malidp 100
BQ 100
▁zx 100
100; 100
▁NAU 100
wlvif 100
▁macvlan 100
▁CI 100
▁TD 100
ductor 100
wakeref 100
▁consumer 100
JoinBssParam 100
alib 100
oz 100
▁goes 100
SIF 100
▁rn 100
brid 100
▁think 100
▁provider 100
bmdma 100
▁GENL 100
▁LONG 100
▁cz 100
▁py 100
invoke 100
associated 100
2_0_ 100
Boot 100
fmts 100
▁avc 100
▁TORT 100
BINARY 100
viewport 100
▁zonelist 100
GPT 100
ccp 100
▁stp 100
▁0))) 100
▁nxt 100
▁rxb 100
ifinfo 100
UNICAST 100
tmds 100
▁(!(( 100
▁hibern 100
ALIGNMENT 100
DIRECTION 100
▁neighbour 100
▁deactivate 100
nvkm 100
▁BUT 100
oston 100
▁deliver 100
cros 100
OCTEON 100
smsc 100
▁ccu 100
fffff 100
mpath 100
▁2016 100
ABILITIES 100
25-> 100
INITY 100
▁Receive 100
TSF 100
CPLL 100
▁cli 100
▁IMPLIED 100
LSM 100
OID 100
▁ws 100
Load 100
neon 100
▁BMCR 100
▁vpif 100
▁ENETC 100
lpi 100
edit 100
ihost 100
ons 100
MSP 100
PNP 100
gnu 100
BASER 100
cards 100
dence 100
▁score 100
delivery 100
▁beginning 100
▁unaligned 100
NVRAM 100
dpa 100
_##_ 100
▁tap 100
archdata 100
▁outputs 100
ISAR 100
400>; 100
average 100
waiters 100
COW 100
▁GR 100
izzle 100
▁2009 100
▁vbox 100
gnized 100
ndrome 100
▁Packet 100
uA 100
SRR 100
1004 100
▁CPL 100
▁kbd 100
▁pvec 100
▁libata 100
getxattr 100
▁VMALLOC 100
pgs 100
ATIVE 100
qstats 100
sprintf 100
DPMS 100
snoop 100
▁rdesc 100
▁RGB 100
8996_ 100
▁pmdp 100
zeroed 100
UGH 100
bfa 100
▁II 100
AVER 100
jumbo 100
▁mlme 100
expiry 100
▁May 100
ramfs 100
65910_ 100
design 100
▁gaudi 100
▁quick 100
filtering 100
IOP 100
6030_ 100
ipmmu 100
FRAGMENT 100
▁kirkwood 100
4_0_ 100
▁WPA 100
8254_ 100
115200 100
retire 100
SDHI 100
uting 100
▁MACB 100
cda 100
solo 100
tron 100
8731_ 100
▁Fall 100
▁Keep 100
Def 100
lsb 100
▁qpn 100
▁vmcb 100
upstream 100
232 100
▁"%02 100
▁runs 100
1"), 100
SVGA 100
▁48, 100
▁thresh 100
RESOURCES 100
▁Calculate 100
▁date 100
collapse 100
sgi 100
▁Valid 100
STRUCTION 100
DSA 100
FPR 100
CVMX 100
▁planes 100
detection 100
Ack 100
ilog 100
rapl 100
INODES 100
▁programs 100
14) 100
DMC 100
Half 100
SUBD 100
▁rps 100
HFLAG 100
QUIET 100
texts 100
tfile 100
▁IBMV 100
fpstate 100
-1. 100
lnum 100
▁nix 100
Maintained 100
reclaimable 100
CAPABILITIES 100
▁"(% 100
pageio 100
▁prism 100
▁heartbeat 100
0= 100
388 100
laddr 100
daemon 100
REPLACE 100
▁msdc 100
negative 100
▁addrconf 100
clkc 100
▁hvc 100
▁uml 100
until 100
▁Need 100
atombios 100
▁processes 100
_19 100
▁PKT 100
▁ACTION 100
unwritten 100
Run 100
mrt 100
ifnum 100
TRB 100
▁Let 100
▁kctl 100
distance 100
SIGNATURE 100
deq 100
▁flexcan 100
devconfig 100
erasesize 100
▁stb 100
rivial 100
▁192.0. 100
usbvision 100
ecb 100
▁6), 100
expan 100
▁CPUID 100
8993_ 100
▁2010 100
efw 100
like 100
▁Mac 100
charg 100
LALLOC 100
batadv 100
▁lanes 100
▁advertising 100
▁dependencies 100
▁dsc 100
_1: 100
vme 100
+1); 100
SEGS 100
far 100
▁AST 100
▁jpeg 100
microchip 100
vmux 100
vcodec 100
pically 100
uniphier 100
00000000>; 100
(16 100
GTCO 100
_; 100
470 100
▁PRI 100
information 100
lems 100
mptr 100
ERP 100
▁34 100
▁SQ 100
RPTR 100
▁HUB 100
▁cmnd 100
REQUESTED 100
750 100
HPAGE 100
▁They 100
▁0444); 100
34_ 100
748 100
larb 100
▁819 100
▁zap 100
▁scanning 100
1(0 100
OSS 100
fit 100
Ring 100
▁uio 100
4780_ 100
shader 100
▁invoked 100
▁scatterwalk 100
|__ 100
▁ao 100
NAPI 100
▁bmap 100
▁cpuhp 100
▁emulator 100
018 100
QUP 100
RIO 100
▁TAS 100
▁ens 100
▁tsl 100
▁MINOR 100
▁Improve 100
945 100
pby 100
UPTO 100
6050_ 100
ASSEMB 100
▁migratetype 100
▁asynchronous 100
sve 100
compile 100
das 100
iet 100
Flag 100
standby 100
▁3,3 100
pacpi 100
usbphy 100
▁bounce 100
▁invoke 100
coresight 100
sigreturn 100
DEB 100
▁%= 100
743 100
3_0_ 100
THCA 100
▁dim 100
▁eax 100
audma 100
fully 100
POISON 100
kunmap 100
▁dmabuf 100
▁pM 100
exas 100
▁(((( 100
wdog 100
▁sai 100
reamble 100
▁duplex 100
▁Semicon 100
selftests 100
▁sectorsize 100
BDW 100
Tmp 100
▁SEG 100
▁99 100
pgid 100
▁lut 100
FRAMES 100
▁minItems 100
-1)) 100
hierarchy 100
pmr 100
batt 100
▁vpfe 100
iflags 100
▁methods 100
▁workload 100
contiguous 100
▁placement 100
DAS 100
cht 100
0)); 100
htbl 100
▁kfifo 100
▁802.11 100
8* 100
▁ASC 100
outputs 100
gx 100
170 100
MSC 100
fps 100
tip 100
HEEL 100
SECS 100
64(( 100
Sync 100
▁kcs 100
▁glue 100
PCMCIA 100
▁Boston 100
▁spelling 100
▁aer 100
▁dyn 100
▁expan 100
MACHINE 100
Ind 100
▁pcmd 100
ionext 100
calibration 100
ABL 100
▁RR 100
▁Semiconductor 100
__(" 100
▁ren 100
tclass 100
workspace 100
Card 100
npins 100
PREPARE 100
▁netlbl 100
▁æ 100
BCLK 100
nowled 100
20: 100
732 100
BLC 100
PPT 100
nsproxy 100
▁Unable 100
▁cpt 100
devattr 100
printer 100
▁PREFIX 100
SOFTWARE 100
Lp 100
gtk 100
▁Py 100
kil 100
▁=" 100
▁16)); 100
scancode 100
vsyscall 100
subscribe 100
▁IXGB 100
▁miss 100
4" 100
269_ 100
peak 100
▁oif 100
MPTCP 100
powered 100
traffic 100
Elf 100
OCI 100
EEPRO 100
▁sibling 100
lna 100
PMSG 100
amba 100
mdss 100
▁BAND 100
ANTENNA 100
▁freeze 100
YS 100
gop 100
plx 100
vlv 100
DWord 100
▁ulist 100
▁suspended 100
nix 100
timal 100
▁regard 100
lett 100
mcam 100
todo 100
PSTATE 100
▁UVERBS 100
610 100
▁FIB 100
LITTLE 100
▁pctrl 100
highmem 100
▁sensors 100
▁skipping 100
@01 100
rlen 100
▁CHV 100
nvmet 100
▁Turn 100
▁steps 100
bitfield 100
[9] 100
nob 100
dtim 100
▁addrs 100
cz 100
8000_ 100
pixels 100
cascade 100
partner 100
719 100
gex 100
▁;; 100
8042_ 100
▁diag 100
▁orphan 100
existing 100
▁virtnet 100
▁squashfs 100
DRC 100
▁Hv 100
execve 100
▁superio 100
DAX 100
▁#1 100
pata 100
taps 100
tied 100
▁Rate 100
▁consist 100
▁microcode 100
▁difference 100
▁ë 100
CRO 100
7840_ 100
reqsk 100
CANCEL 100
osdmap 100
52, 100
PMA 100
kcs 100
2430_ 100
CODING 100
FREEZE 100
pedited 100
▁nodeid 100
▁"../../ 100
▁Virtual 100
▁referenced 100
)0 100
73_ 100
▁manual 100
nodename 100
▁interruptible 100
GX 100
cpl 100
rcb 100
math 100
▁mos 100
bench 100
▁WIRE 100
▁Media 100
▁defaults 100
INSTRUCTION 100
backoff 100
▁ktermios 100
PKEY 100
▁SEND 100
▁replay 100
576 100
lds 100
▁3276 100
cyclic 100
▁occurred 100
▁Col 100
onenand 100
tuplehash 100
dependency 100
QSPI 100
▁reload 100
PRECATED 100
▁positive 100
MUB 100
SSR 100
mangle 100
▁rings 100
gateway 100
synchronize 100
20), 100
oice 100
mlock 100
CONTIG 100
▁bounds 100
▁Network 100
913 100
iwm 100
arse 100
▁CDC 100
▁fcp 100
▁ctinfo 100
epi 100
▁59 100
MOYO 100
quires 100
▁0400, 100
Private 100
▁vzalloc 100
▁mtsprSPRN 100
12( 100
dcs 100
▁mgag 100
▁EPOLL 100
▁accessing 100
▁ESR 100
▁LAST 100
▁xchg 100
LNKCTL 100
rbtree 100
▁fname 100
▁ACPICA 100
▁resched 100
▁wrapper 100
0/* 100
▁mw 100
▁sol 100
▁Store 100
▁purpose 100
LRO 100
strc 100
MCASP 100
▁CERROR 100
▁respective 100
AH 100
gv 100
fnl 100
esas 100
▁SAM 100
▁DOMAIN 100
sle 100
both 100
▁ucb 100
▁shut 100
ctories 100
pfx 100
cset 100
▁kvec 100
passth 100
GLE 100
fiq 100
uac 100
▁CY 100
GRAN 100
Item 100
tids 100
minmax 100
▁ESDHC 100
validation 100
]+ 100
30: 100
HTC 100
RCR 100
eprom 100
▁Adjust 100
huc 100
rpf 100
▁KS 100
▁sii 100
Blink 100
RFPath 100
SCH 100
swapd 100
▁become 100
parallel 100
scheduled 100
entication 100
readreg 100
determine 100
▁coherent 100
GD 100
shrd 100
▁cxd 100
1564_ 100
NETWORK 100
mappable 100
drvHandler 100
Pk 100
▁27, 100
▁NFTA 100
optimize 100
▁ttl 100
handshake 100
CONSTRAINT 100
air 100
hidpp 100
inlen 100
86- 100
VBI 100
Action 100
aptics 100
residency 100
whichfork 100
zmd 100
SEMAP 100
couldn 100
▁PSMOUSE 100
▁CRm 100
▁},\ 100
clflush 100
▁filldir 100
ahc 100
tca 100
▁HTT 100
▁gup 100
quiet 100
▁seed 100
counted 100
EI 100
RTM 100
cie 100
TDLS 100
bnxt 100
▁apb 100
▁hpfs 100
▁lcdc 100
▁mant 100
survey 100
▁overwrite 100
▁therefore 100
PCD 100
915; 100
REPE 100
xusb 100
▁Bypass 100
WATERMARK 100
640_ 100
▁fio 100
▁past 100
passed 100
=", 100
▁%7 100
ific 100
vlog 100
▁DRAM 100
CLKSRC 100
ORIGIN 100
tracker 100
▁incoming 100
▁7), 100
▁iwm 100
▁compil 100
GAP 100
KBD 100
240_ 100
OVERLAY 100
PASSIVE 100
POLLING 100
▁causes 100
▁keyboard 100
Ops 100
asq 100
VOUT 100
▁BTUSB 100
combine 100
REALTIME 100
▁licensed 100
ndd 100
▁EQ 100
160_ 100
▁mpu 100
DELETE 100
▁ifmgd 100
00000002 100
wt 100
{$ 100
FSOC 100
INITI 100
person 100
▁SIO 100
lover 100
▁kernels 100
▁Or 100
▁ppp 100
▁llist 100
GFS 100
▁orinoco 100
[256 100
idio 100
SMALL 100
riber 100
txreq 100
▁netfs 100
213 100
dsx 100
1200 100
kunit 100
▁BASE 100
4"; 100
hbm 100
▁LPA 100
▁MBX 100
▁SSC 100
▁ies 100
Pause 100
qproc 100
MIG 100
▁CLE 100
NAMED 100
▁hack 100
DETECTED 100
exchange 100
▁elevator 100
ghcb 100
▁tce 100
cdata 100
float 100
strel 100
Metric 100
enh 100
isys 100
▁backup 100
▁onenand 100
aconnector 100
PFX 100
sony 100
▁modrm 100
listitem 100
▁spurious 100
▁guaranteed 100
ByFreq 100
▁acked 100
qa 100
bmp 100
lem 100
dcbx 100
▁FTR 100
(10), 100
graded 100
repeat 100
▁axienet 100
hypercall 100
▁LIABILITY 100
▁Hy 100
▁nm 100
▁TVP 100
GAMMA 100
GPIOX 100
▁completely 100
zyn 100
five 100
mphy 100
▁<15 100
ifname 100
public 100
▁rinfo 100
UFF 100
(*(__ 100
▁disc 100
▁failures 100
▁contiguous 100
fto 100
NSEC 100
bufsz 100
▁XLOG 100
FROZEN 100
▁riscv 100
reconfig 100
▁prototype 100
HORE 100
blnd 100
▁DCN 100
▁VOP 100
▁nicvf 100
-1]. 100
▁VFS 100
CHECKSUM 100
▁Watchdog 100
83_ 100
slb 100
OHCI 100
▁wants 100
remount 100
▁readahead 100
PINN 100
▁NES 100
overhead 100
jr 100
▁ecx 100
318 100
SIDE 100
8152_ 100
BSD 100
PLA 100
fpr 100
nci 100
cspi 100
▁chv 100
▁NILFS 100
▁signr 100
PERIODIC 100
indicate 100
********** 100
▁preemption 100
▁cafe 100
iteria 100
▁wIndex 100
PRESSURE 100
▁supplied 100
infos 100
vni 100
▁ADA 100
▁icmpv 100
▁encryption 100
PATA 100
agle 100
▁(16 100
▁afu 100
▁ams 100
PERMS 100
▁body 100
mempool 100
227 100
OON 100
Sur 100
ffd 100
how 100
ionic 100
desired 100
▁missed 100
180_ 100
▁idt 100
▁ppd 100
▁ske 100
▁LIRC 100
PTRACE 100
▁mxser 100
TBT 100
▁freqs 100
Rf 100
ndp 100
llcp 100
smum 100
▁IPMI 100
▁sbus 100
00000); 100
▁========== 100
nan 100
▁fro 100
▁caused 100
colorspace 100
kc 100
GPI 100
SGE 100
rsb 100
800, 100
1200_ 100
77686_ 100
▁relevant 100
134 100
_7_ 100
▁4] 100
CLNT 100
EDMA 100
STANDARD 100
▁0} 100
poke 100
▁NPC 100
▁rgb 100
rmdir 100
▁metrics 100
▁initializing 100
▁pq 100
RADIOTAP 100
▁SUCCESS 100
tsn 100
txp 100
parx 100
thif 100
hashfn 100
issing 100
xfffffff 100
!"); 100
ASoC 100
▁SCF 100
▁htc 100
Update 100
interp 100
▁ldata 100
CLOSED 100
EMU 100
plcp 100
VERGREEN 100
▁synchronous 100
▁HL 100
▁spaces 100
▁IFNAMSIZ 100
080 100
ski 100
METR 100
▁nvt 100
9650_ 100
▁2014 100
▁feat 100
LOADER 100
▁2001: 100
▁Delete 100
rcvctrlpipe 100
pck 100
endp 100
▁SNMP 100
cqring 100
▁BOARD 100
▁LIMITED 100
rsa 100
deps 100
▁(;;) 100
WRITEABLE 100
pnode 100
▁**)& 100
[64 100
zfcp 100
96, 100
▁til 100
▁year 100
ADVERTI 100
10( 100
705 100
STICK 100
pread 100
arbage 100
",. 100
HFS 100
LNA 100
ric 100
wer 100
▁fle 100
▁lkb 100
jedec 100
▁vers 100
CLKREG 100
▁however 100
digestsize 100
MCF 100
(15, 100
grps 100
tmrvl 100
FCC 100
CEPH 100
▁nct 100
▁udl 100
globl 100
▁alps 100
JUMP 100
Make 100
STEREO 100
RTR 100
pcc 100
gpll 100
gency 100
spect 100
▁CURSEG 100
SBI 100
lcn 100
▁mcb 100
DEMOD 100
keepalive 100
712 100
dfl 100
FADT 100
doff 100
gobj 100
ntohs 100
▁skel 100
maj 100
24-> 100
VREF 100
fasync 100
stmmac 100
998 100
CHA 100
Open 100
PMIC 100
▁ALT 100
▁together 100
APU 100
xpt 100
fout 100
▁IGC 100
atapi 100
PPS 100
▁inf 100
ifaddr 100
+( 100
▁dcc 100
▁mcf 100
aneous 100
rxdesc 100
spread 100
COMPOSITE 100
3__ 100
AGP 100
nsecs 100
depend 100
▁udata 100
CONVERT 100
▁paravirt 100
akup 100
alan 100
FALSE 100
sysrq 100
▁icsk 100
▁balloon 100
removable 100
▁noinline 100
rgrp 100
▁Non 100
kernfs 100
934 100
SDP 100
▁PSW 100
▁jfs 100
▁pie 100
PHONE 100
erted 100
RELOAD 100
rcp 100
▁<32 100
▁MNT 100
xceiv 100
pteval 100
Display 100
duction 100
▁cik 100
snapc 100
targp 100
RFKILL 100
▁pevent 100
fsg 100
03); 100
EVF 100
▁VA 100
pfit 100
eventfd 100
▁optval 100
▁̧a 100
DISPATCH 100
efficient 100
▁bMaskDWord 100
▁rh 100
▁~0; 100
coded 100
▁Print 100
PktType 100
 100
COLL 100
EGAL 100
rtas 100
▁10. 100
GAD 100
845_ 100
▁16: 100
▁lmv 100
oking 100
▁reco 100
MEMMAP 100
▁scheduled 100
BPC 100
224_ 100
VARI 100
lirc 100
▁edp 100
▁fbt 100
RESOL 100
MATRIX 100
classes 100
▁floppy 100
XR 100
▁Blackfin 100
▁freelist 100
)][ 100
1>, 100
rto 100
wext 100
nabling 100
▁DECODE 100
▁softirq 100
overwrite 100
ACS 100
ITIO 100
▁CRn 100
NEIGH 100
lttpr 100
pds 100
▁66 100
rary 100
▁pfx 100
▁Once 100
REALTEK 100
▁resize 100
▁nritems 100
SEMAPHORE 100
tili 100
▁DDI 100
▁irqd 100
▁life 100
bertas 100
ensity 100
▁REGISTER 100
gmbus 100
riers 100
producer 100
12; 100
nmk 100
▁ipi 100
▁sseu 100
modalias 100
algorithm 100
CUT 100
▁0\ 100
▁TF 100
SURE 100
▁Low 100
outbuf 100
▁UNUSED 100
▁pseries 100
▁duplicated 100
68_ 100
▁"; 100
▁*/, 100
▁vmm 100
TIGON 100
UNMAP 100
drate 100
sigset 100
▁ccflags 100
usbduxsub 100
kevt 100
▁alen 100
▁SCSCR 100
PERFMON 100
▁Length 100
▁opened 100
▁granted 100
getsockopt 100
ckd 100
wsum 100
▁lag 100
▁armv 100
MOVABLE 100
▁qlt 100
▁rsc 100
pullup 100
foreach 100
▁ENGINE 100
▁iteration 100
dtm 100
Board 100
▁skipped 100
▁cachefiles 100
ODM 100
roid 100
ucmd 100
▁parsed 100
interleave 100
▁specifier 100
pgrp 100
▁gve 100
8400_ 100
deref 100
usbhs 100
devinitdata 100
dtc 100
kHz 100
dmar 100
▁HSW 100
8500- 100
swing 100
arison 100
▁fbtft 100
Ld 100
RPF 100
_0) 100
64)) 100
iram 100
▁PDC 100
▁hwr 100
sigma 100
underrun 100
▁zr 100
▁PUD 100
2443_ 100
ately 100
▁emulated 100
75, 100
les 100
190_ 100
cpld 100
gree 100
hops 100
bgmac 100
marks 100
▁bfqq 100
ulative 100
▁Filter 100
▁dmatest 100
CV 100
▁Up 100
ATMEL 100
tport 100
▁HDSP 100
970 100
];/* 100
▁odd 100
▁lmac 100
SST 100
▁NT 100
▁EFUSE 100
COHERENT 100
lying 100
▁addir 100
▁inputs 100
HM 100
htp 100
pru 100
Flash 100
▁WDIOC 100
CFI 100
mfp 100
tpa 100
▁255) 100
▁Mult 100
▁"^ 100
390] 100
▁STV 100
SEARCH 100
▁============== 100
2832_ 100
powersave 100
COLORSPACE 100
98, 100
maddr 100
▁msdu 100
▁auxtrace 100
▁submission 100
493 100
tqp 100
BLACK 100
LEASE 100
▁ASUS 100
ipaddr 100
▁succeed 100
subchannel 100
▁ADVERTISE 100
plh 100
▁mcam 100
540 100
▁SF 100
irda 100
ithdr 100
65217_ 100
▁exact 100
▁WIRELESS 100
▁spectrum 100
▁requesting 100
*. 100
DOM 100
▁fhp 100
wsize 100
▁nsecs 100
bitbang 100
ithdraw 100
licitOps 100
▁streams 100
ahw 100
▁<7 100
▁accel 100
▁buddy 100
▁sender 100
lus 100
9200 100
PUPD 100
1000); 100
isation 100
dell 100
▁scancode 100
▁monitoring 100
▁dynamically 100
▁applications 100
'␍ 100
▁ED 100
8168 100
RECT 100
▁vmmc 100
onecell 100
strJoinBssParam 100
cvmx 100
▁klp 100
▁2019 100
clkdiv 100
ocation 100
▁cw 100
XTAL 100
▁*(* 100
▁emc 100
▁rcd 100
compose 100
▁nexthdr 100
php 100
▁-6 100
Diff 100
Stop 100
xFFF 100
▁gsc 100
▁hdl 100
▁circ 100
▁wanted 100
New 100
fsn 100
lck 100
prv 100
irec 100
iovad 100
▁CONF 100
cbcr 100
▁lowcore 100
VIF 100
▁[] 100
11); 100
▁brq 100
ANCED 100
stmpe 100
▁Real 100
hstate 100
▁meaning 100
▁Reference 100
MSS 100
_32. 100
▁ACP 100
▁ulen 100
GPIODV 100
▁0644); 100
ARGB 100
▁(32 100
▁vic 100
Comm 100
phyaddr 100
ISOC 100
cesa 100
wrqu 100
"},/* 100
mdisk 100
▁PTRS 100
xfffff 100
▁scl 100
tramp 100
▁SSCR 100
ENAB 100
mpwqe 100
▁EXTCON 100
epd 100
▁56 100
▁vr 100
▁gos 100
iattr 100
qoriq 100
palette 100
READONLY 100
▁scheduling 100
Si 100
AVG 100
stv 100
NTIS 100
sreg 100
oldfish 100
▁cflags 100
pids 100
CAPAC 100
cloned 100
iliary 100
typ 100
▁̧ 100
8825_ 100
VERITY 100
▁library 100
structfield 100
410 100
espi 100
▁qedf 100
munmap 100
▁marker 100
▁router 100
000000); 100
▁chandef 100
han 100
rpl 100
[2]) 100
conns 100
pxmitpriv 100
28) 100
SKU 100
rqd 100
500: 100
iring 100
▁Corp 100
▁slic 100
▁DAMAGES 100
▁defconfig 100
personality 100
mmp 100
scpy 100
▁cpa 100
▁PROVIDE 100
MaxPacketSize 100
cnf 100
pdsk 100
allen 100
drops 100
▁deleted 100
ATR 100
tailed 100
▁Fixed 100
kobject 100
▁evtchn 100
RCAR 100
XTON 100
coda 100
rebuild 100
PageAnon 100
symmetric 100
▁cleanups 100
▁download 100
IAR 100
▁SPU 100
SYSCTL 100
▁Marvell 100
WORKAROUND 100
▁performed 100
▁transcoder 100
/8 100
GMCH 100
TRACER 100
▁ioctls 100
ASSEMBLY 100
UPTODATE 100
wtr 100
sama 100
▁From 100
REQUIRED 100
▁blkcipher 100
ASUST 100
▁CONT 100
▁Cache 100
▁OMAPDSS 100
PageLocked 100
HQD 100
hubp 100
umns 100
backtrace 100
*", 100
EXC 100
esr 100
CMDID 100
signr 100
▁<5000000>; 100
),% 100
:%04 100
dont 100
errid 100
7511_ 100
mixers 100
▁gossip 100
;// 100
nvs 100
incr 100
▁smd 100
idget 100
▁RISC 100
▁streaming 100
APD 100
txn 100
▁45 100
▁IPU 100
▁nfsi 100
manent 100
BROXTON 100
▁mantis 100
▁regression 100
▁represents 100
fls 100
BITR 100
7210_ 100
PARSE 100
▁buck 100
optval 100
fsp 100
MSEC 100
hift 100
sclp 100
KEYBOARD 100
Received 100
▁rz 100
.%02 100
1305_ 100
ATILE 100
▁blkno 100
▁ptype 100
986 100
▁xd 100
▁Rec 100
▁wpa 100
LIF 100
▁lid 100
noidle 100
rocker 100
maskset 100
sechdrs 100
GCR 100
▁dfs 100
▁pdn 100
▁usable 100
15: 100
iob 100
neq 100
(&__ 100
rmed 100
801 100
8_1 100
▁tmc 100
CTORY 100
▁inta 100
ROUTER 100
aliases 100
03; 100
prs 100
tcs 100
▁Hi 100
RELOC 100
▁SYSTEM 100
cpr 100
▁_, 100
gmch 100
▁cio 100
UNSET 100
▁2011 100
▁MACHINE 100
Lu 100
12- 100
902 100
afa 100
▁HCD 100
▁msb 100
writeable 100
▁instances 100
LCK 100
ogm 100
ppi 100
▁26, 100
▁foo 100
▁ftdi 100
▁navi 100
▁pSMB 100
▁wide 100
ker 100
ksm 100
818_ 100
rxbuf 100
DEPRECATED 100
CRYP 100
mous 100
▁sin 100
GADGET 100
brelse 100
▁crystal 100
gpd 100
cert 100
tack 100
▁PSIL 100
pagemap 100
auxtrace 100
80: 100
hqd 100
EMMC 100
ubus 100
▁tca 100
COEFF 100
LATCH 100
EXTABLE 100
mdiobus 100
▁filters 100
pwq 100
▁DPA 100
▁tdp 100
Create 100
}/ 100
▁SFP 100
perform 100
generator 100
MXC 100
▁4- 100
txbuf 100
▁kset 100
contin 100
▁GUEST 100
▁thing 100
▁multip 100
▁HWTSTAMP 100
▁undefined 100
IMG 100
ior 100
▁HIF 100
dname 100
▁12), 100
▁kcontrol 100
anel 100
▁Cam 100
▁GSI 100
▁dqp 100
▁APIs 100
inbound 100
▁powered 100
▁constify 100
501 100
▁APM 100
8173_ 100
addir 100
writing 100
▁macsec 100
424 100
ifo 100
▁Ne 100
711_ 100
PRIME 100
signo 100
▁constants 100
Ctl 100
rap 100
logue 100
PREFER 100
linked 100
CLIENTID 100
PageDirty 100
background 100
OKE 100
_16( 100
▁GTT 100
▁0000 100
orn 100
▁pinfo 100
▁permit 100
▁limitation 100
950 100
PSW 100
din 100
gdp 100
lenp 100
bmval 100
pktlen 100
forge 100
ndm 100
ULTI 100
▁VFL 100
▁lguest 100
DSR 100
LET 100
▁UCR 100
▁befs 100
▁fine 100
PACKETS 100
ceiving 100
▁hierarchy 100
RETI 100
▁RSS 100
BLINK 100
▁EXTRA 100
ILITY 100
fdata 100
▁prod 100
regulatory 100
IPv 100
▁29, 100
CTYPE 100
EXTEN 100
▁mmCP 100
▁State 100
▁hwrng 100
QSERDES 100
66, 100
wed 100
ameport 100
Function 100
evictable 100
▁MXS 100
compact 100
▁OCTEON 100
Extension 100
/\ 100
POD 100
gsm 100
cptr 100
▁QDIO 100
800000 100
MIRROR 100
verter 100
MAG 100
▁GITS 100
▁COLOR 100
▁defer 100
▁omapfb 100
▁regnum 100
CONFIGURE 100
APE 100
itu 100
Video 100
radar 100
▁HDCP 100
sndbuf 100
interpreter 100
mitive 100
bitrates 100
UNWRITTEN 100
sizeimage 100
▁contexts 100
gettimeofday 100
6\ 100
LBA 100
grf 100
▁qi 100
▁~0); 100
MAXLEN 100
GCC 100
▁ELS 100
flows 100
▁mist 100
ctinfo 100
ational 100
destination 100
EFR 100
gma 100
MERGE 100
▁2006 100
▁WIPHY 100
▁calculated 100
-16 100
ODD 100
ailp 100
bars 100
dphy 100
liminate 100
reachable 100
avid 100
rseq 100
▁NLP 100
autop 100
riscv 100
▁Split 100
_30 100
cvt 100
DEVS 100
▁BUF 100
▁gdb 100
▁sfx 100
Group 100
cline 100
fusion 100
▁GROUP 100
OSE 100
▁kn 100
Back 100
ERGY 100
[10] 100
latch 100
DIRECTORY 100
1' 100
MPLL 100
▁ccs 100
▁osb 100
▁cmdq 100
▁kbuf 100
icating 100
▁Cannot 100
UOS 100
dia 100
tsb 100
ECHO 100
cale 100
dclk 100
▁RIO 100
▁cru 100
▁ssd 100
MEDIUM 100
83, 100
euid 100
amthif 100
▁architectures 100
▁Header 100
▁Refactor 100
▁subchannel 100
63, 100
▁INC 100
Signal 100
ny 100
▁ISO 100
▁lseg 100
▁soon 100
destructor 100
0,% 100
dct 100
imc 100
168_ 100
▁myri 100
erance 100
az 100
imon 100
5843_ 100
SCE 100
▁gpe 100
▁noise 100
FWSTATS 100
TRANSACTION 100
57_ 100
00,0 100
kgid 100
ulpq 100
_8188 100
PROLOG 100
▁ue 100
IZER 100
GPMC 100
▁ANA 100
▁strr 100
SPRING 100
screeninfo 100
56, 100
*102 100
ulpi 100
▁Just 100
smumgr 100
ALLOCATE 100
rat 100
▁probed 100
▁clients 100
kasprintf 100
dow 100
mmr 100
_20_ 100
▁elv 100
resend 100
Parameters 100
▁SetPageUptodate 100
qtd 100
mper 100
EMERG 100
▁multipath 100
aad 100
▁500 100
▁nice 100
overrun 100
sfd 100
Resp 100
PACPI 100
ktype 100
lout 100
verf 100
▁blkio 100
LINEOUT 100
ingenic 100
▁daemon 100
▁implicit 100
fltr 100
fsuid 100
▁TEMP 100
subtree 100
724 100
cca 100
trips 100
▁FATTR 100
TODEVICE 100
CTAG 100
WAR 100
▁forced 100
▁Definition 100
cic 100
subslice 100
▁INCLUDING 100
cwq 100
▁LOCAL 100
▁infrastructure 100
74_ 100
TIN 100
adg 100
▁mand 100
▁Added 100
settime 100
432 100
▁gh 100
/... 100
LOUT 100
Enter 100
▁sdhi 100
mounts 100
▁Flash 100
GING 100
TRIP 100
reap 100
tscm 100
nandc 100
zoned 100
▁stamp 100
▁pinconf 100
▁trailing 100
manufacturer 100
▁dB 100
Word 100
▁SEL 100
ASSOCI 100
RXCSUM 100
ossible 100
▁panfrost 100
89, 100
(11, 100
▁OID 100
▁mbus 100
recycle 100
▁scaled 100
▁HY 100
Intf 100
▁DSC 100
SUSPENDED 100
/4 100
OTHERS 100
outlen 100
relocate 100
▁decrement 100
LATE 100
thaw 100
▁xpad 100
▁btusb 100
▁periph 100
▁kmemleak 100
▁resetting 100
50) 100
canon 100
▁gart 100
▁rsize 100
DAILINK 100
memtype 100
testing 100
▁Program 100
plain 100
matched 100
WELLSPRING 100
▁individual 100
▁Electronics 100
LPT 100
8888 100
8607_ 100
▁cells 100
ironment 100
▁trampoline 100
MBED 100
Pack 100
baco 100
CAPACITY 100
demodulator 100
-6 100
DIM 100
HDP 100
ifmgd 100
logger 100
psm 100
mmus 100
4231_ 100
▁delim 100
▁Context 100
46, 100
▁wk 100
▁RTF 100
0900_ 100
DADDR 100
~~~~~~~~~~~~~~~~ 100
TUR 100
3399_ 100
SNOOP 100
WHEEL 100
▁ldrr 100
▁wcid 100
REGISTERED 100
YE 100
quiva 100
manual 100
908 100
NES 100
▁=0 100
isset 100
▁syms 100
17042_ 100
▁SDMMC 100
▁perflvl 100
pLed 100
▁CQE 100
▁dro 100
▁strto 100
▁COPYRIGHT 100
tlbi 100
▁decla 100
readers 100
▁ADT 100
▁Mov 100
180 100
ongle 100
orizont 100
▁ticket 100
OVERHEAD 100
REN 100
resc 100
▁dcr 100
iproc 100
▁255, 100
▁Then 100
▁tilcdc 100
----------- 100
FSI 100
dhd 100
pfd 100
verb 100
▁sat 100
resis 100
▁cdata 100
LMI 100
▁FH 100
hwdep 100
▁LCDC 100
▁ehdr 100
▁FIRST 100
7_0_ 100
HINT 100
semb 100
ADDRS 100
dccpd 100
▁LDLM 100
▁hooks 100
827 100
=%# 100
Ver 100
txc 100
(0)) 100
bler 100
▁WDIO 100
▁dws 100
▁SMSC 100
▁members 100
▁talitos 100
whitelist 100
▁ef 100
32", 100
▁ramp 100
OFFLINE 100
▁adreno 100
pmlmeinfo 100
VERS 100
▁icp 100
▁halt 100
CPUFREQ 100
hwtstamps 100
connectAttr 100
AGER 100
▁afe 100
▁~0, 100
CLKID 100
libri 100
nulls 100
▁3)); 100
▁faults 100
BYT 100
MIZE 100
bfad 100
eroo 100
▁pmac 100
connections 100
730 100
flp 100
sdcard 100
▁hence 100
utorture 100
GY 100
VGIC 100
▁"0" 100
rintk 100
viour 100
VECTORS 100
filtered 100
maxburst 100
bau 100
vents 100
▁EROFS 100
4= 100
ICP 100
inq 100
PEEK 100
wave 100
FATTR 100
falling 100
trailer 100
▁minstrel 100
02; 100
And 100
UHS 100
realtek 100
▁bootloader 100
1], 100
TRC 100
▁iq 100
▁sect 100
▁rdmsr 100
▁unset 100
▁pathname 100
▁eh 100
qedi 100
▁lli 100
9111_ 100
hdspm 100
------- 100
CRITICAL 100
808_ 100
▁bra 100
▁qedi 100
mvmvif 100
subpage 100
▁Comple 100
memalloc 100
▁retcode 100
lsp 100
olt 100
▁bdp 100
ROTATE 100
memsize 100
▁anten 100
IOR 100
SMPS 100
▁easi 100
▁repe 100
copies 100
restri 100
▁grant 100
0000000>; 100
▁clockevents 100
8.8 100
mcg 100
▁ki 100
(5); 100
writepages 100
▁flat 100
▁leader 100
Playback 100
▁authsize 100
ldb 100
peb 100
][0] 100
▁sug 100
scomp 100
palmas 100
▁CURRENT 100
▁modification 100
702 100
RND 100
▁{& 100
dmae 100
▁cmsg 100
▁192.0.2. 100
1]; 100
POW 100
TCON 100
]++; 100
LOGICAL 100
ZY 100
68, 100
Seq 100
smt 100
▁pat 100
STAGE 100
DUPLEX 100
▁pHalData 100
:"); 100
envp 100
▁cow 100
▁pageblock 100
ANSI 100
ayer 100
pnum 100
▁cip 100
▁MPOL 100
▁SIDLE 100
ABLISHED 100
▁psci 100
HUGETLB 100
INCLUDE 100
▁debugf 100
▁WATCHDOG 100
▁pressure 100
osh 100
cmos 100
iphp 100
▁KOBJ 100
▁resv 100
OPMODE 100
▁masked 100
edi 100
▁55 100
what 100
plite 100
▁compilation 100
2341 100
From 100
hwmods 100
▁stateid 100
▁comparison 100
5"; 100
DOS 100
NLDEV 100
[4]); 100
vchiq 100
▁Take 100
APL 100
scmi 100
▁lif 100
encer 100
missed 100
▁0);/* 100
▁ipmmu 100
▁strscpy 100
Dpm 100
Copy 100
bfqd 100
emif 100
▁gue 100
▁SCLK 100
▁occurs 100
opendata 100
steresis 100
crb 100
[16] 100
hive 100
▁hpt 100
▁qmp 100
▁Qualcomm 100
▁FIF 100
oplock 100
▁IPSTATS 100
CIS 100
GLB 100
robj 100
▁PEB 100
qlcnic 100
sembly 100
CLKGATE 100
INSTALL 100
IntfAdapter 100
lch 100
rar 100
▁6: 100
▁ACC 100
▁emu 100
0132_ 100
bdata 100
▁promisc 100
bub 100
asured 100
MKK 100
fns 100
Last 100
reads 100
31- 100
94, 100
▁tso 100
2063_ 100
dmask 100
▁FROM 100
▁blue 100
OTONIC 100
redhat 100
▁MESSAGE 100
▁isolate 100
▁keycode 100
Pri 100
▁HPD 100
▁adi 100
again 100
▁cfqd 100
dispose 100
▁carrier 100
95, 100
CEE 100
▁8. 100
▁CPM 100
▁bpc 100
HWMON 100
decim 100
▁256) 100
HwData 100
▁demod 100
uhs 100
▁jeb 100
▁Therefore 100
830 100
FUA 100
sbc 100
vpp 100
▁XC 100
luns 100
deleted 100
▁writeq 100
▁xtensa 100
releases 100
!", 100
340 100
NCQ 100
cfgs 100
residue 100
pT 100
itt 100
GRPH 100
▁1,8 100
▁ips 100
▁DMUB 100
forget 100
▁candidate 100
Configuration 100
mh 100
ifest 100
▁tokens 100
00010000 100
chronous 100
sourceforge 100
Fw 100
92, 100
AQC 100
cpc 100
▁:" 100
(31, 100
▁Nor 100
8925_ 100
▁rbuf 100
▁numpages 100
▁endpoints 100
▁9), 100
▁CMDQ 100
iopoll 100
▁workspace 100
▁ä 100
btn 100
gar 100
▁63 100
CTUR 100
logi 100
Debug 100
SIDLE 100
▁BUCK 100
Makefile 100
SetBBReg 100
IMMUTABLE 100
Var 100
dmn 100
gpte 100
▁SSD 100
▁cut 100
▁acct 100
▁RADIX 100
adapdata 100
namespaces 100
WH 100
250 100
PVR 100
ICIT 100
HWCAP 100
▁Processor 100
ENH 100
▁"* 100
tcph 100
▁ina 100
▁mga 100
hashval 100
),( 100
WDC 100
INDX 100
▁sfc 100
:1;/* 100
IFINDEX 100
▁egress 100
Internal 100
WW 100
Hdr 100
iwe 100
semi 100
▁bugs 100
hibern 100
▁reorder 100
▁atombios 100
/) 100
qt 100
bered 100
maint 100
▁cirrus 100
▁paging 100
▁PROVIDED 100
▁independent 100
8(% 100
288_ 100
6_0_ 100
13_0_ 100
CRYPTION 100
▁nblocks 100
▁thisboard 100
476 100
UAP 100
FORE 100
hcmd 100
trbs 100
▁gpmi 100
▁Include 100
MFC 100
CELOT 100
▁ARISING 100
799 100
DCC 100
▁AFS 100
▁bmp 100
▁cpc 100
hugepaged 100
cft 100
MUST 100
ROLL 100
▁MCA 100
▁10), 100
37, 100
Slot 100
[5], 100
HPOUT 100
787 100
Col 100
IPG 100
mqp 100
entr 100
▁cgs 100
▁ded 100
WIPHY 100
▁uobj 100
quality 100
▁CONTRACT 100
▁modifier 100
946 100
16", 100
UNCORE 100
▁SHALL 100
▁pcdev 100
▁making 100
▁describe 100
▁programming 100
"}; 100
39_ 100
bmi 100
cpa 100
utter 100
▁mtrr 100
VIRTIO 100
recognized 100
ctu 100
▁~_ 100
magn 100
▁tlen 100
▁maxlen 100
▁possibly 100
▁bundle 100
▁pktgen 100
ARF 100
xip 100
▁esdhc 100
▁quiet 100
MONOTONIC 100
Clk 100
dur 100
▁(5 100
aram 100
grctx 100
OXSEMI 100
▁expand 100
▁reinit 100
HSM 100
nom 100
sdd 100
dwork 100
▁dock 100
lrange 100
▁PANEL 100
▁WHETHER 100
cgx 100
since 100
▁HARD 100
closed 100
DELALLOC 100
▁exceeds 100
▁counting 100
sht 100
toc 100
PHRD 100
iout 100
2440_ 100
ielen 100
▁gmap 100
sanity 100
hangcheck 100
linearize 100
chosen 100
▁LIABLE 100
▁mad 100
EXPORT 100
▁MTHCA 100
▁login 100
ESW 100
take 100
▁VSP 100
ldata 100
iops 100
strn 100
▁SCL 100
vsock 100
▁pcidev 100
▁reverse 100
▁filtering 100
dbc 100
twi 100
7164_ 100
realm 100
uncached 100
▁periodic 100
(16) 100
300, 100
200>; 100
GBASE 100
lowpan 100
sprite 100
leyview 100
miscdev 100
▁unmapped 100
Cr 100
0>, 100
▁2^ 100
lign 100
JUMBO 100
pment 100
ileged 100
rflags 100
assoclen 100
▁decrypt 100
ooblayout 100
SCK 100
Inode 100
▁chcr 100
▁divide 100
EFF 100
RTT 100
ACCT 100
Stat 100
▁INV 100
▁RXD 100
TESTS 100
grace 100
400000 100
▁eaddr 100
PageLRU 100
▁caches 100
exposure 100
microamp 100
▁ideapad 100
50; 100
CLAS 100
VADDR 100
arpsl 100
▁lwzr 100
▁shrinker 100
DAY 100
JIT 100
emb 100
istd 100
▁14; 100
▁psi 100
5670_ 100
raddr 100
01: 100
lets 100
▁dpp 100
DEVFN 100
sshdr 100
mcount 100
▁ONENAND 100
▁reached 100
▁suitable 100
16. 100
▁WAIT 100
▁newly 100
▁readdir 100
ky 100
HEX 100
▁SCB 100
▁EINVAL 100
Query 100
▁Here 100
▁frac 100
▁safely 100
▁replaced 100
▁-------------- 100
tq 100
evo 100
sbus 100
▁UIC 100
▁unsafe 100
PageSwapCache 100
HPTE 100
cfile 100
▁Fail 100
4000>; 100
ACTIVITY 100
################ 100
▁Part 100
discover 100
congestion 100
40>; 100
NACK 100
utes 100
▁pwc 100
▁NVRAM 100
▁confi 100
0000000) 100
▁debounce 100
50- 100
AVI 100
UET 100
[12] 100
▁PLA 100
adump 100
vtime 100
▁fact 100
rigger 100
5677 100
PROGS 100
▁PRCMU 100
SIOCGIW 100
Platform 100
80- 100
▁%2 100
blksz 100
▁coex 100
idProduct 100
functionality 100
8\ 100
MSA 100
▁TID 100
▁eof 100
CONSISTENT 100
linu 100
mity 100
▁Unit 100
▁ucsi 100
▁partitions 100
83781 100
connac 100
buswidth 100
▁followed 100
ETA 100
▁MVM 100
▁zynq 100
reduced 100
sii 100
wrp 100
park 100
▁plus 100
kvmppc 100
respon 100
▁VMXNET 100
azx 100
kvec 100
▁((_ 100
-2.0+ 100
dccph 100
stuff 100
▁Zero 100
▁advance 100
▁communication 100
CHN 100
fsblk 100
pblock 100
withdraw 100
IVB 100
▁Put 100
▁11); 100
▁invert 100
BBT 100
BLUE 100
▁uas 100
IFDIR 100
COMPUTE 100
members 100
▁retain 100
▁passing 100
subvendor 100
Ass 100
^^^^ 100
▁NOP 100
▁sfb 100
scmnd 100
BLOCKED 100
backref 100
Descriptor 100
switcheroo 100
60) 100
Brief 100
aspace 100
unhashed 100
▁EXPRESS 100
▁flushed 100
▁ox 100
00>; 100
4030 100
7796 100
clksrc 100
msgbuf 100
BINDINGS 100
companion 100
CIR 100
adp 100
elp 100
▁pby 100
skdev 100
▁HWCAP 100
PGTABLE 100
maxbytes 100
recursion 100
PowerLevel 100
measurement 100
▁relocation 100
ppt 100
sbh 100
ecmd 100
flips 100
▁bufsz 100
REPORTS 100
▁governor 100
rcg 100
(20); 100
ATTRS 100
FINAL 100
▁important 100
usp 100
▁MSP 100
▁ant 100
▁uvd 100
BOOST 100
mpriv 100
▁PACA 100
▁rela 100
▁delivery 100
▁hugepage 100
SVE 100
_7, 100
Gain 100
VECS 100
pret 100
▁DRBD 100
▁crop 100
RBBM 100
▁65536 100
▁deleg 100
STARTED 100
▁mistake 100
▁building 100
BriefDescription 100
_570 100
▁hdcp 100
libcfs 100
Initial 100
agcount 100
working 100
▁outlen 100
unexpected 100
_) 100
50: 100
632 100
lov 100
▁inw 100
igation 100
gclk 100
▁!__ 100
▁rets 100
▁vlen 100
▁clkdm 100
Antenna 100
▁outstanding 100
ensor 100
▁NAME 100
errata 100
fpregs 100
▁looking 100
videomode 100
intx 100
▁115 100
geneve 100
2,0 100
0"); 100
Dest 100
LEAF 100
▁5)) 100
MLXSW 100
ocopy 100
▁dont 100
▁nelems 100
▁operand 100
UNDEFINED 100
="$ 100
Wait 100
cryp 100
Valid 100
▁inti 100
▁admin 100
▁felix 100
hwaccel 100
▁1- 100
pSMB 100
SIBLE 100
dwell 100
CPM 100
UTR 100
3288_ 100
▁CMOS 100
▁FLEX 100
feedback 100
▁resolve 100
▁Revision 100
(-1, 100
alts 100
driv 100
monc 100
▁ocr 100
6390_ 100
▁ADAU 100
▁EEP 100
▁gro 100
etdev 100
ncrypt 100
565 100
PUD 100
syncpt 100
▁allOf 100
allenge 100
ENCRYPTION 100
▁timekeeping 100
00- 100
▁2.0 100
▁sad 100
USPEND 100
suffix 100
HUGEPAGE 100
pageblock 100
40( 100
43, 100
▁aren 100
▁ARPHRD 100
VCS 100
▁<13 100
rategy 100
bustype 100
▁records 100
orizontal 100
▁Transmit 100
813 100
RDR 100
ntr 100
mpmu 100
ract 100
▁CTA 100
nexus 100
▁translate 100
idp 100
▁corgi 100
▁kstrtoul 100
PSP 100
gds 100
▁verdict 100
▁<9 100
▁TT 100
_10, 100
cmci 100
repl 100
▁Xen 100
CRDMA 100
ribute 100
▁Texas 100
Transfer 100
▁statement 100
)- 100
VQ 100
PDP 100
nvt 100
1010 100
▁22) 100
8960_ 100
▁OUTPUT 100
▁suffix 100
,_ 100
asi 100
Local 100
TRAMP 100
criteria 100
8)) 100
GOV 100
▁Rev 100
▁bip 100
fhandle 100
▁unlocked 100
YNQ 100
▁<- 100
JOIN 100
vddc 100
▁cpg 100
SEPAR 100
▁vmap 100
▁xlnx 100
startstop 100
TYP 100
DPHY 100
clid 100
▁psc 100
8695_ 100
SWING 100
logies 100
▁SIRFSOC 100
▁blocknr 100
primecell 100
▁Parameter 100
823 100
GDB 100
cmdr 100
licen 100
BILITY 100
UNINTERRUPTIBLE 100
RDS 100
"))) 100
cpts 100
▁rxm 100
▁codecs 100
332 100
▁nls 100
▁middle 100
encoders 100
conversion 100
turn 100
ATAPI 100
Radio 100
Rates 100
▁Target 100
▁CGU 100
▁~(( 100
Filter 100
LINKED 100
▁hooknum 100
draw 100
unip 100
▁wrq 100
police 100
▁blink 100
▁cudbg 100
▁SUNRPC 100
dvs 100
▁Hal 100
capab 100
NOFAIL 100
ybridge 100
▁Unknown 100
@7 100
balt 100
impl 100
ired 100
TInfo 100
▁fimd 100
▁DISPC 100
▁lstcon 100
▁variants 100
EVC 100
▁TW 100
9887_ 100
SVIDEO 100
dialog 100
NAVI 100
▁sli 100
SOUND 100
reful 100
▁Wake 100
STABLE 100
▁pcifunc 100
idc 100
outf 100
ITHER 100
filep 100
oldnew 100
itivity 100
▁couldn 100
IEW 100
mir 100
00( 100
ksig 100
HERAL 100
yield 100
REFCLK 100
▁FRAME 100
RETIRED 100
^\ 100
08( 100
▁BW 100
CACH 100
WIRE 100
chap 100
rail 100
vtap 100
▁FBC 100
mbase 100
▁200, 100
encaps 100
indices 100
▁CIFSSMB 100
scn 100
▁51 100
▁bench 100
▁SrcMem 100
mz 100
12", 100
oted 100
▁hmc 100
▁bfad 100
▁came 100
sdbrcm 100
▁optname 100
CTXT 100
▁ghes 100
▁TCPCB 100
933 100
rme 100
Ssid 100
5523_ 100
dcbnl 100
▁SONY 100
SUBMIT 100
INITIATOR 100
▁FF 100
autom 100
egacy 100
ATHEROS 100
workdir 100
▁CURSOR 100
killable 100
▁REISERFS 100
▁interror 100
hmm 100
[3]. 100
▁cnl 100
CFGCR 100
▁affs 100
▁EXTENDED 100
72, 100
PGID 100
▁ndw 100
STRAP 100
▁CCSR 100
andnot 100
▁periods 100
",\ 100
inj 100
ates 100
encl 100
▁STD 100
INTERLACED 100
▁components 100
=/ 100
mun 100
prt 100
WARM 100
ccdc 100
▁CCK 100
3= 100
▁̧­ 100
ppid 100
▁Act 100
▁HASH 100
gendev 100
notrace 100
quivalent 100
,}, 100
_2: 100
▁(64 100
FTYPE 100
iflag 100
MANUAL 100
▁exported 100
▁recommended 100
▁SDE 100
assem 100
▁dele 100
chroma 100
▁render 100
▁strncmp 100
▁CHA 100
OSSIP 100
serdev 100
rpt 100
▁spmi 100
consumers 100
▁characters 100
even 100
secid 100
▁stwr 100
▁errout 100
Ro 100
eqs 100
gbo 100
352_ 100
UTION 100
▁refcnt 100
ACP 100
clink 100
▁ddev 100
1000000 100
MODULES 100
matcher 100
▁strength 100
DPI 100
▁Adv 100
▁wii 100
PADCONF 100
gxbb 100
▁tmu 100
▁cost 100
tomoyo 100
avx 100
Hard 100
vbuf 100
▁CTR 100
ximity 100
▁caching 100
(19 100
kreg 100
▁pDM 100
▁tmr 100
onoff 100
fromio 100
nesting 100
▁average 100
▁Internal 100
vas 100
▁IMR 100
▁MIO 100
▁Back 100
▁Band 100
▁vmci 100
▁apicid 100
▁CONTEXT 100
▁Renesas 100
AFF 100
NCR 100
eop 100
LINX 100
▁uac 100
▁piix 100
minlen 100
SAN 100
coup 100
▁VDD 100
subst 100
▁rwsem 100
reading 100
▁taking 100
collision 100
▁pnetwork 100
RTA 100
_54 100
lio 100
▁%0 100
ISOR 100
MUSB 100
▁IPS 100
▁drx 100
000), 100
actly 100
separate 100
▁byPktType 100
IBA 100
cqs 100
▁je 100
[...]
