<unk>	0
<s>	0
</s>	0
▁␝	-0
st	-1
in	-2
re	-3
de	-4
▁=	-5
->	-6
);	-7
at	-8
er	-9
▁␍	-10
▁*	-11
▁i	-12
ct	-13
dev	-14
▁(	-15
se	-16
on	-17
le	-18
▁st	-19
ru	-20
▁c	-21
or	-22
▁re	-23
ruct	-24
▁␜	-25
ic	-26
▁s	-27
▁t	-28
▁if	-29
en	-30
▁p	-31
▁{	-32
▁in	-33
ma	-34
▁0	-35
▁␞	-36
it	-37
al	-38
lo	-39
ad	-40
▁␌	-41
ar	-42
id	-43
▁␎	-44
an	-45
▁f	-46
un	-47
▁&	-48
ne	-49
ge	-50
▁ret	-51
▁b	-52
me	-53
ck	-54
ur	-55
▁int	-56
si	-57
ch	-58
ro	-59
▁struct	-60
▁d	-61
▁v	-62
▁stat	-63
struct	-64
ri	-65
▁"	-66
▁}	-67
ode	-68
▁static	-69
set	-70
00	-71
▁m	-72
he	-73
pu	-74
of	-75
urn	-76
ate	-77
tr	-78
te	-79
la	-80
▁<	-81
us	-82
▁return	-83
▁n	-84
ata	-85
ER	-86
sk	-87
IN	-88
ze	-89
ce	-90
ing	-91
io	-92
lock	-93
))	-94
▁r	-95
▁a	-96
ue	-97
▁#	-98
mp	-99
dr	-100
RE	-101
▁e	-102
op	-103
▁w	-104
err	-105
▁u	-106
fi	-107
riv	-108
pa	-109
▁1	-110
",	-111
ice	-112
pe	-113
(&	-114
▁|	-115
li	-116
▁-	-117
ine	-118
co	-119
data	-120
con	-121
__	-122
oid	-123
bu	-124
is	-125
gs	-126
ble	-127
device	-128
ON	-129
MA	-130
up	-131
ve	-132
ot	-133
DE	-134
ir	-135
ion	-136
▁S	-137
ent	-138
▁h	-139
fs	-140
fo	-141
▁.	-142
def	-143
get	-144
32	-145
▁+	-146
int	-147
len	-148
map	-149
▁/	-150
EN	-151
▁P	-152
ss	-153
AT	-154
ort	-155
ol	-156
),	-157
▁the	-158
LL	-159
▁N	-160
▁*/	-161
▁C	-162
cl	-163
ame	-164
▁void	-165
able	-166
ut	-167
ap	-168
▁==	-169
ci	-170
▁(!	-171
▁I	-172
▁l	-173
xt	-174
ase	-175
and	-176
sig	-177
▁g	-178
ST	-179
sc	-180
▁con	-181
ed	-182
um	-183
size	-184
if	-185
▁A	-186
priv	-187
▁to	-188
ned	-189
▁/*	-190
nt	-191
to	-192
ul	-193
info	-194
▁un	-195
buf	-196
md	-197
▁dev	-198
addr	-199
▁__	-200
▁k	-201
reg	-202
TR	-203
ip	-204
▁0;	-205
ty	-206
▁err	-207
signed	-208
ite	-209
define	-210
▁for	-211
port	-212
▁si	-213
▁M	-214
am	-215
OR	-216
▁%	-217
cpu	-218
as	-219
ULL	-220
1_	-221
lags	-222
th	-223
il	-224
end	-225
▁!	-226
2_	-227
loc	-228
que	-229
IT	-230
page	-231
pro	-232
el	-233
rite	-234
▁D	-235
▁of	-236
mem	-237
▁ne	-238
LE	-239
res	-240
▁&&	-241
read	-242
0_	-243
SE	-244
▁size	-245
val	-246
ree	-247
init	-248
ID	-249
art	-250
▁o	-251
ter	-252
name	-253
nd	-254
▁>	-255
▁T	-256
SI	-257
▁NULL	-258
FI	-259
▁unsigned	-260
list	-261
AR	-262
state	-263
▁ch	-264
ow	-265
irq	-266
CE	-267
ti	-268
pi	-269
skb	-270
64	-271
try	-272
▁co	-273
▁B	-274
add	-275
mm	-276
ta	-277
mo	-278
for	-279
));	-280
ile	-281
US	-282
AD	-283
▁R	-284
pl	-285
ra	-286
IO	-287
("	-288
write	-289
rc	-290
5_	-291
▁2	-292
rt	-293
flags	-294
type	-295
▁ma	-296
unt	-297
AL	-298
di	-299
ph	-300
▁is	-301
AN	-302
ong	-303
▁G	-304
▁reg	-305
hw	-306
CH	-307
vm	-308
pt	-309
lin	-310
▁de	-311
▁0)	-312
ke	-313
stat	-314
▁0,	-315
put	-316
alloc	-317
AG	-318
ms	-319
ff	-320
all	-321
▁se	-322
rm	-323
req	-324
IS	-325
16	-326
es	-327
▁const	-328
▁!=	-329
ME	-330
▁sk	-331
clk	-332
ack	-333
CT	-334
ist	-335
02	-336
age	-337
ver	-338
--	-339
fset	-340
CI	-341
sy	-342
ERR	-343
so	-344
▁long	-345
▁||	-346
");	-347
▁x	-348
4_	-349
EL	-350
pdev	-351
REG	-352
▁th	-353
per	-354
out	-355
▁},	-356
et	-357
▁F	-358
ev	-359
code	-360
ach	-361
be	-362
free	-363
bit	-364
ret	-365
ub	-366
++	-367
sh	-368
LO	-369
▁E	-370
cp	-371
DEV	-372
ll	-373
0,	-374
queue	-375
lk	-376
▁en	-377
▁at	-378
pc	-379
fig	-380
bj	-381
ig	-382
po	-383
ctx	-384
dma	-385
tx	-386
nel	-387
ation	-388
rq	-389
mask	-390
rint	-391
ard	-392
0000	-393
ult	-394
wa	-395
node	-396
mode	-397
ops	-398
clu	-399
3_	-400
PE	-401
chan	-402
base	-403
par	-404
rent	-405
inode	-406
▁val	-407
▁el	-408
▁device	-409
RO	-410
buff	-411
net	-412
sp	-413
ction	-414
pio	-415
ONFI	-416
ONFIG	-417
ost	-418
▁be	-419
CO	-420
ux	-421
ZE	-422
bo	-423
UT	-424
form	-425
▁sizeof	-426
▁else	-427
CK	-428
der	-429
cmd	-430
UN	-431
usb	-432
clude	-433
rx	-434
ex	-435
▁on	-436
SIZE	-437
num	-438
INT	-439
▁};	-440
start	-441
▁<<	-442
▁drm	-443
FS	-444
ET	-445
▁((	-446
SK	-447
▁|=	-448
river	-449
>;	-450
▁H	-451
91	-452
ister	-453
pin	-454
▁set	-455
▁bo	-456
CL	-457
ans	-458
▁W	-459
▁net	-460
rl	-461
count	-462
include	-463
quest	-464
line	-465
6_	-466
dis	-467
ac	-468
low	-469
phy	-470
attr	-471
entry	-472
▁and	-473
dex	-474
MO	-475
▁q	-476
fa	-477
sb	-478
ring	-479
10	-480
▁case	-481
▁mem	-482
▁data	-483
link	-484
▁V	-485
no	-486
block	-487
file	-488
cs	-489
CA	-490
CP	-491
▁len	-492
obj	-493
desc	-494
ork	-495
1,	-496
adap	-497
▁bu	-498
ind	-499
ctrl	-500
▁char	-501
].	-502
ctor	-503
IF	-504
IC	-505
SS	-506
table	-507
pf	-508
▁cpu	-509
config	-510
▁pro	-511
dp	-512
▁rc	-513
▁+=	-514
SET	-515
MP	-516
nc	-517
offset	-518
yte	-519
rtc	-520
status	-521
▁wh	-522
▁skb	-523
bus	-524
];	-525
hand	-526
▁L	-527
DR	-528
void	-529
ERN	-530
time	-531
max	-532
key	-533
lay	-534
chip	-535
do	-536
mc	-537
IR	-538
tro	-539
one	-540
AB	-541
db	-542
IP	-543
event	-544
atch	-545
lx	-546
▁4	-547
▁ar	-548
fe	-549
▁:	-550
▁0);	-551
▁O	-552
sion	-553
802	-554
pci	-555
du	-556
11_	-557
▁*)	-558
ht	-559
sa	-560
FP	-561
sw	-562
000	-563
ress	-564
roup	-565
ix	-566
ute	-567
▁page	-568
FF	-569
ICE	-570
BU	-571
KERN	-572
UP	-573
▁rt	-574
print	-575
AGE	-576
ED	-577
ime	-578
MAX	-579
MASK	-580
rom	-581
adapter	-582
SH	-583
atform	-584
()	-585
▁not	-586
mit	-587
red	-588
mt	-589
enable	-590
urce	-591
buffer	-592
TY	-593
mple	-594
ath	-595
[0	-596
SP	-597
user	-598
inter	-599
date	-600
rea	-601
om	-602
ctl	-603
msg	-604
▁got	-605
▁pci	-606
move	-607
▁out	-608
▁bool	-609
STAT	-610
12	-611
NO	-612
ORT	-613
gpio	-614
ache	-615
cur	-616
▁sh	-617
DEVICE	-618
CM	-619
USB	-620
cf	-621
sub	-622
▁goto	-623
▁CONFIG	-624
EX	-625
ure	-626
log	-627
FL	-628
use	-629
";	-630
▁so	-631
da	-632
▁add	-633
pre	-634
unlock	-635
trans	-636
new	-637
▁snd	-638
▁intel	-639
▁pl	-640
CON	-641
register	-642
opt	-643
pm	-644
OL	-645
ive	-646
xx	-647
RA	-648
ser	-649
host	-650
ING	-651
▁io	-652
▁error	-653
ns	-654
work	-655
sg	-656
▁ext	-657
lient	-658
▁[	-659
ly	-660
group	-661
fun	-662
++)	-663
ower	-664
cess	-665
ep	-666
32_	-667
regs	-668
80211_	-669
IG	-670
gr	-671
▁3	-672
▁flags	-673
driver	-674
GP	-675
hdr	-676
VAL	-677
ry	-678
SC	-679
/*	-680
head	-681
bug	-682
index	-683
▁1;	-684
TYPE	-685
request	-686
old	-687
param	-688
wl	-689
ange	-690
▁ex	-691
ith	-692
TI	-693
915_	-694
SY	-695
dir	-696
ok	-697
mi	-698
qu	-699
▁mo	-700
mer	-701
},	-702
▁AR	-703
ext	-704
▁irq	-705
rate	-706
ee	-707
OP	-708
text	-709
▁PCI	-710
reate	-711
▁8	-712
▁list	-713
32(	-714
linux	-715
==	-716
ptr	-717
ABLE	-718
ds	-719
iled	-720
ytes	-721
▁_	-722
▁do	-723
client	-724
hy	-725
gpu	-726
▁al	-727
root	-728
(*	-729
▁status	-730
▁U	-731
----	-732
ps	-733
crtc	-734
cap	-735
utex	-736
trol	-737
▁new	-738
pend	-739
)->	-740
▁sy	-741
();	-742
▁dma	-743
ect	-744
has	-745
ity	-746
▁le	-747
▁sc	-748
unsigned	-749
▁per	-750
▁?	-751
▁get	-752
alse	-753
ted	-754
▁>>	-755
vcpu	-756
rame	-757
▁~	-758
▁mlx	-759
▁res	-760
PORT	-761
▁GFP	-762
rue	-763
UL	-764
IV	-765
CLK	-766
▁fa	-767
SO	-768
pages	-769
CR	-770
idx	-771
▁or	-772
che	-773
cache	-774
▁use	-775
ype	-776
handle	-777
ial	-778
▁false	-779
▁K	-780
main	-781
ts	-782
gth	-783
CTR	-784
mac	-785
▁ac	-786
own	-787
11	-788
▁>=	-789
▁max	-790
back	-791
▁offset	-792
reak	-793
load	-794
▁te	-795
dd	-796
▁spin	-797
(0	-798
[]	-799
rupt	-800
itch	-801
drv	-802
**	-803
KERNEL	-804
WR	-805
ream	-806
▁usb	-807
▁X	-808
ATA	-809
▁1,	-810
und	-811
2,	-812
▁true	-813
MODE	-814
SR	-815
▁j	-816
ader	-817
▁inline	-818
MI	-819
MEM	-820
com	-821
trfs	-822
cb	-823
ator	-824
40	-825
printf	-826
▁file	-827
comp	-828
▁num	-829
ENT	-830
TE	-831
vi	-832
opy	-833
dbg	-834
AP	-835
nr	-836
conne	-837
probe	-838
END	-839
CTRL	-840
▁platform	-841
▁break	-842
off	-843
▁inter	-844
cle	-845
▁with	-846
core	-847
],	-848
ag	-849
▁port	-850
FA	-851
BIT	-852
MAP	-853
os	-854
test	-855
ec	-856
8_	-857
▁as	-858
check	-859
bl	-860
00_	-861
PRO	-862
ment	-863
channel	-864
▁clk	-865
tri	-866
FO	-867
▁sup	-868
▁id	-869
4,	-870
▁inode	-871
card	-872
update	-873
hci	-874
TO	-875
▁pr	-876
fp	-877
cfg	-878
error	-879
▁this	-880
min	-881
▁@	-882
ref	-883
ca	-884
▁it	-885
ib	-886
act	-887
▁btrfs	-888
valid	-889
reset	-890
▁addr	-891
▁\	-892
▁me	-893
AS	-894
create	-895
FLAG	-896
fw	-897
TH	-898
tp	-899
TX	-900
cm	-901
▁1);	-902
▁write	-903
ud	-904
▁up	-905
not	-906
ENO	-907
cd	-908
▁comp	-909
LOCK	-910
debug	-911
ITE	-912
▁read	-913
BUG	-914
▁type	-915
header	-916
ault	-917
stream	-918
default	-919
ntry	-920
▁ip	-921
MB	-922
25	-923
▁priv	-924
INVAL	-925
lease	-926
disable	-927
((	-928
ATE	-929
vel	-930
omic	-931
timer	-932
src	-933
ill	-934
fl	-935
func	-936
value	-937
▁ev	-938
eee	-939
▁while	-940
im	-941
sys	-942
clock	-943
wr	-944
▁mt	-945
▁$	-946
codec	-947
tra	-948
HY	-949
▁mode	-950
▁<&	-951
▁value	-952
▁nv	-953
ernel	-954
fd	-955
sd	-956
▁we	-957
ane	-958
)))	-959
▁an	-960
DMA	-961
▁kvm	-962
DU	-963
▁clock	-964
▁buf	-965
str	-966
bits	-967
BA	-968
▁USB	-969
spe	-970
READ	-971
fb	-972
▁kfree	-973
ware	-974
next	-975
sync	-976
last	-977
mmu	-978
20	-979
▁op	-980
parent	-981
MC	-982
freq	-983
path	-984
ore	-985
control	-986
context	-987
▁from	-988
OUT	-989
soc	-990
private	-991
▁start	-992
▁&=	-993
ART	-994
bd	-995
wait	-996
]);	-997
lot	-998
▁cur	-999
ource	-1000
PF	-1001
CONFIG	-1002
▁cmd	-1003
VER	-1004
▁map	-1005
sta	-1006
arg	-1007
params	-1008
▁phy	-1009
em	-1010
CTL	-1011
▁xfs	-1012
ping	-1013
ba	-1014
br	-1015
▁print	-1016
QU	-1017
ched	-1018
▁'	-1019
bytes	-1020
LA	-1021
sup	-1022
08	-1023
power	-1024
ild	-1025
▁count	-1026
mdgpu	-1027
call	-1028
seq	-1029
gen	-1030
28	-1031
100	-1032
local	-1033
▁end	-1034
▁sw	-1035
RX	-1036
bp	-1037
ory	-1038
▁5	-1039
▁par	-1040
ely	-1041
pol	-1042
▁devm	-1043
▁bit	-1044
resource	-1045
▁"%	-1046
RM	-1047
pipe	-1048
EY	-1049
bio	-1050
lik	-1051
cket	-1052
ulator	-1053
wm	-1054
likely	-1055
MS	-1056
task	-1057
▁that	-1058
each	-1059
const	-1060
OW	-1061
ern	-1062
3,	-1063
ify	-1064
cc	-1065
15	-1066
pace	-1067
▁ta	-1068
ust	-1069
dst	-1070
IFT	-1071
▁enum	-1072
spi	-1073
ler	-1074
object	-1075
SHIFT	-1076
PER	-1077
sn	-1078
frame	-1079
remove	-1080
OFF	-1081
UR	-1082
24	-1083
pg	-1084
▁time	-1085
blk	-1086
DEBUG	-1087
▁ath	-1088
88	-1089
rec	-1090
dule	-1091
▁by	-1092
PCI	-1093
6,	-1094
▁info	-1095
▁state	-1096
stats	-1097
ink	-1098
PC	-1099
ush	-1100
dt	-1101
AC	-1102
ord	-1103
▁EX	-1104
send	-1105
lan	-1106
DATA	-1107
pos	-1108
endif	-1109
arget	-1110
▁can	-1111
EINVAL	-1112
comm	-1113
xff	-1114
cnt	-1115
ain	-1116
fn	-1117
7_	-1118
mb	-1119
mal	-1120
led	-1121
GE	-1122
ifi	-1123
ave	-1124
sel	-1125
▁iwl	-1126
▁PAGE	-1127
va	-1128
64_	-1129
CF	-1130
pd	-1131
lag	-1132
match	-1133
ber	-1134
MD	-1135
adev	-1136
▁init	-1137
tel	-1138
[1	-1139
▁1)	-1140
setup	-1141
INFO	-1142
ati	-1143
conn	-1144
RQ	-1145
LIN	-1146
ster	-1147
[0]	-1148
▁ieee	-1149
domain	-1150
cpy	-1151
ded	-1152
▁wa	-1153
CAP	-1154
++;	-1155
atible	-1156
CMD	-1157
ght	-1158
13	-1159
▁z	-1160
tt	-1161
▁gpio	-1162
ey	-1163
heck	-1164
hash	-1165
▁seq	-1166
▁The	-1167
range	-1168
▁no	-1169
pte	-1170
UM	-1171
▁tx	-1172
▁driver	-1173
▁rx	-1174
▁tmp	-1175
ND	-1176
IRQ	-1177
ION	-1178
ance	-1179
▁di	-1180
enc	-1181
irt	-1182
uld	-1183
▁Re	-1184
▁ad	-1185
bi	-1186
sm	-1187
▁hand	-1188
lp	-1189
=%	-1190
VM	-1191
▁req	-1192
▁mutex	-1193
▁amdgpu	-1194
medi	-1195
fc	-1196
PI	-1197
wid	-1198
PAGE	-1199
00,	-1200
ft	-1201
▁ra	-1202
ffer	-1203
▁pin	-1204
▁alloc	-1205
MU	-1206
store	-1207
address	-1208
18	-1209
arn	-1210
▁request	-1211
IL	-1212
WRITE	-1213
▁fun	-1214
▁IRQ	-1215
▁tra	-1216
▁are	-1217
▁config	-1218
eld	-1219
zalloc	-1220
hd	-1221
lect	-1222
lass	-1223
DI	-1224
GPIO	-1225
unlikely	-1226
PR	-1227
▁<0	-1228
▁block	-1229
ions	-1230
ATTR	-1231
▁free	-1232
release	-1233
MT	-1234
▁Th	-1235
▁vm	-1236
fer	-1237
▁interrupt	-1238
face	-1239
limit	-1240
level	-1241
▁GP	-1242
ated	-1243
cr	-1244
▁16	-1245
length	-1246
▁he	-1247
▁chan	-1248
coder	-1249
ARN	-1250
ADDR	-1251
drvdata	-1252
EXT	-1253
1;	-1254
np	-1255
DIS	-1256
run	-1257
sock	-1258
sizeof	-1259
▁dis	-1260
from	-1261
1)	-1262
intel	-1263
▁name	-1264
▁enable	-1265
80	-1266
▁hw	-1267
▁min	-1268
▁register	-1269
VE	-1270
▁REG	-1271
▁mm	-1272
LEN	-1273
tmp	-1274
▁nr	-1275
oc	-1276
▁<=	-1277
vma	-1278
pll	-1279
ull	-1280
ENABLE	-1281
PA	-1282
ume	-1283
nal	-1284
▁key	-1285
thread	-1286
arch	-1287
▁nfs	-1288
play	-1289
▁pre	-1290
▁fix	-1291
▁uint	-1292
▁extern	-1293
▁tr	-1294
vc	-1295
kt	-1296
MAC	-1297
dest	-1298
▁support	-1299
▁node	-1300
mod	-1301
unter	-1302
PIN	-1303
▁desc	-1304
gine	-1305
col	-1306
▁buffer	-1307
UG	-1308
qp	-1309
ULT	-1310
source	-1311
OC	-1312
mand	-1313
XX	-1314
====	-1315
)(	-1316
▁call	-1317
ings	-1318
▁memcpy	-1319
▁check	-1320
▁mask	-1321
▁lo	-1322
9_	-1323
flow	-1324
▁perf	-1325
▁address	-1326
IM	-1327
handler	-1328
CFG	-1329
tree	-1330
fx	-1331
space	-1332
rdev	-1333
dm	-1334
NA	-1335
▁spe	-1336
DULE	-1337
▁switch	-1338
ifdef	-1339
uc	-1340
sec	-1341
eth	-1342
OT	-1343
LK	-1344
▁obj	-1345
▁event	-1346
▁failed	-1347
PHY	-1348
open	-1349
runt	-1350
▁This	-1351
runtime	-1352
urb	-1353
)\	-1354
▁y	-1355
vol	-1356
CPU	-1357
pp	-1358
ence	-1359
sr	-1360
trace	-1361
LX	-1362
ah	-1363
plane	-1364
ses	-1365
ould	-1366
--------	-1367
DP	-1368
hdev	-1369
EV	-1370
▁has	-1371
NT	-1372
gem	-1373
tl	-1374
bh	-1375
input	-1376
▁acpi	-1377
▁index	-1378
▁pm	-1379
▁cle	-1380
active	-1381
STATUS	-1382
fix	-1383
76	-1384
find	-1385
PU	-1386
AND	-1387
BASE	-1388
5,	-1389
por	-1390
10_	-1391
pcm	-1392
▁gen	-1393
drm	-1394
ries	-1395
save	-1396
EE	-1397
SA	-1398
exit	-1399
▁PTR	-1400
▁lock	-1401
▁sub	-1402
INIT	-1403
RAY	-1404
1);	-1405
netdev	-1406
▁pa	-1407
rk	-1408
by	-1409
tf	-1410
ply	-1411
▁6	-1412
width	-1413
▁blk	-1414
dentry	-1415
igh	-1416
▁printk	-1417
ize	-1418
point	-1419
▁regulator	-1420
dc	-1421
fra	-1422
bute	-1423
connector	-1424
otal	-1425
BE	-1426
iter	-1427
ONE	-1428
ant	-1429
▁(*	-1430
▁task	-1431
▁ctx	-1432
▁RT	-1433
ryp	-1434
▁DRM	-1435
ript	-1436
mapping	-1437
▁omap	-1438
7,	-1439
div	-1440
action	-1441
platform	-1442
▁Q	-1443
WA	-1444
****	-1445
copy	-1446
ller	-1447
scan	-1448
In	-1449
▁code	-1450
VEND	-1451
▁function	-1452
temp	-1453
bs	-1454
LAN	-1455
▁po	-1456
mutex	-1457
DB	-1458
conf	-1459
▁netdev	-1460
04	-1461
GET	-1462
SW	-1463
0)	-1464
▁compatible	-1465
del	-1466
HE	-1467
VENDOR	-1468
CHAN	-1469
args	-1470
IGH	-1471
DEF	-1472
▁BIT	-1473
stop	-1474
delay	-1475
19	-1476
pool	-1477
gg	-1478
troller	-1479
▁base	-1480
▁entry	-1481
ray	-1482
version	-1483
86	-1484
▁old	-1485
RES	-1486
▁sock	-1487
▁default	-1488
tm	-1489
rs	-1490
unk	-1491
feat	-1492
atomic	-1493
ug	-1494
8,	-1495
▁ro	-1496
23	-1497
▁will	-1498
(!	-1499
CHE	-1500
warn	-1501
OFFSET	-1502
▁chip	-1503
current	-1504
oth	-1505
NE	-1506
ight	-1507
ha	-1508
pri	-1509
dw	-1510
▁fir	-1511
CS	-1512
cell	-1513
STATE	-1514
ound	-1515
inst	-1516
▁fi	-1517
proto	-1518
wq	-1519
▁pi	-1520
▁pos	-1521
ank	-1522
ide	-1523
rect	-1524
PO	-1525
TRA	-1526
dai	-1527
ifier	-1528
af	-1529
sing	-1530
rypto	-1531
DA	-1532
ures	-1533
clear	-1534
lave	-1535
ported	-1536
INTEL	-1537
slot	-1538
WL	-1539
oft	-1540
fil	-1541
▁rtl	-1542
▁Add	-1543
35	-1544
encoder	-1545
PUT	-1546
kernel	-1547
▁trace	-1548
tribute	-1549
format	-1550
char	-1551
idge	-1552
ALL	-1553
iv	-1554
89	-1555
tach	-1556
UE	-1557
okup	-1558
▁msg	-1559
▁ARRAY	-1560
▁work	-1561
ie	-1562
▁IO	-1563
FAULT	-1564
DO	-1565
RT	-1566
right	-1567
pcie	-1568
16_	-1569
engine	-1570
rst	-1571
▁sys	-1572
▁arg	-1573
vec	-1574
ENOMEM	-1575
timeout	-1576
REQ	-1577
comple	-1578
ren	-1579
▁ib	-1580
AM	-1581
▁test	-1582
flush	-1583
▁(!(	-1584
vb	-1585
01	-1586
IST	-1587
▁GPIO	-1588
phys	-1589
▁host	-1590
▁us	-1591
proc	-1592
▁opt	-1593
raw	-1594
▁ver	-1595
fin	-1596
perty	-1597
pr	-1598
vif	-1599
▁DMA	-1600
tail	-1601
uspend	-1602
▁**	-1603
DC	-1604
entries	-1605
used	-1606
ERROR	-1607
▁sd	-1608
gra	-1609
▁cf	-1610
aut	-1611
hi	-1612
pare	-1613
GEN	-1614
▁power	-1615
▁trans	-1616
sched	-1617
ACT	-1618
kvm	-1619
target	-1620
LOW	-1621
PM	-1622
▁MLX	-1623
▁next	-1624
▁ST	-1625
▁link	-1626
PL	-1627
▁current	-1628
icy	-1629
▁In	-1630
ift	-1631
roy	-1632
lab	-1633
stem	-1634
class	-1635
▁bio	-1636
BO	-1637
CPI	-1638
nl	-1639
▁result	-1640
86_	-1641
unmap	-1642
SD	-1643
85	-1644
("%	-1645
77	-1646
▁spi	-1647
packet	-1648
NC	-1649
▁all	-1650
SOC	-1651
xa	-1652
NULL	-1653
EC	-1654
eration	-1655
▁-=	-1656
▁32	-1657
mvm	-1658
field	-1659
BUS	-1660
TIME	-1661
sum	-1662
▁ser	-1663
▁atomic	-1664
_2	-1665
▁dw	-1666
▁module	-1667
ams	-1668
▁fs	-1669
KEY	-1670
seg	-1671
▁input	-1672
ron	-1673
▁memory	-1674
counter	-1675
FT	-1676
NAME	-1677
MIC	-1678
Re	-1679
▁bus	-1680
▁sg	-1681
▁define	-1682
pfn	-1683
cted	-1684
30	-1685
▁when	-1686
change	-1687
▁MO	-1688
ram	-1689
PT	-1690
▁(1	-1691
▁queue	-1692
dap	-1693
SUP	-1694
names	-1695
tc	-1696
hs	-1697
(1	-1698
SU	-1699
▁AT	-1700
ich	-1701
man	-1702
▁memset	-1703
filter	-1704
▁bpf	-1705
000000	-1706
915	-1707
▁dst	-1708
HW	-1709
▁Fix	-1710
nic	-1711
▁sa	-1712
>,	-1713
spec	-1714
MSG	-1715
▁reset	-1716
▁path	-1717
ld	-1718
56	-1719
down	-1720
▁remove	-1721
enabled	-1722
LINK	-1723
ped	-1724
▁{0	-1725
▁str	-1726
restore	-1727
PRE	-1728
flag	-1729
parse	-1730
fmt	-1731
▁pipe	-1732
_1	-1733
tag	-1734
▁fl	-1735
master	-1736
▁handle	-1737
▁XFS	-1738
FOR	-1739
snd	-1740
cells	-1741
SYS	-1742
regmap	-1743
eric	-1744
cq	-1745
PTR	-1746
CB	-1747
rypt	-1748
interrupt	-1749
▁CPU	-1750
ab	-1751
aud	-1752
nv	-1753
PS	-1754
MM	-1755
UNT	-1756
sbi	-1757
[2	-1758
ther	-1759
▁rcu	-1760
process	-1761
▁need	-1762
ual	-1763
50	-1764
asm	-1765
ign	-1766
ero	-1767
▁kzalloc	-1768
sector	-1769
▁src	-1770
var	-1771
URE	-1772
ia	-1773
common	-1774
▁channel	-1775
▁user	-1776
EVENT	-1777
ES	-1778
ved	-1779
▁bytes	-1780
▁have	-1781
▁kernel	-1782
ency	-1783
ition	-1784
rop	-1785
disk	-1786
▁BPF	-1787
dump	-1788
FE	-1789
malloc	-1790
uid	-1791
done	-1792
COMP	-1793
mux	-1794
anup	-1795
▁only	-1796
dep	-1797
▁MAX	-1798
▁7	-1799
pdata	-1800
jo	-1801
CONTR	-1802
sed	-1803
[1]	-1804
sz	-1805
vf	-1806
qui	-1807
lookup	-1808
14	-1809
▁length	-1810
arm	-1811
prog	-1812
mdev	-1813
IB	-1814
▁2,	-1815
▁ti	-1816
▁pg	-1817
00000	-1818
pkt	-1819
:%	-1820
16(	-1821
PAR	-1822
39	-1823
mx	-1824
▁last	-1825
▁SND	-1826
tun	-1827
destroy	-1828
▁If	-1829
RESET	-1830
virt	-1831
extent	-1832
▁mlxsw	-1833
reser	-1834
blocks	-1835
xxx	-1836
(__	-1837
INE	-1838
▁idx	-1839
SION	-1840
box	-1841
▁tcp	-1842
leep	-1843
byte	-1844
rd	-1845
property	-1846
lper	-1847
▁update	-1848
resp	-1849
wake	-1850
MAT	-1851
▁temp	-1852
output	-1853
NET	-1854
au	-1855
EEE	-1856
MBOL	-1857
display	-1858
fies	-1859
$(	-1860
SYNC	-1861
▁used	-1862
▁wait	-1863
failed	-1864
deon	-1865
▁debug	-1866
0);	-1867
result	-1868
CODE	-1869
HIGH	-1870
ssage	-1871
27	-1872
▁crypto	-1873
prepare	-1874
lob	-1875
SYMBOL	-1876
pending	-1877
tin	-1878
▁retval	-1879
LED	-1880
zone	-1881
▁pte	-1882
NUM	-1883
CONTROL	-1884
▁dc	-1885
bridge	-1886
URCE	-1887
▁9	-1888
ast	-1889
▁dentry	-1890
mmc	-1891
IVE	-1892
▁ap	-1893
poll	-1894
_8	-1895
▁KEY	-1896
▁adapter	-1897
▁BUG	-1898
2)	-1899
SOURCE	-1900
▁dr	-1901
region	-1902
.\	-1903
alc	-1904
tain	-1905
other	-1906
OWER	-1907
▁ARM	-1908
▁MT	-1909
▁comedi	-1910
unregister	-1911
rcm	-1912
▁off	-1913
mpty	-1914
▁IP	-1915
ids	-1916
CC	-1917
"),	-1918
caps	-1919
ARD	-1920
FLAGS	-1921
▁regmap	-1922
ync	-1923
scsi	-1924
EP	-1925
boot	-1926
vert	-1927
DESC	-1928
mark	-1929
bind	-1930
ical	-1931
board	-1932
▁MODULE	-1933
xp	-1934
DMI	-1935
▁fw	-1936
GA	-1937
▁scsi	-1938
ick	-1939
▁sig	-1940
mount	-1941
tty	-1942
MIN	-1943
WARN	-1944
iffies	-1945
vlan	-1946
USE	-1947
;/*	-1948
xf	-1949
▁mmc	-1950
▁ce	-1951
ioctl	-1952
fore	-1953
▁ring	-1954
uart	-1955
acket	-1956
frag	-1957
ting	-1958
can	-1959
17	-1960
▁select	-1961
mis	-1962
child	-1963
sent	-1964
slave	-1965
gger	-1966
rence	-1967
lib	-1968
array	-1969
module	-1970
ass	-1971
▁rate	-1972
ies	-1973
▁EXPORT	-1974
SB	-1975
nsor	-1976
▁ssize	-1977
printk	-1978
VI	-1979
mic	-1980
▁number	-1981
vt	-1982
▁should	-1983
ary	-1984
SPI	-1985
QUE	-1986
LOG	-1987
ference	-1988
ax	-1989
part	-1990
mr	-1991
▁FI	-1992
LAY	-1993
string	-1994
▁mac	-1995
BLOCK	-1996
memory	-1997
▁fail	-1998
▁$(	-1999
PD	-2000
EM	-2001
83	-2002
vide	-2003
pid	-2004
▁table	-2005
▁log	-2006
policy	-2007
LEV	-2008
0;	-2009
iod	-2010
▁put	-2011
__,	-2012
▁clear	-2013
ond	-2014
▁which	-2015
TRACE	-2016
..	-2017
fence	-2018
START	-2019
▁wr	-2020
idle	-2021
▁2;	-2022
fault	-2023
first	-2024
▁inst	-2025
▁local	-2026
CESS	-2027
suspend	-2028
chain	-2029
▁first	-2030
mlx	-2031
switch	-2032
vl	-2033
▁copy	-2034
stri	-2035
60	-2036
▁cfg	-2037
UX	-2038
ead	-2039
LC	-2040
ELD	-2041
notify	-2042
LEVEL	-2043
▁act	-2044
AUT	-2045
2.	-2046
hdmi	-2047
▁pinctrl	-2048
hcd	-2049
over	-2050
▁IWL	-2051
lace	-2052
ailed	-2053
mgr	-2054
▁dm	-2055
▁CLK	-2056
COUNT	-2057
hba	-2058
gram	-2059
65	-2060
cept	-2061
▁com	-2062
pad	-2063
▁resource	-2064
atter	-2065
▁bn	-2066
RC	-2067
▁wl	-2068
FUN	-2069
attrs	-2070
api	-2071
ert	-2072
late	-2073
SEL	-2074
ele	-2075
od	-2076
DM	-2077
speed	-2078
lic	-2079
ERT	-2080
_4	-2081
CACHE	-2082
ASS	-2083
HA	-2084
▁nl	-2085
RATE	-2086
interface	-2087
item	-2088
access	-2089
resume	-2090
▁disable	-2091
▁0),	-2092
▁64	-2093
OF	-2094
▁virt	-2095
▁depend	-2096
rr	-2097
attach	-2098
▁dir	-2099
return	-2100
rule	-2101
pins	-2102
▁nf	-2103
▁gfp	-2104
tbl	-2105
cg	-2106
ou	-2107
gt	-2108
▁sn	-2109
▁cx	-2110
connect	-2111
▁but	-2112
UD	-2113
ports	-2114
rcu	-2115
onent	-2116
▁rq	-2117
fifo	-2118
▁ci	-2119
ale	-2120
resh	-2121
xffff	-2122
HEAD	-2123
▁--	-2124
bt	-2125
word	-2126
OK	-2127
▁frame	-2128
▁OMAP	-2129
▁change	-2130
DIR	-2131
STR	-2132
sha	-2133
200	-2134
])	-2135
ell	-2136
▁af	-2137
remap	-2138
bitmap	-2139
▁ca	-2140
TRY	-2141
hz	-2142
FW	-2143
87	-2144
pan	-2145
▁nla	-2146
features	-2147
capa	-2148
shift	-2149
msi	-2150
PAD	-2151
▁fe	-2152
ally	-2153
dl	-2154
iommu	-2155
PAT	-2156
▁vcpu	-2157
▁regs	-2158
PLL	-2159
▁mv	-2160
stack	-2161
lose	-2162
rive	-2163
▁interrupts	-2164
pfc	-2165
CTION	-2166
33	-2167
IGN	-2168
(0,	-2169
attribute	-2170
▁depends	-2171
▁version	-2172
dec	-2173
STA	-2174
55	-2175
ARE	-2176
dirty	-2177
acpi	-2178
▁root	-2179
fill	-2180
command	-2181
▁md	-2182
▁vma	-2183
▁WARN	-2184
▁(%	-2185
cmp	-2186
insn	-2187
▁{"	-2188
POWER	-2189
BUF	-2190
ipc	-2191
pmu	-2192
▁find	-2193
av	-2194
session	-2195
).	-2196
43_	-2197
ers	-2198
long	-2199
▁core	-2200
NOT	-2201
DRV	-2202
XG	-2203
xmit	-2204
9,	-2205
ument	-2206
▁Con	-2207
bss	-2208
▁line	-2209
BY	-2210
ctxt	-2211
▁ACPI	-2212
▁ceph	-2213
show	-2214
ceive	-2215
▁any	-2216
MX	-2217
ctp	-2218
▁defined	-2219
RD	-2220
stamp	-2221
uest	-2222
▁writel	-2223
way	-2224
chunk	-2225
empty	-2226
▁iio	-2227
ay	-2228
▁hdr	-2229
▁head	-2230
▁radeon	-2231
ANY	-2232
mon	-2233
TER	-2234
▁/**	-2235
03	-2236
ialize	-2237
▁cl	-2238
▁comm	-2239
events	-2240
▁br	-2241
OST	-2242
tb	-2243
▁IEEE	-2244
ITY	-2245
▁target	-2246
▁args	-2247
CNT	-2248
▁tty	-2249
ETH	-2250
RESOURCE	-2251
▁speci	-2252
▁create	-2253
irk	-2254
▁cache	-2255
▁2)	-2256
ense	-2257
writel	-2258
dent	-2259
alk	-2260
ndev	-2261
cfs	-2262
Failed	-2263
▁attr	-2264
serial	-2265
BR	-2266
ready	-2267
========	-2268
HCI	-2269
owner	-2270
tinue	-2271
▁CH	-2272
2);	-2273
pwm	-2274
▁CO	-2275
21	-2276
TIM	-2277
mu	-2278
0000000	-2279
tcp	-2280
firm	-2281
helper	-2282
▁bits	-2283
▁pol	-2284
devices	-2285
▁one	-2286
complete	-2287
▁control	-2288
1000_	-2289
controller	-2290
VERSION	-2291
ino	-2292
label	-2293
exec	-2294
ily	-2295
DBG	-2296
evice	-2297
TRFS	-2298
ho	-2299
rb	-2300
sample	-2301
VB	-2302
my	-2303
▁4,	-2304
▁//	-2305
channels	-2306
sym	-2307
SG	-2308
prev	-2309
▁range	-2310
▁rec	-2311
mote	-2312
tect	-2313
row	-2314
single	-2315
▁header	-2316
pmd	-2317
▁rtw	-2318
perf	-2319
VID	-2320
validate	-2321
rf	-2322
▁packet	-2323
▁tri	-2324
▁parent	-2325
nable	-2326
substream	-2327
ORD	-2328
COM	-2329
rw	-2330
total	-2331
dsi	-2332
audio	-2333
IVER	-2334
bc	-2335
▁crtc	-2336
34	-2337
system	-2338
ront	-2339
mq	-2340
ioc	-2341
xc	-2342
OWN	-2343
area	-2344
tage	-2345
sign	-2346
cover	-2347
gic	-2348
mage	-2349
▁ctrl	-2350
TL	-2351
▁SD	-2352
▁ERR	-2353
▁IN	-2354
vs	-2355
▁tegra	-2356
report	-2357
▁-1;	-2358
ciph	-2359
HAS	-2360
********	-2361
grp	-2362
riptor	-2363
▁contain	-2364
gb	-2365
wi	-2366
async	-2367
▁phys	-2368
▁imx	-2369
tion	-2370
▁AD	-2371
▁PHY	-2372
▁conne	-2373
ADD	-2374
funcs	-2375
uration	-2376
omap	-2377
irqrestore	-2378
▁over	-2379
prot	-2380
otg	-2381
▁NET	-2382
1:	-2383
sas	-2384
ump	-2385
▁continue	-2386
bdev	-2387
84	-2388
SEC	-2389
mmio	-2390
cleanup	-2391
▁hci	-2392
96	-2393
cipher	-2394
[0].	-2395
recv	-2396
subdev	-2397
▁timeout	-2398
km	-2399
▁sched	-2400
▁mod	-2401
apic	-2402
aging	-2403
1>;	-2404
44	-2405
##	-2406
dapm	-2407
MOD	-2408
amily	-2409
ery	-2410
NR	-2411
iov	-2412
tim	-2413
mat	-2414
USER	-2415
gp	-2416
▁context	-2417
ken	-2418
▁PIN	-2419
▁level	-2420
▁brcm	-2421
▁ata	-2422
tfm	-2423
▁kmalloc	-2424
VD	-2425
alg	-2426
8(	-2427
ONCE	-2428
▁card	-2429
chine	-2430
icense	-2431
▁command	-2432
▁MX	-2433
▁pt	-2434
lable	-2435
▁low	-2436
2;	-2437
tv	-2438
▁KVM	-2439
TA	-2440
▁tp	-2441
91_	-2442
tlb	-2443
▁ab	-2444
MODULE	-2445
sible	-2446
prom	-2447
iomem	-2448
nos	-2449
cgroup	-2450
▁slot	-2451
sl	-2452
ak	-2453
FEAT	-2454
92	-2455
▁pages	-2456
▁arch	-2457
▁vol	-2458
90	-2459
intr	-2460
ACTIVE	-2461
[3	-2462
uency	-2463
DEFAULT	-2464
vector	-2465
lobal	-2466
▁must	-2467
▁clocks	-2468
30_	-2469
SM	-2470
vid	-2471
▁prev	-2472
GRO	-2473
light	-2474
▁"\	-2475
----------------	-2476
we	-2477
regulator	-2478
//	-2479
▁DEF	-2480
▁found	-2481
4)	-2482
sor	-2483
ynos	-2484
▁8)	-2485
UND	-2486
ning	-2487
sq	-2488
FC	-2489
gc	-2490
order	-2491
▁ht	-2492
vai	-2493
▁timer	-2494
▁var	-2495
trigger	-2496
cdev	-2497
yload	-2498
GIC	-2499
TC	-2500
force	-2501
mtd	-2502
_3	-2503
callback	-2504
▁ep	-2505
Page	-2506
disc	-2507
TRAN	-2508
intf	-2509
▁arm	-2510
notifier	-2511
adv	-2512
▁group	-2513
iz	-2514
rection	-2515
vd	-2516
▁other	-2517
gin	-2518
▁",	-2519
▁eth	-2520
▁cal	-2521
▁back	-2522
▁gfs	-2523
TION	-2524
NEL	-2525
SPE	-2526
tool	-2527
video	-2528
▁match	-2529
hp	-2530
supported	-2531
▁ETH	-2532
KE	-2533
▁total	-2534
signal	-2535
▁reser	-2536
vailable	-2537
pix	-2538
ule	-2539
sensor	-2540
component	-2541
▁wm	-2542
mnt	-2543
uve	-2544
urnal	-2545
direct	-2546
▁order	-2547
function	-2548
bpf	-2549
uveau	-2550
▁part	-2551
sem	-2552
▁EXT	-2553
resources	-2554
42	-2555
1000	-2556
imx	-2557
rev	-2558
ameter	-2559
xFF	-2560
NONE	-2561
igned	-2562
iphy	-2563
lash	-2564
▁!(	-2565
▁thread	-2566
TABLE	-2567
inc	-2568
ipv	-2569
GPL	-2570
mg	-2571
FILE	-2572
irqsave	-2573
options	-2574
LINE	-2575
▁VM	-2576
▁params	-2577
▁++	-2578
TS	-2579
▁comple	-2580
rpc	-2581
ugh	-2582
64(	-2583
oC	-2584
debugfs	-2585
uge	-2586
top	-2587
firmware	-2588
▁hd	-2589
ten	-2590
oftware	-2591
▁fil	-2592
▁em	-2593
zero	-2594
▁..	-2595
SER	-2596
64)	-2597
▁inet	-2598
▁may	-2599
SIG	-2600
▁make	-2601
sted	-2602
ENODEV	-2603
safe	-2604
kzalloc	-2605
▁setup	-2606
endpoint	-2607
▁RX	-2608
▁flush	-2609
▁rpc	-2610
bil	-2611
cpus	-2612
36	-2613
ga	-2614
ardware	-2615
DIV	-2616
BT	-2617
00000000	-2618
RST	-2619
▁after	-2620
800	-2621
sleep	-2622
commit	-2623
▁IORESOURCE	-2624
pca	-2625
band	-2626
▁before	-2627
▁IB	-2628
▁board	-2629
%08	-2630
sert	-2631
▁nvkm	-2632
ai	-2633
▁send	-2634
cond	-2635
bg	-2636
FIELD	-2637
"},	-2638
(_	-2639
instance	-2640
bar	-2641
15_	-2642
SL	-2643
GR	-2644
WM	-2645
▁sprintf	-2646
OMIC	-2647
wdt	-2648
▁staging	-2649
▁nvme	-2650
IRK	-2651
▁freq	-2652
enum	-2653
self	-2654
▁ass	-2655
CORE	-2656
PP	-2657
▁4;	-2658
▁li	-2659
NL	-2660
▁aud	-2661
operation	-2662
okie	-2663
ner	-2664
ling	-2665
mmap	-2666
▁sp	-2667
its	-2668
dog	-2669
75	-2670
SRC	-2671
ffff	-2672
just	-2673
nor	-2674
fh	-2675
▁process	-2676
8)	-2677
rdma	-2678
▁J	-2679
ating	-2680
▁*,	-2681
▁here	-2682
▁pri	-2683
▁AL	-2684
▁sctp	-2685
drive	-2686
iocb	-2687
mbol	-2688
▁ref	-2689
▁you	-2690
▁pointer	-2691
yn	-2692
(%	-2693
▁cp	-2694
IA	-2695
front	-2696
LD	-2697
-$(	-2698
INPUT	-2699
ace	-2700
dio	-2701
XGBE	-2702
▁fb	-2703
▁Copy	-2704
ISC	-2705
▁mis	-2706
QUIRK	-2707
sdev	-2708
readl	-2709
▁GEN	-2710
align	-2711
▁interface	-2712
txq	-2713
▁bcm	-2714
ARM	-2715
adc	-2716
▁Remove	-2717
sdata	-2718
▁NL	-2719
locked	-2720
plug	-2721
▁0))	-2722
select	-2723
bios	-2724
▁4)	-2725
ics	-2726
▁NV	-2727
ties	-2728
▁IS	-2729
high	-2730
▁Set	-2731
RING	-2732
mtu	-2733
▁run	-2734
nf	-2735
▁We	-2736
▁ptr	-2737
queues	-2738
UART	-2739
▁serial	-2740
▁qu	-2741
pack	-2742
▁TX	-2743
▁more	-2744
CAL	-2745
MUX	-2746
47	-2747
QUEUE	-2748
uple	-2749
enter	-2750
transfer	-2751
nfs	-2752
close	-2753
perties	-2754
▁valid	-2755
GROUP	-2756
▁3,	-2757
▁2);	-2758
aux	-2759
eral	-2760
ssi	-2761
leg	-2762
lots	-2763
ACK	-2764
arly	-2765
2:	-2766
pen	-2767
▁brcmf	-2768
protocol	-2769
else	-2770
1.	-2771
▁pdata	-2772
ideo	-2773
AIN	-2774
tings	-2775
generic	-2776
supply	-2777
26	-2778
rp	-2779
▁hash	-2780
20_	-2781
GFP	-2782
INTER	-2783
mult	-2784
micro	-2785
rcv	-2786
rsp	-2787
mware	-2788
▁option	-2789
▁ID	-2790
ents	-2791
acy	-2792
MATCH	-2793
place	-2794
LOAD	-2795
▁cifs	-2796
lu	-2797
▁mapping	-2798
▁controller	-2799
▁SN	-2800
gid	-2801
32)	-2802
eq	-2803
07	-2804
[2]	-2805
2(	-2806
build	-2807
NU	-2808
▁release	-2809
▁access	-2810
bank	-2811
DOWN	-2812
org	-2813
3)	-2814
DISABLE	-2815
mlxsw	-2816
FR	-2817
ENABLED	-2818
BITS	-2819
hc	-2820
endor	-2821
▁flow	-2822
orig	-2823
APM	-2824
xg	-2825
ummy	-2826
ative	-2827
▁pdev	-2828
ENTRY	-2829
TIMER	-2830
▁some	-2831
▁raw	-2832
oo	-2833
▁mtd	-2834
▁AC	-2835
▁now	-2836
rag	-2837
FIX	-2838
media	-2839
son	-2840
compatible	-2841
▁don	-2842
CTOR	-2843
post	-2844
atchdog	-2845
WAIT	-2846
▁SY	-2847
height	-2848
]=	-2849
BI	-2850
(1,	-2851
ARCH	-2852
submit	-2853
▁BT	-2854
server	-2855
▁DP	-2856
CONF	-2857
MAR	-2858
▁lpfc	-2859
ls	-2860
▁<1>;	-2861
▁dest	-2862
▁into	-2863
reserve	-2864
SUB	-2865
this	-2866
▁sysfs	-2867
csi	-2868
spin	-2869
▁then	-2870
nid	-2871
LY	-2872
indio	-2873
period	-2874
▁De	-2875
uint	-2876
▁does	-2877
▁aut	-2878
▁Use	-2879
▁Copyright	-2880
▁TH	-2881
IOC	-2882
0:	-2883
▁done	-2884
ATOMIC	-2885
())	-2886
Info	-2887
▁cs	-2888
ycle	-2889
lip	-2890
ature	-2891
ORK	-2892
▁cap	-2893
Set	-2894
▁del	-2895
vdev	-2896
St	-2897
uch	-2898
RESS	-2899
ways	-2900
▁ocfs	-2901
[0];	-2902
▁SOC	-2903
BUSY	-2904
full	-2905
bin	-2906
▁DEFINE	-2907
acon	-2908
RAM	-2909
lf	-2910
query	-2911
▁HID	-2912
cn	-2913
▁MA	-2914
SOR	-2915
▁nouveau	-2916
▁snprintf	-2917
▁(0	-2918
RAN	-2919
ments	-2920
eded	-2921
▁hid	-2922
number	-2923
▁ops	-2924
BG	-2925
clks	-2926
gspca	-2927
PH	-2928
DAPM	-2929
▁exit	-2930
CD	-2931
▁WM	-2932
ication	-2933
▁DR	-2934
kobj	-2935
acl	-2936
lb	-2937
fail	-2938
ifn	-2939
▁tc	-2940
gate	-2941
▁IXGBE	-2942
▁non	-2943
▁smp	-2944
scall	-2945
msr	-2946
evsel	-2947
FMT	-2948
win	-2949
▁~(	-2950
ALIGN	-2951
▁enabled	-2952
EG	-2953
quirk	-2954
▁space	-2955
97	-2956
unit	-2957
irqs	-2958
▁limit	-2959
pwr	-2960
▁using	-2961
indow	-2962
▁sta	-2963
ung	-2964
▁short	-2965
▁UART	-2966
BYTE	-2967
▁RC	-2968
▁rb	-2969
▁load	-2970
super	-2971
PROTO	-2972
adio	-2973
▁cc	-2974
bf	-2975
jiffies	-2976
[0],	-2977
_5	-2978
BUFF	-2979
CALL	-2980
95	-2981
cred	-2982
▁dwc	-2983
swap	-2984
▁dvb	-2985
DT	-2986
▁hi	-2987
▁BTRFS	-2988
▁102	-2989
iph	-2990
ription	-2991
gain	-2992
xfs	-2993
nand	-2994
FRA	-2995
LIST	-2996
PG	-2997
present	-2998
▁sector	-2999
▁def	-3000
soft	-3001
▁(__	-3002
▁RE	-3003
wifi	-3004
OUTPUT	-3005
▁format	-3006
▁allow	-3007
lete	-3008
▁man	-3009
▁fol	-3010
volt	-3011
▁wake	-3012
IND	-3013
alt	-3014
▁output	-3015
▁video	-3016
wo	-3017
▁INIT	-3018
▁8;	-3019
PID	-3020
__);	-3021
Device	-3022
track	-3023
ifndef	-3024
ority	-3025
▁netif	-3026
nown	-3027
▁<0>;	-3028
▁iommu	-3029
▁field	-3030
ash	-3031
CN	-3032
route	-3033
▁dp	-3034
▁8,	-3035
ater	-3036
▁urb	-3037
▁fc	-3038
▁requi	-3039
ste	-3040
push	-3041
HI	-3042
peer	-3043
OB	-3044
HT	-3045
▁bp	-3046
sid	-3047
vp	-3048
isp	-3049
SKB	-3050
crypt	-3051
TIMEOUT	-3052
less	-3053
▁10	-3054
ason	-3055
aligned	-3056
▁DE	-3057
WID	-3058
*/	-3059
ROM	-3060
plit	-3061
guest	-3062
auth	-3063
▁supported	-3064
left	-3065
onse	-3066
▁uart	-3067
vport	-3068
lv	-3069
43	-3070
xe	-3071
▁readl	-3072
walk	-3073
▁flag	-3074
▁unlock	-3075
▁AMD	-3076
▁cor	-3077
--;	-3078
▁plane	-3079
HZ	-3080
PCM	-3081
▁INT	-3082
▁loff	-3083
lc	-3084
▁efx	-3085
HOST	-3086
journal	-3087
plat	-3088
herent	-3089
tsk	-3090
og	-3091
▁-1,	-3092
udev	-3093
mddev	-3094
xprt	-3095
CONT	-3096
ieee	-3097
▁20	-3098
▁100	-3099
now	-3100
dss	-3101
IPS	-3102
▁mp	-3103
only	-3104
SUPPORT	-3105
family	-3106
cx	-3107
insert	-3108
ofs	-3109
cel	-3110
groups	-3111
▁CR	-3112
"))	-3113
term	-3114
FUNC	-3115
CHANNEL	-3116
▁sb	-3117
exp	-3118
▁ide	-3119
▁generic	-3120
llx	-3121
rror	-3122
▁client	-3123
▁attribute	-3124
curity	-3125
pointer	-3126
atile	-3127
ATION	-3128
ixer	-3129
mv	-3130
▁tun	-3131
utdown	-3132
message	-3133
▁bnx	-3134
▁wil	-3135
blank	-3136
FIFO	-3137
ture	-3138
need	-3139
connection	-3140
▁AS	-3141
400	-3142
▁TCP	-3143
vq	-3144
inux	-3145
reference	-3146
▁pkt	-3147
VOL	-3148
FEATURE	-3149
1",	-3150
sectors	-3151
▁down	-3152
▁adev	-3153
voltage	-3154
na	-3155
▁*)(	-3156
ov	-3157
REE	-3158
▁firmware	-3159
Con	-3160
adow	-3161
FAIL	-3162
127	-3163
STATS	-3164
▁ipv	-3165
curr	-3166
EIO	-3167
AUTH	-3168
12_	-3169
BPF	-3170
▁kmem	-3171
opts	-3172
=0	-3173
ulate	-3174
``	-3175
feature	-3176
▁rdev	-3177
▁devices	-3178
DEX	-3179
env	-3180
▁was	-3181
05	-3182
▁HW	-3183
▁For	-3184
panel	-3185
AV	-3186
▁super	-3187
▁hda	-3188
▁debugfs	-3189
[4	-3190
GPU	-3191
")	-3192
frequency	-3193
▁boot	-3194
vmx	-3195
sen	-3196
▁fd	-3197
layout	-3198
DRIVER	-3199
fixed	-3200
cho	-3201
▁called	-3202
ish	-3203
▁orig	-3204
pgd	-3205
sysfs	-3206
▁SC	-3207
▁xhci	-3208
frm	-3209
shared	-3210
phydev	-3211
here	-3212
10,	-3213
depth	-3214
CHECK	-3215
▁rtc	-3216
<<	-3217
▁ns	-3218
};	-3219
xfer	-3220
dig	-3221
▁resp	-3222
vice	-3223
uring	-3224
▁insn	-3225
csum	-3226
▁1000	-3227
▁PORT	-3228
evlist	-3229
GB	-3230
REV	-3231
▁drv	-3232
▁pp	-3233
899	-3234
tab	-3235
INVALID	-3236
▁object	-3237
DISP	-3238
▁vf	-3239
▁200	-3240
mel	-3241
smu	-3242
FX	-3243
▁message	-3244
auto	-3245
pected	-3246
▁No	-3247
22	-3248
kill	-3249
PRINT	-3250
ADC	-3251
▁->	-3252
▁PER	-3253
padapter	-3254
IDE	-3255
dapter	-3256
TRANS	-3257
100_	-3258
()␌	-3259
coherent	-3260
rier	-3261
types	-3262
hed	-3263
▁MAC	-3264
1(	-3265
TEST	-3266
▁pmd	-3267
stp	-3268
meta	-3269
wakeup	-3270
ios	-3271
93	-3272
ces	-3273
PEND	-3274
SN	-3275
▁Gen	-3276
eb	-3277
▁ttm	-3278
▁proto	-3279
BUFFER	-3280
smp	-3281
▁CS	-3282
disabled	-3283
▁medi	-3284
disp	-3285
dn	-3286
▁mtk	-3287
minor	-3288
sist	-3289
▁align	-3290
asic	-3291
50_	-3292
iff	-3293
ake	-3294
▁program	-3295
▁ct	-3296
CONNE	-3297
cookie	-3298
▁show	-3299
CHIP	-3300
amdgpu	-3301
INTR	-3302
calc	-3303
INO	-3304
laim	-3305
▁4);	-3306
network	-3307
,0	-3308
CLOCK	-3309
▁save	-3310
INDEX	-3311
▁fsl	-3312
GS	-3313
hub	-3314
leaf	-3315
cam	-3316
▁3)	-3317
entity	-3318
lm	-3319
▁tipc	-3320
▁there	-3321
STER	-3322
▁16)	-3323
interval	-3324
ioremap	-3325
▁ice	-3326
real	-3327
hid	-3328
▁*)&	-3329
slots	-3330
▁reserved	-3331
48	-3332
USH	-3333
0.	-3334
▁1))	-3335
FLOW	-3336
▁jiffies	-3337
▁soc	-3338
rtl	-3339
CCESS	-3340
ered	-3341
FIL	-3342
▁counter	-3343
▁TR	-3344
filp	-3345
▁sun	-3346
direction	-3347
IX	-3348
▁ASS	-3349
▁stm	-3350
▁rv	-3351
rel	-3352
settings	-3353
UTE	-3354
ias	-3355
▁domain	-3356
▁under	-3357
wdev	-3358
tid	-3359
covery	-3360
▁Y	-3361
▁div	-3362
drop	-3363
lru	-3364
IOCTL	-3365
witch	-3366
ached	-3367
▁*(	-3368
▁SH	-3369
BACK	-3370
▁cr	-3371
RF	-3372
GT	-3373
nter	-3374
BS	-3375
fsl	-3376
bulk	-3377
eturn	-3378
amsung	-3379
allow	-3380
▁Z	-3381
XT	-3382
▁allocate	-3383
PWR	-3384
xattr	-3385
▁seg	-3386
DW	-3387
▁system	-3388
payload	-3389
phba	-3390
ng	-3391
bw	-3392
▁pfn	-3393
▁open	-3394
USR	-3395
uccess	-3396
pull	-3397
ject	-3398
FORMAT	-3399
quot	-3400
▁xen	-3401
UGO	-3402
OM	-3403
▁^	-3404
prop	-3405
ness	-3406
▁cb	-3407
▁stream	-3408
AUD	-3409
ception	-3410
▁NFS	-3411
opp	-3412
NS	-3413
ations	-3414
06	-3415
▁CHIP	-3416
td	-3417
global	-3418
+=	-3419
0",	-3420
est	-3421
▁frag	-3422
▁source	-3423
icast	-3424
▁chunk	-3425
▁pid	-3426
▁ASSERT	-3427
frontend	-3428
fast	-3429
prio	-3430
▁SET	-3431
std	-3432
4);	-3433
scale	-3434
mary	-3435
csr	-3436
▁gb	-3437
Reg	-3438
fini	-3439
cal	-3440
):	-3441
SZ	-3442
xgbe	-3443
ger	-3444
fic	-3445
▁zone	-3446
▁stack	-3447
▁ps	-3448
xhci	-3449
non	-3450
▁(((	-3451
▁cgroup	-3452
▁kv	-3453
OS	-3454
umentation	-3455
TCP	-3456
▁cpumask	-3457
▁pe	-3458
PIPE	-3459
▁qp	-3460
▁sec	-3461
ddr	-3462
llu	-3463
rates	-3464
reply	-3465
▁dsa	-3466
IW	-3467
▁exynos	-3468
▁fmt	-3469
▁nd	-3470
adata	-3471
vent	-3472
▁ds	-3473
2-	-3474
▁container	-3475
▁SNDRV	-3476
BLK	-3477
CNTL	-3478
HDR	-3479
!\	-3480
ACPI	-3481
rough	-3482
descriptor	-3483
reserved	-3484
IPE	-3485
reshold	-3486
▁delay	-3487
▁15	-3488
DL	-3489
are	-3490
transport	-3491
▁bat	-3492
31	-3493
fops	-3494
▁exec	-3495
MAL	-3496
▁PM	-3497
▁scan	-3498
FRAME	-3499
▁active	-3500
▁mult	-3501
ACE	-3502
▁hdmi	-3503
▁iter	-3504
40_	-3505
BL	-3506
reen	-3507
',	-3508
RS	-3509
▁smu	-3510
image	-3511
daddr	-3512
▁asm	-3513
xb	-3514
imum	-3515
▁License	-3516
▁nft	-3517
SUCCESS	-3518
etch	-3519
cast	-3520
CLASS	-3521
PROM	-3522
Hz	-3523
▁SPI	-3524
▁already	-3525
dq	-3526
DAC	-3527
wqe	-3528
vsi	-3529
PATCH	-3530
_6	-3531
▁mark	-3532
DS	-3533
YP	-3534
IE	-3535
76_	-3536
elem	-3537
CKET	-3538
▁nfp	-3539
rela	-3540
ENSOR	-3541
▁MI	-3542
▁zero	-3543
▁vid	-3544
sole	-3545
▁go	-3546
▁conn	-3547
IPV	-3548
▁ATH	-3549
▁build	-3550
▁ixgbe	-3551
▁child	-3552
32,	-3553
PK	-3554
▁pan	-3555
rv	-3556
Ch	-3557
▁mc	-3558
(-	-3559
wiphy	-3560
▁svc	-3561
▁hardware	-3562
begin	-3563
▁warn	-3564
VALID	-3565
▁iov	-3566
37	-3567
pinctrl	-3568
secs	-3569
▁NO	-3570
frags	-3571
▁extent	-3572
UB	-3573
ipi	-3574
▁ts	-3575
▁sdhci	-3576
▁DBG	-3577
eh	-3578
decode	-3579
▁union	-3580
ists	-3581
MAIN	-3582
vo	-3583
RB	-3584
▁ter	-3585
▁Return	-3586
operations	-3587
ew	-3588
▁operation	-3589
bm	-3590
FD	-3591
remote	-3592
_0	-3593
▁try	-3594
▁ufs	-3595
▁wid	-3596
ef	-3597
12,	-3598
VDEVICE	-3599
82	-3600
▁xfrm	-3601
completion	-3602
FN	-3603
LV	-3604
▁qla	-3605
IFY	-3606
▁rs	-3607
fid	-3608
▁high	-3609
bindings	-3610
++]	-3611
▁ubi	-3612
▁spec	-3613
://	-3614
microvolt	-3615
▁dts	-3616
transaction	-3617
HP	-3618
▁ve	-3619
xdp	-3620
eeprom	-3621
ILD	-3622
vendor	-3623
Co	-3624
▁PERF	-3625
ang	-3626
▁conf	-3627
▁action	-3628
SCSI	-3629
shutdown	-3630
▁than	-3631
ecc	-3632
▁dt	-3633
buffers	-3634
▁nand	-3635
":	-3636
REF	-3637
▁param	-3638
▁devpriv	-3639
atency	-3640
▁ed	-3641
huge	-3642
)),	-3643
adget	-3644
SING	-3645
-1	-3646
bad	-3647
▁force	-3648
mk	-3649
4.	-3650
mbox	-3651
cluster	-3652
loop	-3653
lcd	-3654
▁array	-3655
▁cnt	-3656
▁filter	-3657
▁initial	-3658
NV	-3659
▁codec	-3660
53	-3661
scr	-3662
▁tb	-3663
▁slave	-3664
rcmp	-3665
hot	-3666
SHARE	-3667
Adapter	-3668
beacon	-3669
sdio	-3670
qe	-3671
IRUGO	-3672
delayed	-3673
wc	-3674
vider	-3675
▁pll	-3676
lap	-3677
napi	-3678
EFAULT	-3679
vision	-3680
IGHT	-3681
▁amd	-3682
keys	-3683
IRT	-3684
WIDTH	-3685
▁drbd	-3686
tunnel	-3687
ulti	-3688
vr	-3689
ek	-3690
tg	-3691
▁its	-3692
okay	-3693
▁drivers	-3694
bond	-3695
)));	-3696
vaddr	-3697
mid	-3698
kcontrol	-3699
▁handler	-3700
80_	-3701
MARK	-3702
[0]);	-3703
itten	-3704
SUPP	-3705
option	-3706
iable	-3707
inline	-3708
▁bitmap	-3709
▁byte	-3710
▁parameter	-3711
dsp	-3712
ublic	-3713
▁class	-3714
▁TP	-3715
▁16,	-3716
▁qcom	-3717
▁rsnd	-3718
ERRUP	-3719
vail	-3720
IMIT	-3721
▁Al	-3722
▁registers	-3723
POL	-3724
54	-3725
▁STAT	-3726
isor	-3727
▁via	-3728
crc	-3729
ALLOC	-3730
0-	-3731
000_	-3732
MR	-3733
pixel	-3734
relax	-3735
GC	-3736
ious	-3737
▁vlan	-3738
▁tag	-3739
RANGE	-3740
delta	-3741
ui	-3742
Data	-3743
▁WR	-3744
offload	-3745
_64	-3746
FILTER	-3747
▁shift	-3748
ancel	-3749
▁available	-3750
sdp	-3751
▁ATA	-3752
UNK	-3753
efx	-3754
detect	-3755
simple	-3756
▁np	-3757
machine	-3758
▁media	-3759
▁ite	-3760
flash	-3761
▁!!	-3762
▁same	-3763
cursor	-3764
▁values	-3765
▁proc	-3766
▁;	-3767
▁nfsd	-3768
80211	-3769
color	-3770
▁READ	-3771
▁without	-3772
with	-3773
3:	-3774
▁HDA	-3775
VIDE	-3776
MMU	-3777
IDX	-3778
▁callback	-3779
▁led	-3780
cause	-3781
bility	-3782
▁col	-3783
()␍	-3784
▁audit	-3785
stripe	-3786
]->	-3787
misc	-3788
andle	-3789
ager	-3790
CLE	-3791
UPD	-3792
4:	-3793
...	-3794
quence	-3795
▁sync	-3796
sch	-3797
▁stop	-3798
▁follow	-3799
4;	-3800
receive	-3801
ities	-3802
▁dprintk	-3803
[3]	-3804
delete	-3805
fan	-3806
DRM	-3807
tadata	-3808
▁dump	-3809
▁msm	-3810
▁reference	-3811
▁hdev	-3812
)/	-3813
mii	-3814
▁drop	-3815
ONG	-3816
retval	-3817
▁PR	-3818
pmc	-3819
▁lp	-3820
COL	-3821
unused	-3822
▁sample	-3823
tected	-3824
▁include	-3825
▁bh	-3826
▁IMX	-3827
▁bf	-3828
▁SE	-3829
WARE	-3830
ether	-3831
▁CMD	-3832
_1_	-3833
lename	-3834
amd	-3835
INTERRUP	-3836
NOR	-3837
0000,	-3838
Len	-3839
fixup	-3840
▁also	-3841
cancel	-3842
ni	-3843
64:	-3844
▁cd	-3845
OMAP	-3846
kms	-3847
processor	-3848
dummy	-3849
files	-3850
ssid	-3851
YPTO	-3852
▁hton	-3853
▁THIS	-3854
initialize	-3855
activ	-3856
bling	-3857
▁*);	-3858
▁functions	-3859
legacy	-3860
▁8);	-3861
▁SO	-3862
STS	-3863
▁func	-3864
errno	-3865
token	-3866
▁DEBUG	-3867
81	-3868
NODE	-3869
busy	-3870
▁bond	-3871
▁pcie	-3872
_2_	-3873
pass	-3874
▁pcm	-3875
found	-3876
▁hisi	-3877
BD	-3878
SCAN	-3879
socket	-3880
section	-3881
elds	-3882
assert	-3883
fcp	-3884
ending	-3885
crypto	-3886
RTC	-3887
▁imp	-3888
;\	-3889
ckchip	-3890
▁self	-3891
▁MSG	-3892
▁ho	-3893
CAST	-3894
▁master	-3895
▁pwm	-3896
smc	-3897
▁vc	-3898
][	-3899
AUTO	-3900
▁receive	-3901
▁DA	-3902
formation	-3903
▁inc	-3904
adjust	-3905
snap	-3906
oci	-3907
wb	-3908
clean	-3909
ips	-3910
▁nid	-3911
itor	-3912
FUNCTION	-3913
CHED	-3914
▁MC	-3915
,\	-3916
nodes	-3917
_32	-3918
aph	-3919
▁stri	-3920
iface	-3921
reemp	-3922
let	-3923
DIO	-3924
▁structure	-3925
-0	-3926
segment	-3927
rep	-3928
radio	-3929
hda	-3930
IAL	-3931
may	-3932
STOP	-3933
▁signal	-3934
BAL	-3935
▁General	-3936
▁Enable	-3937
ENC	-3938
rup	-3939
00000>;	-3940
cpumask	-3941
97_	-3942
▁St	-3943
▁help	-3944
▁tg	-3945
2>;	-3946
▁move	-3947
▁bt	-3948
▁skip	-3949
▁ASoC	-3950
DONE	-3951
▁region	-3952
▁tree	-3953
iq	-3954
null	-3955
%02	-3956
MII	-3957
online	-3958
xffffffff	-3959
WI	-3960
CRE	-3961
hard	-3962
compat	-3963
MSI	-3964
▁...	-3965
OV	-3966
</	-3967
WORK	-3968
andom	-3969
ACCESS	-3970
hook	-3971
▁entries	-3972
configure	-3973
syscall	-3974
▁ele	-3975
▁128	-3976
shinfo	-3977
ERO	-3978
▁parse	-3979
0(	-3980
▁probe	-3981
hl	-3982
ATCH	-3983
fied	-3984
▁INTEL	-3985
▁3;	-3986
nla	-3987
▁Wh	-3988
110	-3989
▁engine	-3990
nesas	-3991
hr	-3992
2->	-3993
STRE	-3994
uncore	-3995
bound	-3996
66	-3997
pute	-3998
▁da	-3999
ied	-4000
dy	-4001
SPEED	-4002
▁sym	-4003
hsotg	-4004
DELAY	-4005
bat	-4006
wil	-4007
SHARED	-4008
TUN	-4009
▁machine	-4010
FREQ	-4011
changed	-4012
▁DMI	-4013
clge	-4014
chg	-4015
▁ARCH	-4016
CUR	-4017
CSR	-4018
VIDEO	-4019
▁invalid	-4020
css	-4021
ALEN	-4022
Tx	-4023
mach	-4024
▁CON	-4025
modes	-4026
▁tid	-4027
step	-4028
▁GNU	-4029
widget	-4030
▁WREG	-4031
thermal	-4032
cmnd	-4033
25_	-4034
▁cleanup	-4035
anch	-4036
_16	-4037
▁fp	-4038
IME	-4039
MBUS	-4040
shadow	-4041
pk	-4042
70	-4043
IDLE	-4044
rowser	-4045
▁Public	-4046
VALUE	-4047
job	-4048
HDMI	-4049
▁mei	-4050
bufs	-4051
▁bind	-4052
▁EE	-4053
SINGLE	-4054
REGS	-4055
fol	-4056
VLAN	-4057
102	-4058
ged	-4059
hwmgr	-4060
▁1),	-4061
til	-4062
****************	-4063
▁bnxt	-4064
PCIE	-4065
▁jo	-4066
▁string	-4067
mdio	-4068
PARAM	-4069
▁WRITE	-4070
dup	-4071
EST	-4072
guc	-4073
ERS	-4074
▁qeth	-4075
ehci	-4076
▁irqreturn	-4077
29	-4078
▁socket	-4079
ful	-4080
▁success	-4081
SCR	-4082
after	-4083
ration	-4084
CONNECT	-4085
window	-4086
clocks	-4087
▁IRQF	-4088
VF	-4089
▁disk	-4090
qual	-4091
▁speed	-4092
PERF	-4093
Bu	-4094
saddr	-4095
De	-4096
NFS	-4097
▁imple	-4098
MEDI	-4099
evt	-4100
2",	-4101
▁DIV	-4102
VC	-4103
▁hclge	-4104
domains	-4105
▁It	-4106
ROUND	-4107
ined	-4108
▁stats	-4109
▁fprintf	-4110
1271_	-4111
LP	-4112
syn	-4113
nore	-4114
819	-4115
fib	-4116
men	-4117
dentifier	-4118
ATOR	-4119
1->	-4120
▁report	-4121
++,	-4122
8500_	-4123
▁pc	-4124
ince	-4125
LB	-4126
app	-4127
▁OR	-4128
▁'\	-4129
frames	-4130
iss	-4131
45	-4132
▁unused	-4133
record	-4134
gest	-4135
strcmp	-4136
gl	-4137
▁hns	-4138
_10	-4139
timing	-4140
ask	-4141
assoc	-4142
fy	-4143
CARD	-4144
HAND	-4145
▁16;	-4146
▁been	-4147
wise	-4148
patch	-4149
mgmt	-4150
btf	-4151
EXEC	-4152
gtt	-4153
▁UN	-4154
MUL	-4155
wifiex	-4156
profile	-4157
room	-4158
sistent	-4159
▁bad	-4160
MAND	-4161
udc	-4162
pect	-4163
vfs	-4164
▁SK	-4165
runc	-4166
ingle	-4167
gfp	-4168
ident	-4169
COMM	-4170
▁fib	-4171
FER	-4172
================	-4173
ous	-4174
TEMP	-4175
,"	-4176
1),	-4177
▁pf	-4178
(),	-4179
▁events	-4180
igrate	-4181
6.	-4182
▁properties	-4183
▁12	-4184
▁configuration	-4185
▁complete	-4186
qm	-4187
LOCAL	-4188
atures	-4189
▁Pro	-4190
ASSERT	-4191
▁dire	-4192
sf	-4193
▁tm	-4194
priority	-4195
▁pd	-4196
▁iss	-4197
maps	-4198
irr	-4199
MPLE	-4200
▁FW	-4201
celot	-4202
▁Ch	-4203
▁connector	-4204
MON	-4205
relaxed	-4206
assign	-4207
abort	-4208
OBJ	-4209
allocate	-4210
opcode	-4211
▁On	-4212
▁ses	-4213
bool	-4214
▁disabled	-4215
LIMIT	-4216
gfx	-4217
▁pool	-4218
▁MLXSW	-4219
▁fin	-4220
nb	-4221
▁description	-4222
gpios	-4223
TP	-4224
FB	-4225
▁each	-4226
early	-4227
);\	-4228
▁MMC	-4229
▁Co	-4230
46	-4231
MSK	-4232
xd	-4233
tuner	-4234
istered	-4235
location	-4236
go	-4237
▁bridge	-4238
▁)	-4239
vblank	-4240
ords	-4241
opied	-4242
wh	-4243
▁required	-4244
▁cpufreq	-4245
1⁄	-4246
)((	-4247
ADDRESS	-4248
dvb	-4249
layer	-4250
16,	-4251
.%	-4252
▁bet	-4253
▁DC	-4254
lme	-4255
ONLY	-4256
PATH	-4257
▁instead	-4258
symbol	-4259
▁BCM	-4260
▁compat	-4261
mci	-4262
fg	-4263
MSR	-4264
▁full	-4265
BB	-4266
running	-4267
PLY	-4268
▁Reg	-4269
▁HZ	-4270
▁SPD	-4271
▁delta	-4272
▁Free	-4273
svm	-4274
▁just	-4275
▁dbg	-4276
slab	-4277
▁mpt	-4278
▁ni	-4279
ptp	-4280
iobase	-4281
dat	-4282
rtd	-4283
▁ms	-4284
lun	-4285
abs	-4286
dpm	-4287
3);	-4288
▁ctl	-4289
▁calc	-4290
UME	-4291
▁avoid	-4292
▁-1)	-4293
PRI	-4294
dso	-4295
ww	-4296
▁point	-4297
edid	-4298
attery	-4299
')	-4300
="	-4301
▁lib	-4302
▁strlen	-4303
PROBE	-4304
service	-4305
invalid	-4306
internal	-4307
dered	-4308
~~	-4309
tection	-4310
▁sha	-4311
▁AP	-4312
▁qed	-4313
▁hv	-4314
REC	-4315
HASH	-4316
▁virtio	-4317
▁PIPE	-4318
MISC	-4319
ging	-4320
iio	-4321
▁HDMI	-4322
AGAIN	-4323
our	-4324
▁mx	-4325
▁25	-4326
▁cond	-4327
SEQ	-4328
rightness	-4329
▁WLAN	-4330
DSP	-4331
EBUSY	-4332
qd	-4333
[%	-4334
duce	-4335
POLL	-4336
▁smc	-4337
62	-4338
▁BR	-4339
smmu	-4340
▁pxa	-4341
cycle	-4342
▁loop	-4343
▁pad	-4344
▁rd	-4345
ire	-4346
::	-4347
SPACE	-4348
▁prog	-4349
nested	-4350
tegra	-4351
▁"$	-4352
tlv	-4353
extra	-4354
timestamp	-4355
gso	-4356
CONN	-4357
PTE	-4358
▁initialize	-4359
RUN	-4360
FLUSH	-4361
atio	-4362
FORCE	-4363
▁Software	-4364
speci	-4365
packets	-4366
▁mddev	-4367
DIRE	-4368
response	-4369
6)	-4370
skip	-4371
thod	-4372
▁NETIF	-4373
emit	-4374
TRIG	-4375
▁real	-4376
PROG	-4377
OD	-4378
▁sensor	-4379
▁setting	-4380
▁remain	-4381
upper	-4382
batch	-4383
▁efi	-4384
WE	-4385
▁capa	-4386
ASM	-4387
mission	-4388
▁Make	-4389
▁watchdog	-4390
IDGE	-4391
▁single	-4392
cached	-4393
PACKET	-4394
▁common	-4395
▁ql	-4396
▁symbol	-4397
IES	-4398
dwc	-4399
▁width	-4400
63	-4401
atus	-4402
CAN	-4403
▁because	-4404
▁policy	-4405
ither	-4406
iw	-4407
calloc	-4408
chron	-4409
FACE	-4410
▁dif	-4411
program	-4412
11,	-4413
sci	-4414
BOARD	-4415
18_	-4416
Error	-4417
ITCH	-4418
WARNING	-4419
TAG	-4420
make	-4421
known	-4422
mapped	-4423
UPDATE	-4424
arrier	-4425
51_	-4426
iple	-4427
ITH	-4428
▁information	-4429
▁during	-4430
▁instance	-4431
road	-4432
▁DT	-4433
ail	-4434
▁prot	-4435
▁handling	-4436
▁software	-4437
▁sz	-4438
usage	-4439
EOP	-4440
EXIT	-4441
▁1.	-4442
SEG	-4443
▁want	-4444
pud	-4445
VS	-4446
AX	-4447
▁19	-4448
gadget	-4449
xdr	-4450
EMP	-4451
▁sbi	-4452
inet	-4453
vdd	-4454
bb	-4455
PKT	-4456
jor	-4457
▁printf	-4458
ian	-4459
ENSE	-4460
825	-4461
NIC	-4462
AUX	-4463
▁variable	-4464
NX	-4465
manager	-4466
PPC	-4467
BOOT	-4468
▁nto	-4469
ilfs	-4470
▁label	-4471
des	-4472
ocumentation	-4473
▁SA	-4474
ROOT	-4475
dword	-4476
retry	-4477
128	-4478
▁xdp	-4479
IPC	-4480
▁simple	-4481
tible	-4482
INET	-4483
▁doc	-4484
▁mwifiex	-4485
15,	-4486
▁KERN	-4487
props	-4488
controls	-4489
▁transfer	-4490
tuple	-4491
▁ri	-4492
EXP	-4493
▁ir	-4494
NOW	-4495
ENOENT	-4496
3;	-4497
▁5,	-4498
msix	-4499
▁devlink	-4500
▁where	-4501
model	-4502
▁bin	-4503
-2.	-4504
7)	-4505
▁OF	-4506
backlight	-4507
▁rf	-4508
▁Check	-4509
unaligned	-4510
▁pending	-4511
▁dsi	-4512
SIGN	-4513
NOS	-4514
[5	-4515
raid	-4516
16)	-4517
73	-4518
▁left	-4519
▁AMDGPU	-4520
quire	-4521
▁helper	-4522
lower	-4523
▁%08	-4524
LANE	-4525
▁rbd	-4526
▁SPDX	-4527
OLD	-4528
▁DW	-4529
stor	-4530
▁batadv	-4531
nh	-4532
RENT	-4533
wmi	-4534
qc	-4535
2410_	-4536
mppc	-4537
ISP	-4538
irror	-4539
restart	-4540
inte	-4541
elf	-4542
lists	-4543
3.	-4544
tsc	-4545
uma	-4546
▁top	-4547
bucket	-4548
▁through	-4549
VT	-4550
▁SYS	-4551
slice	-4552
DED	-4553
SIC	-4554
memcg	-4555
▁echo	-4556
▁OP	-4557
clp	-4558
▁pix	-4559
EAGAIN	-4560
▁BU	-4561
MENT	-4562
▁always	-4563
sun	-4564
▁fault	-4565
gd	-4566
BYTES	-4567
▁er	-4568
cing	-4569
avail	-4570
▁IIO	-4571
workqueue	-4572
42_	-4573
latency	-4574
RI	-4575
▁clean	-4576
RET	-4577
ding	-4578
qos	-4579
▁~0	-4580
metadata	-4581
RW	-4582
browser	-4583
▁descriptor	-4584
▁atmel	-4585
ECT	-4586
sge	-4587
sive	-4588
▁MV	-4589
▁Switch	-4590
imp	-4591
ended	-4592
sense	-4593
verify	-4594
prefix	-4595
struction	-4596
▁ind	-4597
▁typedef	-4598
available	-4599
00);	-4600
▁runtime	-4601
argv	-4602
ital	-4603
)},	-4604
)+=	-4605
btrfs	-4606
▁iph	-4607
mixer	-4608
64,	-4609
NON	-4610
NOTSUPP	-4611
LOBAL	-4612
clone	-4613
dget	-4614
layback	-4615
▁TO	-4616
▁period	-4617
finish	-4618
devpriv	-4619
schedule	-4620
detach	-4621
ABIL	-4622
allowed	-4623
▁issue	-4624
▁ow	-4625
▁kobject	-4626
▁COMP	-4627
(1);	-4628
564	-4629
INTERRUPT	-4630
31_	-4631
▁REQ	-4632
)&	-4633
▁see	-4634
▁ig	-4635
1-	-4636
09	-4637
▁vb	-4638
ermal	-4639
Type	-4640
quirks	-4641
▁FT	-4642
▁Mo	-4643
xlan	-4644
▁fall	-4645
FREE	-4646
EQ	-4647
02_	-4648
▁Cle	-4649
▁idle	-4650
Pro	-4651
vha	-4652
▁See	-4653
AMD	-4654
390_	-4655
▁cm	-4656
CLARE	-4657
INODE	-4658
/%	-4659
expi	-4660
prep	-4661
DESCR	-4662
▁again	-4663
metr	-4664
BAR	-4665
ANT	-4666
reason	-4667
bssid	-4668
ao	-4669
YNOS	-4670
▁two	-4671
_32_	-4672
▁-1	-4673
▁guest	-4674
ruptible	-4675
QUEST	-4676
▁lookup	-4677
ctly	-4678
▁property	-4679
BRO	-4680
anes	-4681
(2	-4682
▁vif	-4683
activate	-4684
tables	-4685
▁sm	-4686
FULL	-4687
_1,	-4688
▁swap	-4689
mas	-4690
arr	-4691
split	-4692
security	-4693
78	-4694
ros	-4695
▁hlist	-4696
EOPNOTSUPP	-4697
kfree	-4698
▁"",	-4699
urned	-4700
GTH	-4701
▁missing	-4702
FLA	-4703
AUTHOR	-4704
lr	-4705
xi	-4706
▁volatile	-4707
UNIT	-4708
▁hp	-4709
eep	-4710
01,	-4711
▁rw	-4712
MASTER	-4713
▁remote	-4714
DISPLAY	-4715
nx	-4716
,/*	-4717
NAND	-4718
▁fuse	-4719
▁server	-4720
dereference	-4721
tk	-4722
inci	-4723
▁txq	-4724
aead	-4725
conntrack	-4726
neigh	-4727
dpll	-4728
graph	-4729
00)	-4730
▁mmu	-4731
▁btf	-4732
Rx	-4733
dac	-4734
wlan	-4735
SOFT	-4736
▁modify	-4737
cqe	-4738
any	-4739
▁ether	-4740
72	-4741
MLX	-4742
rout	-4743
COMMAND	-4744
▁PLL	-4745
▁dd	-4746
PULL	-4747
qq	-4748
▁exp	-4749
amp	-4750
mediate	-4751
▁right	-4752
API	-4753
▁6,	-4754
▁changed	-4755
▁notifier	-4756
Size	-4757
threshold	-4758
Index	-4759
No	-4760
▁protocol	-4761
▁PINCTRL	-4762
GMT	-4763
flip	-4764
PFC	-4765
txt	-4766
▁specific	-4767
▁failure	-4768
ERIC	-4769
▁EV	-4770
side	-4771
ucode	-4772
▁section	-4773
▁too	-4774
▁endpoint	-4775
▁PRO	-4776
98	-4777
▁curr	-4778
sim	-4779
exception	-4780
errors	-4781
▁xdr	-4782
LCD	-4783
eg	-4784
rings	-4785
rink	-4786
▁blocks	-4787
devlink	-4788
qcom	-4789
TM	-4790
ATH	-4791
▁Dis	-4792
reempt	-4793
svc	-4794
▁display	-4795
LEEP	-4796
IOS	-4797
idr	-4798
IPI	-4799
DOMAIN	-4800
ride	-4801
ENA	-4802
sche	-4803
▁sure	-4804
bilities	-4805
Identifier	-4806
amic	-4807
"\	-4808
CID	-4809
cma	-4810
QP	-4811
License	-4812
msm	-4813
▁round	-4814
▁NR	-4815
ward	-4816
(5	-4817
XFS	-4818
cts	-4819
ii	-4820
hal	-4821
▁Note	-4822
lis	-4823
HEADER	-4824
cia	-4825
pgtt	-4826
▁mg	-4827
▁opp	-4828
WAKE	-4829
▁mic	-4830
]\	-4831
STREAM	-4832
▁FOR	-4833
TOP	-4834
esw	-4835
era	-4836
WORD	-4837
DUCT	-4838
CTP	-4839
▁extra	-4840
▁bank	-4841
--)	-4842
▁GPL	-4843
vgpu	-4844
915:	-4845
▁ftrace	-4846
six	-4847
PIX	-4848
000,	-4849
folio	-4850
aes	-4851
isr	-4852
icate	-4853
▁<2>;	-4854
▁MUX	-4855
▁rcar	-4856
todate	-4857
▁:=	-4858
ranges	-4859
KVM	-4860
▁kvmppc	-4861
▁MSR	-4862
▁scatter	-4863
▁ethtool	-4864
256	-4865
AUDIO	-4866
CONTEXT	-4867
().	-4868
▁gr	-4869
alarm	-4870
▁needed	-4871
vram	-4872
itions	-4873
setting	-4874
encode	-4875
trap	-4876
▁gfn	-4877
BC	-4878
▁,	-4879
view	-4880
79	-4881
ZX	-4882
▁schedule	-4883
ween	-4884
segs	-4885
▁based	-4886
cons	-4887
PRODUCT	-4888
discard	-4889
GATE	-4890
ynamic	-4891
cra	-4892
RESER	-4893
search	-4894
8000	-4895
▁1:	-4896
den	-4897
▁ee	-4898
Num	-4899
khz	-4900
▁suspend	-4901
CTX	-4902
▁my	-4903
ctory	-4904
ZERO	-4905
uuid	-4906
Val	-4907
▁vmw	-4908
▁ioc	-4909
▁features	-4910
multicast	-4911
smbus	-4912
cessary	-4913
bcm	-4914
mail	-4915
xl	-4916
▁nor	-4917
▁ha	-4918
3-	-4919
DVB	-4920
iwl	-4921
sgl	-4922
ization	-4923
▁following	-4924
coe	-4925
filename	-4926
drivers	-4927
ISTER	-4928
▁needs	-4929
pclk	-4930
recovery	-4931
▁2.	-4932
EGRA	-4933
▁TEGRA	-4934
FROM	-4935
PCH	-4936
fr	-4937
21_	-4938
coex	-4939
▁early	-4940
▁ktime	-4941
PHYS	-4942
PROC	-4943
annel	-4944
▁pas	-4945
supp	-4946
timings	-4947
fetch	-4948
alias	-4949
pdate	-4950
THER	-4951
▁MIPS	-4952
compute	-4953
▁possible	-4954
REQUEST	-4955
▁10,	-4956
initdata	-4957
▁even	-4958
10000	-4959
issue	-4960
▁alc	-4961
ise	-4962
Un	-4963
pair	-4964
▁Cor	-4965
ohci	-4966
template	-4967
EW	-4968
MULTI	-4969
unce	-4970
xFFFF	-4971
▁encoder	-4972
jack	-4973
▁convert	-4974
▁payload	-4975
)",	-4976
inity	-4977
percpu	-4978
MMC	-4979
▁tristate	-4980
';	-4981
accel	-4982
35_	-4983
▁tcf	-4984
BF	-4985
erate	-4986
▁skl	-4987
▁PCIE	-4988
attri	-4989
FG	-4990
LENGTH	-4991
CODEC	-4992
RU	-4993
SDMA	-4994
tails	-4995
▁Inc	-4996
▁upper	-4997
▁iscsi	-4998
RAW	-4999
86/	-5000
▁powerpc	-5001
CHANGE	-5002
primary	-5003
support	-5004
rss	-5005
▁wilc	-5006
packed	-5007
GER	-5008
▁elf	-5009
▁hot	-5010
▁MII	-5011
ORY	-5012
ope	-5013
OLL	-5014
puts	-5015
APIC	-5016
▁adv	-5017
▁lower	-5018
tests	-5019
LOT	-5020
GO	-5021
FTDI	-5022
alance	-5023
▁syn	-5024
20,	-5025
CLO	-5026
▁tail	-5027
IFS	-5028
ssp	-5029
AF	-5030
POINT	-5031
▁them	-5032
▁fence	-5033
ification	-5034
hv	-5035
▁nlmsg	-5036
mar	-5037
DESCRIP	-5038
BTRFS	-5039
[4]	-5040
▁So	-5041
▁rdma	-5042
▁trigger	-5043
_825	-5044
▁between	-5045
▁FL	-5046
HB	-5047
▁xt	-5048
INTERFACE	-5049
ABILITY	-5050
console	-5051
MUTE	-5052
▁Intel	-5053
orb	-5054
▁ent	-5055
qs	-5056
vsc	-5057
radeon	-5058
_0_	-5059
spte	-5060
▁SDHCI	-5061
▁implement	-5062
▁``	-5063
▁session	-5064
asoc	-5065
arge	-5066
_9	-5067
▁samsung	-5068
IWUSR	-5069
blocksize	-5070
FRM	-5071
▁FIELD	-5072
BRIDGE	-5073
umem	-5074
ras	-5075
▁tim	-5076
▁vector	-5077
▁7,	-5078
alog	-5079
aml	-5080
MIX	-5081
▁dep	-5082
AMP	-5083
▁doesn	-5084
interruptible	-5085
ndo	-5086
cont	-5087
msk	-5088
ffect	-5089
defer	-5090
▁SoC	-5091
▁thermal	-5092
71	-5093
../	-5094
urst	-5095
subsys	-5096
▁rockchip	-5097
▁usage	-5098
aded	-5099
▁evsel	-5100
ADV	-5101
APP	-5102
ACCE	-5103
▁Device	-5104
);/*	-5105
DAT	-5106
rqstp	-5107
▁PF	-5108
▁ME	-5109
▁ph	-5110
OPS	-5111
LONG	-5112
RED	-5113
SLEEP	-5114
▁linux	-5115
OVER	-5116
ARGET	-5117
states	-5118
uble	-5119
CAM	-5120
trig	-5121
ferent	-5122
02,	-5123
gu	-5124
dpc	-5125
scratch	-5126
41	-5127
mall	-5128
mov	-5129
---	-5130
devs	-5131
EXCL	-5132
▁ino	-5133
▁panel	-5134
ENG	-5135
▁256	-5136
RESH	-5137
tick	-5138
TT	-5139
▁PPC	-5140
fpu	-5141
ctr	-5142
DIG	-5143
▁am	-5144
osd	-5145
▁ioctl	-5146
modeset	-5147
[1];	-5148
▁record	-5149
NEW	-5150
[1].	-5151
CMP	-5152
oct	-5153
▁SUN	-5154
▁mb	-5155
MIB	-5156
btree	-5157
▁gpu	-5158
py	-5159
gn	-5160
▁LED	-5161
Addr	-5162
▁fill	-5163
▁RA	-5164
dmac	-5165
NOWN	-5166
▁16);	-5167
reloc	-5168
▁being	-5169
HS	-5170
▁AN	-5171
ffinity	-5172
sure	-5173
▁could	-5174
replace	-5175
▁̧	-5176
▁AZX	-5177
df	-5178
▁audio	-5179
▁ll	-5180
attern	-5181
inf	-5182
Get	-5183
MIT	-5184
2800_	-5185
ually	-5186
VA	-5187
▁sleep	-5188
wd	-5189
60_	-5190
▁since	-5191
UC	-5192
▁vmx	-5193
▁files	-5194
SWITCH	-5195
90_	-5196
role	-5197
disconnect	-5198
MAN	-5199
encrypt	-5200
@0	-5201
multi	-5202
▁AF	-5203
▁},/*	-5204
▁htons	-5205
udp	-5206
▁retry	-5207
▁allocated	-5208
INC	-5209
hop	-5210
▁item	-5211
LS	-5212
52	-5213
:\	-5214
▁walk	-5215
exynos	-5216
XXX	-5217
runcate	-5218
▁dist	-5219
sink	-5220
netif	-5221
▁Found	-5222
hwfn	-5223
NORMAL	-5224
seek	-5225
xchg	-5226
(3	-5227
▁[%	-5228
▁##	-5229
shost	-5230
[1],	-5231
▁chain	-5232
eon	-5233
capable	-5234
OPT	-5235
ock	-5236
med	-5237
STACK	-5238
▁ALIGN	-5239
▁sl	-5240
STP	-5241
DIRECT	-5242
pDevice	-5243
idev	-5244
cla	-5245
needed	-5246
attrib	-5247
TRL	-5248
▁1]	-5249
▁smb	-5250
▁HCI	-5251
▁ovl	-5252
▁image	-5253
regions	-5254
aq	-5255
▁*__	-5256
ample	-5257
ULATOR	-5258
▁NAND	-5259
▁GET	-5260
▁gs	-5261
▁CX	-5262
PRIV	-5263
▁fixed	-5264
roce	-5265
ORE	-5266
arp	-5267
ioaddr	-5268
convert	-5269
Add	-5270
round	-5271
▁rule	-5272
▁allocation	-5273
▁".	-5274
cpufreq	-5275
ASE	-5276
▁our	-5277
dimm	-5278
STEM	-5279
dlm	-5280
brightness	-5281
1]	-5282
ttm	-5283
watchdog	-5284
▁peer	-5285
▁main	-5286
8);	-5287
▁vp	-5288
▁!!(	-5289
ones	-5290
adix	-5291
▁returned	-5292
▁PT	-5293
▁ov	-5294
▁CP	-5295
▁either	-5296
bove	-5297
▁0},	-5298
_0,	-5299
fff	-5300
▁store	-5301
▁expected	-5302
termios	-5303
32(&	-5304
14,	-5305
▁vaddr	-5306
writeback	-5307
▁24	-5308
▁NF	-5309
▁ag	-5310
capture	-5311
links	-5312
0),	-5313
arity	-5314
sv	-5315
vell	-5316
HC	-5317
▁3);	-5318
logy	-5319
▁Register	-5320
UNKNOWN	-5321
fwnode	-5322
IEEE	-5323
VR	-5324
▁close	-5325
TASK	-5326
-%	-5327
sli	-5328
ured	-5329
▁dlm	-5330
3(	-5331
cdc	-5332
city	-5333
▁musb	-5334
(2,	-5335
rqst	-5336
very	-5337
▁TEST	-5338
namespace	-5339
cor	-5340
objectid	-5341
▁ah	-5342
nprintf	-5343
ulong	-5344
▁va	-5345
▁best	-5346
Mode	-5347
DEP	-5348
▁Do	-5349
refcount	-5350
TLB	-5351
▁global	-5352
ough	-5353
▁SW	-5354
oob	-5355
▁hr	-5356
bile	-5357
▁ss	-5358
▁outb	-5359
▁adjust	-5360
framebuffer	-5361
none	-5362
▁specified	-5363
ARRAY	-5364
pulate	-5365
▁these	-5366
PEG	-5367
mcu	-5368
battery	-5369
▁netlink	-5370
hotplug	-5371
hpd	-5372
leds	-5373
▁Get	-5374
sur	-5375
Length	-5376
Host	-5377
▁cannot	-5378
▁CSR	-5379
SMP	-5380
▁{\	-5381
▁ack	-5382
lies	-5383
lane	-5384
itional	-5385
factor	-5386
▁Don	-5387
sess	-5388
▁they	-5389
ptep	-5390
(0)	-5391
SENSOR	-5392
818	-5393
sof	-5394
modify	-5395
REGISTER	-5396
ose	-5397
xy	-5398
CALE	-5399
tgt	-5400
▁Update	-5401
reclaim	-5402
offs	-5403
reed	-5404
▁RTC	-5405
▁1024,	-5406
RG	-5407
]:	-5408
ffs	-5409
▁To	-5410
rans	-5411
QE	-5412
5:	-5413
Cur	-5414
▁second	-5415
AIF	-5416
SEND	-5417
lcnic	-5418
MAGIC	-5419
▁vnt	-5420
efi	-5421
rssi	-5422
KMS	-5423
▁later	-5424
▁security	-5425
IMM	-5426
▁mnt	-5427
raint	-5428
DES	-5429
32);	-5430
RPC	-5431
break	-5432
▁sockaddr	-5433
▁hold	-5434
DSI	-5435
lack	-5436
counters	-5437
kl	-5438
hwif	-5439
▁twl	-5440
▁FTDI	-5441
▁DEVICE	-5442
▁DRV	-5443
ATED	-5444
quota	-5445
▁iw	-5446
prob	-5447
hwmod	-5448
▁ehci	-5449
mad	-5450
▁opcode	-5451
86:	-5452
LDO	-5453
DEC	-5454
▁terms	-5455
got	-5456
▁("	-5457
VO	-5458
cy	-5459
hwmon	-5460
▁might	-5461
▁reason	-5462
▁API	-5463
COMPLE	-5464
▁about	-5465
sx	-5466
▁channels	-5467
PWM	-5468
sysctl	-5469
sequence	-5470
always	-5471
Can	-5472
iven	-5473
▁multiple	-5474
SND	-5475
▁wiphy	-5476
▁hwm	-5477
limits	-5478
▁Sup	-5479
lex	-5480
▁cmp	-5481
[6	-5482
ARGS	-5483
NORE	-5484
worker	-5485
▁copied	-5486
▁ioremap	-5487
▁Foundation	-5488
▁sdata	-5489
sdma	-5490
renesas	-5491
fuse	-5492
▁DRIVER	-5493
cpuid	-5494
4(	-5495
▁RTL	-5496
COVER	-5497
GI	-5498
▁Playback	-5499
short	-5500
▁asoc	-5501
CAPS	-5502
▁5)	-5503
iomap	-5504
ona	-5505
▁vi	-5506
▁cycle	-5507
SUS	-5508
rot	-5509
vbus	-5510
UDP	-5511
ins	-5512
▁dai	-5513
▁");	-5514
chk	-5515
00;	-5516
LLOC	-5517
▁sky	-5518
▁mdev	-5519
linear	-5520
▁split	-5521
Power	-5522
▁]	-5523
▁nodes	-5524
ILL	-5525
▁Inter	-5526
ORDER	-5527
▁patch	-5528
TOOL	-5529
lt	-5530
fdb	-5531
816	-5532
▁nilfs	-5533
virtual	-5534
▁warning	-5535
▁different	-5536
VIRT	-5537
ulation	-5538
▁feature	-5539
tcon	-5540
capability	-5541
.␍	-5542
POS	-5543
BAND	-5544
▁mtu	-5545
monitor	-5546
pause	-5547
hisi	-5548
▁ia	-5549
kp	-5550
BAD	-5551
edev	-5552
stateid	-5553
rxq	-5554
mclk	-5555
REMO	-5556
mbus	-5557
YPE	-5558
scal	-5559
[2];	-5560
▁word	-5561
ension	-5562
imer	-5563
verbs	-5564
▁fifo	-5565
▁take	-5566
4),	-5567
GAIN	-5568
hctx	-5569
remain	-5570
▁pgd	-5571
SED	-5572
BUILD	-5573
CSUM	-5574
▁RK	-5575
invalidate	-5576
2000	-5577
▁your	-5578
▁&(	-5579
▁csum	-5580
RESP	-5581
diff	-5582
▁vfs	-5583
▁DECLARE	-5584
iting	-5585
▁db	-5586
FRAG	-5587
▁mov	-5588
▁minor	-5589
VED	-5590
▁saa	-5591
▁TRACE	-5592
▁cq	-5593
SAMPLE	-5594
logical	-5595
SELE	-5596
STRING	-5597
saved	-5598
hold	-5599
export	-5600
uv	-5601
▁mount	-5602
▁mux	-5603
▁RCU	-5604
▁mpc	-5605
▁RF	-5606
▁mon	-5607
▁rel	-5608
dif	-5609
xF	-5610
▁family	-5611
▁rk	-5612
2),	-5613
▁gspca	-5614
uV	-5615
yaml	-5616
▁Vol	-5617
LOCKED	-5618
▁received	-5619
▁Un	-5620
gfn	-5621
nvme	-5622
▁crc	-5623
pcidev	-5624
▁vfio	-5625
MIS	-5626
conds	-5627
Par	-5628
▁dummy	-5629
PRES	-5630
▁rout	-5631
GRA	-5632
▁above	-5633
▁poll	-5634
revision	-5635
▁still	-5636
MACH	-5637
IENT	-5638
acquire	-5639
▁present	-5640
ldo	-5641
▁SZ	-5642
ASYNC	-5643
▁nbytes	-5644
stand	-5645
LAT	-5646
PAGES	-5647
unprepare	-5648
hu	-5649
▁band	-5650
ggtt	-5651
45_	-5652
DESCRIPTION	-5653
▁unregister	-5654
▁OUT	-5655
pxa	-5656
PARA	-5657
allocated	-5658
▁tps	-5659
cifs	-5660
before	-5661
tached	-5662
210	-5663
▁rtnl	-5664
▁submit	-5665
Off	-5666
su	-5667
bv	-5668
LAVE	-5669
planes	-5670
▁VCPU	-5671
unlink	-5672
ALG	-5673
500	-5674
68	-5675
NF	-5676
▁%#	-5677
▁tpm	-5678
bpp	-5679
erature	-5680
ffic	-5681
▁kcalloc	-5682
seqno	-5683
TECT	-5684
▁32,	-5685
▁pass	-5686
fork	-5687
UST	-5688
orbell	-5689
ressed	-5690
major	-5691
thing	-5692
3",	-5693
ACTION	-5694
▁mr	-5695
LN	-5696
srq	-5697
▁cred	-5698
psr	-5699
ANK	-5700
checksum	-5701
390	-5702
▁FS	-5703
▁tw	-5704
mouse	-5705
fields	-5706
lue	-5707
COLOR	-5708
▁mgmt	-5709
HD	-5710
rtwdev	-5711
▁Documentation	-5712
▁msr	-5713
▁indio	-5714
▁running	-5715
INK	-5716
erase	-5717
ILED	-5718
AK	-5719
▁ctxt	-5720
ENET	-5721
▁rxrpc	-5722
refs	-5723
▁%02	-5724
57	-5725
agg	-5726
▁options	-5727
connected	-5728
▁pub	-5729
lished	-5730
asd	-5731
enet	-5732
istics	-5733
volatile	-5734
QUER	-5735
▁both	-5736
▁NUM	-5737
ethtool	-5738
▁correct	-5739
▁destroy	-5740
▁voltage	-5741
parameter	-5742
paddr	-5743
]))	-5744
▁dss	-5745
▁(0)	-5746
IQ	-5747
PSMC	-5748
▁dccp	-5749
▁'%	-5750
CLR	-5751
▁VID	-5752
CSI	-5753
rsv	-5754
cent	-5755
sin	-5756
▁hl	-5757
1⁄4	-5758
88_	-5759
Max	-5760
4030_	-5761
xen	-5762
40,	-5763
('	-5764
▁fn	-5765
▁(;	-5766
▁bd	-5767
join	-5768
gpiod	-5769
UID	-5770
▁async	-5771
cgrp	-5772
bias	-5773
▁given	-5774
TG	-5775
TRIGGER	-5776
lied	-5777
_##	-5778
▁mptcp	-5779
▁scatterlist	-5780
warning	-5781
sysc	-5782
DISABLED	-5783
▁plat	-5784
MEMORY	-5785
▁SENSOR	-5786
38	-5787
DEN	-5788
▁Driver	-5789
▁sdio	-5790
LIC	-5791
cessed	-5792
SYSTEM	-5793
▁lockdep	-5794
ppgtt	-5795
OPEN	-5796
FTR	-5797
CIF	-5798
70_	-5799
arger	-5800
▁AM	-5801
fier	-5802
VGA	-5803
▁Se	-5804
branch	-5805
nest	-5806
▁'\0	-5807
apply	-5808
abling	-5809
▁syscall	-5810
THRESH	-5811
DEON	-5812
▁shared	-5813
▁SI	-5814
ENUM	-5815
▁>>=	-5816
bounce	-5817
▁hfi	-5818
resses	-5819
▁BLK	-5820
bmap	-5821
QUERY	-5822
▁ALSA	-5823
▁wacom	-5824
should	-5825
TARGET	-5826
GLOBAL	-5827
▁http	-5828
▁private	-5829
▁response	-5830
▁details	-5831
ki	-5832
PASS	-5833
DY	-5834
▁pins	-5835
IWL	-5836
▁DM	-5837
▁MM	-5838
▁filp	-5839
());	-5840
util	-5841
▁When	-5842
charge	-5843
▁ndev	-5844
PROT	-5845
▁gf	-5846
lines	-5847
ROP	-5848
▁nlattr	-5849
MOUNT	-5850
▁associ	-5851
pmic	-5852
ml	-5853
threads	-5854
▁npages	-5855
▁rds	-5856
CHAR	-5857
csk	-5858
▁internal	-5859
xfrm	-5860
▁area	-5861
leave	-5862
▁returns	-5863
ftrace	-5864
USED	-5865
affinity	-5866
IZ	-5867
resv	-5868
Read	-5869
PREP	-5870
interrupts	-5871
▁CRYPTO	-5872
tstamp	-5873
▁packets	-5874
nvm	-5875
▁auth	-5876
016	-5877
CLEAR	-5878
fm	-5879
▁dout	-5880
ology	-5881
▁mapped	-5882
▁LP	-5883
pha	-5884
▁adap	-5885
locks	-5886
LOOK	-5887
nmi	-5888
prec	-5889
(0);	-5890
▁GEM	-5891
XP	-5892
▁Ex	-5893
▁"0	-5894
▁sr	-5895
body	-5896
▁mmap	-5897
▁argument	-5898
compress	-5899
ahci	-5900
▁zfcp	-5901
phandle	-5902
BSS	-5903
Status	-5904
▁ports	-5905
ratio	-5906
▁written	-5907
Inter	-5908
▁eb	-5909
ONT	-5910
▁);	-5911
memcmp	-5912
SMB	-5913
mobile	-5914
LI	-5915
formats	-5916
▁prop	-5917
pstate	-5918
peg	-5919
ENGINE	-5920
written	-5921
▁assert	-5922
ctlr	-5923
▁Returns	-5924
915->	-5925
lim	-5926
CREATE	-5927
▁ks	-5928
expected	-5929
random	-5930
ordered	-5931
PLUG	-5932
screen	-5933
4000	-5934
▁unit	-5935
▁example	-5936
▁strc	-5937
▁drive	-5938
CRC	-5939
rg	-5940
COMPAT	-5941
▁qlcnic	-5942
835	-5943
_11	-5944
initial	-5945
apb	-5946
▁igb	-5947
▁DEV	-5948
avg	-5949
▁"=	-5950
mcs	-5951
MMIO	-5952
NEED	-5953
▁transport	-5954
sect	-5955
para	-5956
▁aux	-5957
Le	-5958
▁xfer	-5959
devdata	-5960
mada	-5961
[1]);	-5962
▁SPE	-5963
AA	-5964
18,	-5965
▁msi	-5966
properties	-5967
▁Init	-5968
edp	-5969
QUOT	-5970
SERIAL	-5971
▁vmcs	-5972
parents	-5973
4-	-5974
nsec	-5975
Write	-5976
▁xp	-5977
IMX	-5978
DEL	-5979
XA	-5980
acked	-5981
▁iow	-5982
▁FA	-5983
▁rp	-5984
migrate	-5985
▁meson	-5986
▁6)	-5987
mcast	-5988
▁search	-5989
sets	-5990
▁physical	-5991
HAL	-5992
iant	-5993
▁ui	-5994
strto	-5995
▁hist	-5996
SCALE	-5997
sumer	-5998
▁keep	-5999
▁provide	-6000
RN	-6001
final	-6002
oper	-6003
derr	-6004
duct	-6005
LOOKUP	-6006
▁neigh	-6007
PERM	-6008
00000,	-6009
most	-6010
rps	-6011
diag	-6012
nents	-6013
partial	-6014
nn	-6015
Ite	-6016
_2,	-6017
ncmp	-6018
FIXED	-6019
actual	-6020
pv	-6021
extack	-6022
nat	-6023
ddi	-6024
EDGE	-6025
▁errno	-6026
sts	-6027
MIPS	-6028
EPH	-6029
hardware	-6030
▁would	-6031
magic	-6032
rub	-6033
8;	-6034
▁ec	-6035
▁Sh	-6036
▁hard	-6037
▁CIFS	-6038
roadcast	-6039
defined	-6040
▁empty	-6041
seu	-6042
▁frequency	-6043
CG	-6044
▁errors	-6045
▁offsetof	-6046
OPTION	-6047
89_	-6048
ncy	-6049
▁CEPH	-6050
▁FE	-6051
▁ion	-6052
weight	-6053
▁0.	-6054
53_	-6055
▁model	-6056
overlay	-6057
PED	-6058
rng	-6059
HOT	-6060
ubi	-6061
BLE	-6062
ANCE	-6063
BROAD	-6064
▁tsk	-6065
dssdev	-6066
IFTYPE	-6067
volume	-6068
▁gre	-6069
776	-6070
▁sum	-6071
(1)	-6072
▁fh	-6073
,%	-6074
Id	-6075
plic	-6076
TV	-6077
shot	-6078
00},	-6079
hint	-6080
▁napi	-6081
▁TA	-6082
▁wakeup	-6083
TLV	-6084
▁mlog	-6085
hist	-6086
hif	-6087
Port	-6088
▁pud	-6089
COP	-6090
PENDING	-6091
lection	-6092
▁7)	-6093
01_	-6094
▁Move	-6095
▁SCTP	-6096
▁scnprintf	-6097
▁connection	-6098
musb	-6099
MCS	-6100
▁prepare	-6101
lut	-6102
▁sci	-6103
▁dirty	-6104
▁replace	-6105
▁until	-6106
sram	-6107
▁definit	-6108
LAST	-6109
.␌	-6110
possible	-6111
install	-6112
▁ocelot	-6113
▁SEC	-6114
▁oct	-6115
PMU	-6116
Count	-6117
rbd	-6118
mst	-6119
failure	-6120
iver	-6121
STD	-6122
ather	-6123
512	-6124
STORE	-6125
▁SMB	-6126
levels	-6127
:1;	-6128
values	-6129
lvds	-6130
▁(_	-6131
▁ABS	-6132
▁priority	-6133
▁All	-6134
widgets	-6135
winner	-6136
▁CHE	-6137
▁userspace	-6138
xC	-6139
EF	-6140
RMWARE	-6141
FAILURE	-6142
▁FIX	-6143
▁et	-6144
▁CHECK	-6145
well	-6146
▁udp	-6147
▁POWER	-6148
▁MDIO	-6149
▁lm	-6150
smi	-6151
200_	-6152
ICK	-6153
fsb	-6154
▁transaction	-6155
izona	-6156
▁stmmac	-6157
▁40	-6158
80,	-6159
initialized	-6160
tw	-6161
▁spinlock	-6162
[8	-6163
▁Linux	-6164
fck	-6165
idia	-6166
parms	-6167
▁tool	-6168
Buffer	-6169
parm	-6170
▁NOT	-6171
Invalid	-6172
ih	-6173
STAMP	-6174
requests	-6175
phan	-6176
▁dead	-6177
aw	-6178
▁flash	-6179
Time	-6180
requi	-6181
dequeue	-6182
▁Volume	-6183
CLIENT	-6184
ernal	-6185
▁*=	-6186
8723	-6187
cachep	-6188
rement	-6189
▁bfin	-6190
▁msecs	-6191
registers	-6192
▁quirk	-6193
8001_	-6194
vg	-6195
▁14	-6196
mds	-6197
fbc	-6198
04,	-6199
▁Opt	-6200
▁ipc	-6201
sis	-6202
▁pgoff	-6203
READY	-6204
▁mid	-6205
▁rsp	-6206
74	-6207
▁udelay	-6208
DSS	-6209
UVD	-6210
▁apic	-6211
sus	-6212
▁emit	-6213
perm	-6214
mpc	-6215
nfc	-6216
pic	-6217
ifp	-6218
▁svm	-6219
sce	-6220
900	-6221
▁step	-6222
wnd	-6223
VOLT	-6224
PRINTK	-6225
cid	-6226
lif	-6227
NOFS	-6228
ution	-6229
pub	-6230
emu	-6231
>");	-6232
DEST	-6233
▁hal	-6234
▁NLA	-6235
▁decode	-6236
▁raid	-6237
TRIES	-6238
▁exist	-6239
recover	-6240
▁qdisc	-6241
scode	-6242
▁00	-6243
sto	-6244
lector	-6245
iser	-6246
riov	-6247
xxxu	-6248
zx	-6249
Mem	-6250
▁Read	-6251
▁mvm	-6252
ql	-6253
CRYPTO	-6254
camera	-6255
▁WA	-6256
▁bss	-6257
WAY	-6258
trl	-6259
300	-6260
pctl	-6261
▁${	-6262
peed	-6263
(10	-6264
dcb	-6265
▁11	-6266
779	-6267
915,	-6268
SREV	-6269
uplex	-6270
spinlock	-6271
mirror	-6272
▁-1);	-6273
BM	-6274
ITEM	-6275
▁pref	-6276
IRE	-6277
▁parameters	-6278
▁manage	-6279
BANK	-6280
▁msleep	-6281
Rate	-6282
ddev	-6283
barrier	-6284
▁completion	-6285
▁buffers	-6286
LEG	-6287
SELECT	-6288
vcc	-6289
03_	-6290
▁inte	-6291
▁MS	-6292
native	-6293
appen	-6294
mips	-6295
needs	-6296
▁au	-6297
[0])	-6298
plus	-6299
ws	-6300
algo	-6301
alesce	-6302
)]	-6303
▁INFO	-6304
▁TC	-6305
rott	-6306
GENERIC	-6307
▁commit	-6308
VOLUME	-6309
COMMON	-6310
_,	-6311
831	-6312
BCM	-6313
▁ufshcd	-6314
▁hub	-6315
wrap	-6316
linkage	-6317
▁512	-6318
▁otherwise	-6319
phdr	-6320
cdclk	-6321
sport	-6322
ersion	-6323
▁how	-6324
DST	-6325
startup	-6326
▁virtual	-6327
▁afs	-6328
RGB	-6329
rmap	-6330
▁ICE	-6331
▁window	-6332
stems	-6333
INST	-6334
MV	-6335
imm	-6336
VERB	-6337
element	-6338
▁network	-6339
▁alg	-6340
HAVE	-6341
devicetree	-6342
COND	-6343
pb	-6344
▁dcn	-6345
▁ubifs	-6346
▁Mic	-6347
Could	-6348
▁1));	-6349
DF	-6350
VIEW	-6351
WELL	-6352
▁Disable	-6353
DEFER	-6354
REPORT	-6355
000000,	-6356
▁LOG	-6357
xor	-6358
relse	-6359
forman	-6360
▁SCSI	-6361
▁dso	-6362
blks	-6363
distri	-6364
▁Clear	-6365
stderr	-6366
VECTOR	-6367
FFFF	-6368
▁requested	-6369
ob	-6370
▁acc	-6371
formance	-6372
▁below	-6373
▁ADC	-6374
queued	-6375
stm	-6376
ENCE	-6377
mented	-6378
▁supports	-6379
ison	-6380
▁sent	-6381
▁depth	-6382
▁hy	-6383
subdevice	-6384
scription	-6385
Key	-6386
▁bdev	-6387
▁MES	-6388
getlb	-6389
Enable	-6390
vmcs	-6391
▁direction	-6392
GFX	-6393
listen	-6394
pn	-6395
audit	-6396
SPEC	-6397
▁ANY	-6398
▁soft	-6399
▁EXYNOS	-6400
RESERVED	-6401
▁STATIC	-6402
24_	-6403
ARY	-6404
held	-6405
▁nfc	-6406
tran	-6407
Out	-6408
ait	-6409
sclk	-6410
SUPPLY	-6411
8:	-6412
4>;	-6413
▁iowrite	-6414
LIB	-6415
▁1000;	-6416
FIRST	-6417
▁RDMA	-6418
▁null	-6419
addrs	-6420
metric	-6421
BIAS	-6422
▁such	-6423
▁directory	-6424
▁PS	-6425
sst	-6426
PAN	-6427
▁proper	-6428
EXTENT	-6429
▁sdev	-6430
hether	-6431
▁restore	-6432
inv	-6433
▁cookie	-6434
static	-6435
IGNORE	-6436
RESULT	-6437
cer	-6438
▁SR	-6439
ERNAL	-6440
Mic	-6441
registered	-6442
dead	-6443
ADAP	-6444
nop	-6445
help	-6446
populate	-6447
▁0>;	-6448
▁rpcrdma	-6449
flo	-6450
pch	-6451
22_	-6452
NESS	-6453
[7	-6454
63_	-6455
80215	-6456
▁means	-6457
▁Te	-6458
DIF	-6459
▁LIST	-6460
_24	-6461
PW	-6462
▁alignment	-6463
▁caller	-6464
UNC	-6465
MAJ	-6466
▁13	-6467
MGMT	-6468
LOOP	-6469
SYN	-6470
GEM	-6471
script	-6472
cls	-6473
second	-6474
ifindex	-6475
LAKE	-6476
avinci	-6477
tz	-6478
▁dig	-6479
dot	-6480
▁32;	-6481
▁mdio	-6482
ibdev	-6483
▁MESON	-6484
▁vport	-6485
▁like	-6486
constant	-6487
cntl	-6488
capabilities	-6489
Value	-6490
ABORT	-6491
▁RCAR	-6492
(3,	-6493
▁Tx	-6494
RTS	-6495
lld	-6496
▁BRCM	-6497
▁*_	-6498
FM	-6499
RAD	-6500
intc	-6501
▁Input	-6502
nlh	-6503
▁{};	-6504
true	-6505
wk	-6506
▁lru	-6507
CY	-6508
the	-6509
WIN	-6510
8192_	-6511
dram	-6512
iova	-6513
▁mdp	-6514
PRESENT	-6515
▁calls	-6516
▁stripe	-6517
esp	-6518
08,	-6519
qdisc	-6520
▁remaining	-6521
▁argc	-6522
▁EL	-6523
_100	-6524
apture	-6525
hdl	-6526
dax	-6527
isk	-6528
Head	-6529
▁davinci	-6530
▁component	-6531
_80	-6532
▁percpu	-6533
▁SIG	-6534
Unable	-6535
SLAVE	-6536
▁console	-6537
▁tuner	-6538
clientdata	-6539
23_	-6540
LM	-6541
dcache	-6542
Channel	-6543
atermark	-6544
▁happen	-6545
GED	-6546
MEDIA	-6547
SLOT	-6548
atmel	-6549
▁VLAN	-6550
▁Data	-6551
▁place	-6552
Dis	-6553
▁ft	-6554
▁budget	-6555
SUPPORTED	-6556
uni	-6557
maph	-6558
▁pixel	-6559
1000>;	-6560
▁{/*	-6561
pul	-6562
▁cfs	-6563
0>;	-6564
parser	-6565
matches	-6566
000000>;	-6567
▁THE	-6568
▁LM	-6569
UEST	-6570
▁spu	-6571
▁uses	-6572
▁resume	-6573
ratelimit	-6574
▁tda	-6575
_12	-6576
maphore	-6577
▁bar	-6578
her	-6579
ever	-6580
headroom	-6581
▁timespec	-6582
▁MSI	-6583
▁nested	-6584
▁PCM	-6585
▁{}	-6586
▁dl	-6587
sriov	-6588
▁synchron	-6589
carrier	-6590
▁genl	-6591
▁logical	-6592
best	-6593
LICENSE	-6594
crt	-6595
915(	-6596
MINOR	-6597
▁track	-6598
▁SP	-6599
▁iv	-6600
▁ty	-6601
bose	-6602
DOG	-6603
▁maximum	-6604
execute	-6605
LEX	-6606
rix	-6607
▁EEPROM	-6608
unknown	-6609
-2.0	-6610
▁DVB	-6611
xid	-6612
capacity	-6613
fbdev	-6614
▁cfq	-6615
▁snap	-6616
▁iova	-6617
stripes	-6618
0},	-6619
SUM	-6620
SETUP	-6621
quired	-6622
strncmp	-6623
pvt	-6624
LINUX	-6625
HID	-6626
ACY	-6627
▁kmap	-6628
▁tbl	-6629
010	-6630
FAILED	-6631
clr	-6632
▁kern	-6633
nth	-6634
▁cancel	-6635
▁cpus	-6636
inject	-6637
anon	-6638
pcs	-6639
▁published	-6640
evi	-6641
▁way	-6642
Se	-6643
▁12,	-6644
▁intr	-6645
▁Convert	-6646
brcm	-6647
clusive	-6648
qi	-6649
▁SM	-6650
wire	-6651
COPY	-6652
around	-6653
6:	-6654
plice	-6655
▁post	-6656
HO	-6657
burst	-6658
lport	-6659
700	-6660
expr	-6661
lake	-6662
CX	-6663
netlink	-6664
▁BNX	-6665
balance	-6666
FIRMWARE	-6667
pM	-6668
itle	-6669
▁idr	-6670
SYSCALL	-6671
▁TIM	-6672
oh	-6673
items	-6674
_20	-6675
extents	-6676
ECC	-6677
qla	-6678
skcipher	-6679
dsc	-6680
ea	-6681
99	-6682
DV	-6683
distribute	-6684
sca	-6685
fall	-6686
SCHED	-6687
▁added	-6688
▁dup	-6689
schemas	-6690
▁most	-6691
30,	-6692
UV	-6693
▁what	-6694
ANA	-6695
CRY	-6696
▁hwmon	-6697
▁tracing	-6698
unpin	-6699
▁mcp	-6700
transmit	-6701
progress	-6702
UMP	-6703
▁AUD	-6704
NOTIFY	-6705
Up	-6706
DUMP	-6707
older	-6708
▁token	-6709
▁attach	-6710
4->	-6711
PLUS	-6712
unmask	-6713
▁xprt	-6714
rfkill	-6715
butt	-6716
attributes	-6717
▁gfx	-6718
▁fsc	-6719
▁hook	-6720
ks	-6721
▁ODM	-6722
▁fsnotify	-6723
5)	-6724
override	-6725
TXD	-6726
THREAD	-6727
adj	-6728
▁fan	-6729
button	-6730
AVE	-6731
1002,	-6732
▁IPPROTO	-6733
constraint	-6734
At	-6735
▁VIRT	-6736
▁substream	-6737
digest	-6738
▁touch	-6739
mhz	-6740
▁red	-6741
dv	-6742
wp	-6743
▁frames	-6744
▁sas	-6745
▁BO	-6746
▁huge	-6747
SUSPEND	-6748
▁journal	-6749
ton	-6750
▁vdev	-6751
LAB	-6752
▁TRIG	-6753
▁fields	-6754
▁buff	-6755
PINCTRL	-6756
▁0:	-6757
method	-6758
SPC	-6759
timi	-6760
eval	-6761
▁enc	-6762
.0	-6763
die	-6764
tpg	-6765
▁ic	-6766
","	-6767
POST	-6768
sctp	-6769
ression	-6770
),\	-6771
bandwidth	-6772
▁tick	-6773
DIRTY	-6774
vecs	-6775
600_	-6776
▁backlight	-6777
maybe	-6778
TD	-6779
tps	-6780
argp	-6781
▁actual	-6782
▁DSI	-6783
qdev	-6784
100,	-6785
▁̈	-6786
▁leg	-6787
unlocked	-6788
BP	-6789
▁adc	-6790
cpg	-6791
▁ob	-6792
ATI	-6793
Items	-6794
▁whether	-6795
ahb	-6796
▁sen	-6797
){	-6798
mdp	-6799
FORM	-6800
tract	-6801
▁sch	-6802
amma	-6803
RETRY	-6804
▁Power	-6805
▁initialization	-6806
hole	-6807
blkcipher	-6808
pnt	-6809
▁gpiochip	-6810
▁CA	-6811
scm	-6812
prod	-6813
▁ranges	-6814
sound	-6815
sata	-6816
%04	-6817
asan	-6818
refresh	-6819
KILL	-6820
touch	-6821
atom	-6822
▁dec	-6823
▁pmu	-6824
nbytes	-6825
NING	-6826
adding	-6827
inal	-6828
aa	-6829
▁es	-6830
▁2:	-6831
▁abort	-6832
▁PG	-6833
▁color	-6834
EEPROM	-6835
▁bug	-6836
stride	-6837
trac	-6838
physical	-6839
yo	-6840
arted	-6841
VP	-6842
pitch	-6843
▁gc	-6844
ribu	-6845
under	-6846
ustre	-6847
geo	-6848
anti	-6849
▁daddr	-6850
dccp	-6851
_7	-6852
consistent	-6853
rength	-6854
COD	-6855
gy	-6856
▁wq	-6857
4",	-6858
alcon	-6859
calib	-6860
202	-6861
alignment	-6862
blob	-6863
▁eeh	-6864
[5]	-6865
▁vq	-6866
grity	-6867
licate	-6868
▁IFLA	-6869
mss	-6870
▁redistribute	-6871
coalesce	-6872
gap	-6873
▁hotplug	-6874
▁MEM	-6875
uar	-6876
▁intf	-6877
COUNTER	-6878
ARG	-6879
SSI	-6880
associ	-6881
("\	-6882
SMC	-6883
:`	-6884
(&(	-6885
cture	-6886
3>;	-6887
▁TG	-6888
▁GIC	-6889
thresh	-6890
TRAP	-6891
kiocb	-6892
duration	-6893
ool	-6894
13_	-6895
edge	-6896
syms	-6897
▁DAC	-6898
iotlb	-6899
CLA	-6900
tooth	-6901
▁TODO	-6902
inted	-6903
▁FIFO	-6904
ITION	-6905
▁preempt	-6906
▁previous	-6907
unds	-6908
▁clust	-6909
platdata	-6910
▁CLOCK	-6911
▁paddr	-6912
ISR	-6913
▁hcd	-6914
▁sto	-6915
▁bl	-6916
vectors	-6917
▁vsp	-6918
▁mbox	-6919
00000000,	-6920
baud	-6921
fat	-6922
(0),	-6923
completed	-6924
DROP	-6925
Address	-6926
▁lbs	-6927
600	-6928
▁yet	-6929
▁interval	-6930
▁vhost	-6931
~~~~	-6932
resol	-6933
points	-6934
MIXER	-6935
git	-6936
▁asmlinkage	-6937
doc	-6938
itable	-6939
Init	-6940
EXIST	-6941
tic	-6942
partition	-6943
▁vxlan	-6944
scoder	-6945
▁detected	-6946
FIN	-6947
713	-6948
roduce	-6949
Mask	-6950
RCU	-6951
PRIO	-6952
▁instruction	-6953
ja	-6954
keep	-6955
▁IDE	-6956
▁associated	-6957
VAR	-6958
mcb	-6959
▁32)	-6960
▁vha	-6961
enqueue	-6962
ELE	-6963
▁simp	-6964
phase	-6965
dist	-6966
▁Only	-6967
hists	-6968
ination	-6969
iscsi	-6970
pskb	-6971
OBJECT	-6972
▁rval	-6973
cach	-6974
▁isp	-6975
clnt	-6976
offsets	-6977
HLEN	-6978
mix	-6979
0\	-6980
VOLTAGE	-6981
STRU	-6982
▁safe	-6983
LIT	-6984
▁nic	-6985
acc	-6986
▁refcount	-6987
samsung	-6988
equal	-6989
711	-6990
bdi	-6991
▁BUILD	-6992
Config	-6993
uth	-6994
▁auto	-6995
15(	-6996
vation	-6997
consumer	-6998
13,	-6999
@1	-7000
PGA	-7001
ulated	-7002
vided	-7003
UTEX	-7004
▁method	-7005
CLOSE	-7006
▁10;	-7007
hier	-7008
SAVE	-7009
▁operations	-7010
▁IR	-7011
▁shadow	-7012
▁ntohs	-7013
IOD	-7014
cmds	-7015
necessary	-7016
▁cam	-7017
[];	-7018
ndis	-7019
▁recv	-7020
▁fast	-7021
▁ram	-7022
numa	-7023
▁due	-7024
SF	-7025
6(	-7026
CQ	-7027
SAS	-7028
pcr	-7029
▁pn	-7030
▁ldr	-7031
ICH	-7032
OFDM	-7033
04_	-7034
Table	-7035
FAST	-7036
▁sof	-7037
aps	-7038
GRP	-7039
RECOVER	-7040
orture	-7041
▁mmio	-7042
oose	-7043
▁cdev	-7044
718	-7045
chn	-7046
▁did	-7047
PMD	-7048
▁nh	-7049
PMC	-7050
▁requests	-7051
oi	-7052
((__	-7053
pmi	-7054
ae	-7055
EVT	-7056
trim	-7057
▁GCC	-7058
surface	-7059
▁PRINT	-7060
UCH	-7061
writeb	-7062
tasklet	-7063
fattr	-7064
▁height	-7065
▁sysctl	-7066
descs	-7067
▁sequence	-7068
CRYPT	-7069
2400	-7070
oclass	-7071
▁pcmcia	-7072
915/	-7073
dpcd	-7074
▁psp	-7075
cow	-7076
RXD	-7077
▁overflow	-7078
mipi	-7079
psp	-7080
500_	-7081
nm	-7082
CLGE	-7083
dirent	-7084
▁evt	-7085
▁kref	-7086
130	-7087
▁hs	-7088
required	-7089
▁Support	-7090
▁gpiod	-7091
PARM	-7092
▁ethernet	-7093
▁̄	-7094
ular	-7095
shrink	-7096
▁memcg	-7097
▁HOST	-7098
TIF	-7099
▁push	-7100
gh	-7101
58	-7102
▁app	-7103
▁17	-7104
pose	-7105
ERE	-7106
▁route	-7107
▁WAR	-7108
Packet	-7109
▁DWC	-7110
ipath	-7111
ommand	-7112
sizes	-7113
IFMT	-7114
ceiver	-7115
▁strcpy	-7116
▁assign	-7117
kfd	-7118
▁US	-7119
ABS	-7120
CFS	-7121
▁ix	-7122
BOX	-7123
SDIO	-7124
VCPU	-7125
UCODE	-7126
▁allowed	-7127
OX	-7128
arb	-7129
▁items	-7130
▁changes	-7131
admin	-7132
▁dn	-7133
▁Control	-7134
▁RREG	-7135
802154_	-7136
erated	-7137
SWAP	-7138
▁ppc	-7139
specific	-7140
▁ax	-7141
▁cause	-7142
▁cxl	-7143
▁ignore	-7144
2]	-7145
crit	-7146
expires	-7147
▁24)	-7148
union	-7149
▁aq	-7150
▁cell	-7151
zu	-7152
eve	-7153
mpu	-7154
AE	-7155
▁WARRAN	-7156
▁ecc	-7157
sdvo	-7158
rts	-7159
▁kfd	-7160
▁say	-7161
COMPLETE	-7162
asp	-7163
sio	-7164
▁FB	-7165
▁Rx	-7166
▁atom	-7167
▁legacy	-7168
67	-7169
6;	-7170
PING	-7171
▁macro	-7172
▁timestamp	-7173
ustom	-7174
▁There	-7175
kbd	-7176
7615_	-7177
▁---	-7178
▁unmap	-7179
▁LCD	-7180
LEGACY	-7181
▁direct	-7182
▁service	-7183
▁kthread	-7184
XIO	-7185
MAJOR	-7186
▁iounmap	-7187
RP	-7188
');	-7189
storage	-7190
▁useful	-7191
▁contains	-7192
':	-7193
▁additional	-7194
termine	-7195
loaded	-7196
▁EM	-7197
▁OFF	-7198
merge	-7199
GMAC	-7200
pdu	-7201
www	-7202
▁ident	-7203
▁coda	-7204
▁<<=	-7205
▁reading	-7206
BW	-7207
PLAT	-7208
▁resources	-7209
wlc	-7210
INV	-7211
▁ATTR	-7212
charger	-7213
LVL	-7214
▁ssi	-7215
▁SKB	-7216
▁2),	-7217
ALI	-7218
▁opts	-7219
▁10);	-7220
▁reserve	-7221
▁cla	-7222
ising	-7223
▁rev	-7224
▁0));	-7225
8994_	-7226
▁folio	-7227
▁dmaengine	-7228
2835_	-7229
▁fwnode	-7230
1"	-7231
▁aligned	-7232
▁{0,	-7233
strings	-7234
▁micro	-7235
▁ntohl	-7236
accept	-7237
0000>;	-7238
instr	-7239
osb	-7240
0->	-7241
▁5;	-7242
▁radix	-7243
▁su	-7244
paa	-7245
1/	-7246
]));	-7247
▁mfd	-7248
pkts	-7249
▁indicate	-7250
▁xg	-7251
▁panic	-7252
▁Mode	-7253
green	-7254
pkey	-7255
▁044	-7256
▁win	-7257
▁td	-7258
▁reply	-7259
OND	-7260
PCS	-7261
isa	-7262
▁prefix	-7263
Byte	-7264
kprobe	-7265
MTD	-7266
▁RATE	-7267
ole	-7268
usbdev	-7269
cu	-7270
▁SMP	-7271
gart	-7272
iler	-7273
▁diff	-7274
8.	-7275
▁Out	-7276
▁Lo	-7277
MHZ	-7278
PORTS	-7279
_2(	-7280
▁FC	-7281
▁tlb	-7282
▁octeon	-7283
ocelot	-7284
DID	-7285
tenr	-7286
yle	-7287
▁IW	-7288
DEAD	-7289
665	-7290
mfc	-7291
Ser	-7292
slow	-7293
5640_	-7294
-+	-7295
▁Handle	-7296
eader	-7297
kern	-7298
osc	-7299
▁VF	-7300
prime	-7301
anted	-7302
▁connected	-7303
URN	-7304
ceph	-7305
tasks	-7306
MEL	-7307
hdrlen	-7308
ignore	-7309
▁Error	-7310
PARENT	-7311
ln	-7312
MPU	-7313
▁SOCK	-7314
▁vgic	-7315
▁aa	-7316
ISING	-7317
▁Int	-7318
▁WITH	-7319
SPIN	-7320
lier	-7321
▁MAP	-7322
eax	-7323
tpl	-7324
GRE	-7325
tom	-7326
gative	-7327
CCK	-7328
routes	-7329
▁blocksize	-7330
▁documentation	-7331
have	-7332
▁routine	-7333
▁locked	-7334
pattern	-7335
CTS	-7336
REGION	-7337
doorbell	-7338
▁ie	-7339
▁ima	-7340
():	-7341
IRQS	-7342
LR	-7343
▁12)	-7344
parate	-7345
▁FIXME	-7346
mute	-7347
▁uvc	-7348
▁renesas	-7349
▁resets	-7350
rtw	-7351
965_	-7352
readed	-7353
divider	-7354
fq	-7355
emulate	-7356
clkdm	-7357
▁CD	-7358
))))	-7359
rease	-7360
++);	-7361
eser	-7362
GM	-7363
evf	-7364
▁processor	-7365
▁stand	-7366
00:	-7367
ained	-7368
idi	-7369
▁settings	-7370
coding	-7371
▁unnecessary	-7372
10)	-7373
▁{.	-7374
ULAR	-7375
pmlme	-7376
chr	-7377
ioapic	-7378
words	-7379
ient	-7380
▁evlist	-7381
▁WL	-7382
.*	-7383
hest	-7384
imed	-7385
▁10)	-7386
ua	-7387
gas	-7388
6);	-7389
▁gpa	-7390
ldev	-7391
27_	-7392
▁vmbus	-7393
unable	-7394
▁Config	-7395
▁removed	-7396
ALU	-7397
PREFIX	-7398
XI	-7399
▁ohci	-7400
samples	-7401
eu	-7402
▁1];	-7403
otify	-7404
▁WMI	-7405
▁prio	-7406
▁htonl	-7407
ICY	-7408
▁TASK	-7409
resched	-7410
▁/=	-7411
▁currently	-7412
▁uid	-7413
disks	-7414
▁kunmap	-7415
▁registered	-7416
ireless	-7417
▁ofs	-7418
52_	-7419
pended	-7420
mtk	-7421
vga	-7422
▁partition	-7423
▁CPUs	-7424
PECT	-7425
▁mvpp	-7426
playback	-7427
chiq	-7428
span	-7429
▁segment	-7430
▁MTK	-7431
▁cdns	-7432
▁busy	-7433
SQ	-7434
VBInfo	-7435
:0	-7436
▁messages	-7437
LT	-7438
member	-7439
▁once	-7440
Offset	-7441
▁BSS	-7442
shm	-7443
▁saved	-7444
▁big	-7445
▁gra	-7446
Th	-7447
tags	-7448
duplex	-7449
▁timing	-7450
(4,	-7451
PB	-7452
▁leak	-7453
LANK	-7454
▁Page	-7455
▁attrs	-7456
▁LL	-7457
lify	-7458
ACON	-7459
##_	-7460
EPROBE	-7461
deleg	-7462
ALLOW	-7463
uevent	-7464
▁gic	-7465
▁vdd	-7466
GUEST	-7467
PLANE	-7468
RELE	-7469
undle	-7470
encap	-7471
integer	-7472
rvu	-7473
orphan	-7474
QUOTA	-7475
▁DATA	-7476
STEP	-7477
splice	-7478
▁OCP	-7479
Bo	-7480
▁SOF	-7481
icsk	-7482
decrypt	-7483
ility	-7484
\"	-7485
cycles	-7486
cat	-7487
▁qe	-7488
▁sign	-7489
▁layer	-7490
twl	-7491
gpa	-7492
▁hrtimer	-7493
PART	-7494
hca	-7495
logic	-7496
COR	-7497
9)	-7498
ipa	-7499
▁BITS	-7500
FTA	-7501
▁PP	-7502
spdif	-7503
▁trap	-7504
▁owner	-7505
ENOSPC	-7506
####	-7507
▁fsi	-7508
cli	-7509
qspi	-7510
▁bound	-7511
loopback	-7512
ear	-7513
▁meta	-7514
▁BE	-7515
▁argv	-7516
▁every	-7517
List	-7518
▁scr	-7519
▁xlog	-7520
position	-7521
▁their	-7522
rem	-7523
RESUME	-7524
▁cont	-7525
poration	-7526
▁ipa	-7527
▁within	-7528
visible	-7529
tile	-7530
wind	-7531
locate	-7532
isc	-7533
▁EFI	-7534
kmem	-7535
append	-7536
840_	-7537
".	-7538
DDR	-7539
aker	-7540
▁unknown	-7541
▁names	-7542
▁cros	-7543
51	-7544
lanes	-7545
▁threshold	-7546
OTG	-7547
fec	-7548
1105_	-7549
icmp	-7550
▁udev	-7551
sysclk	-7552
ont	-7553
▁detect	-7554
UTDOWN	-7555
▁lan	-7556
▁cy	-7557
ORKAGE	-7558
TIMING	-7559
HORKAGE	-7560
ARP	-7561
IER	-7562
nxt	-7563
▁Val	-7564
ufs	-7565
▁MMU	-7566
zones	-7567
membase	-7568
▁Corporation	-7569
8),	-7570
PAUSE	-7571
▁restart	-7572
▁never	-7573
▁PWM	-7574
▁ipo	-7575
▁vendor	-7576
PIO	-7577
VMX	-7578
▁*@	-7579
▁checks	-7580
provider	-7581
CONST	-7582
probes	-7583
guid	-7584
03,	-7585
TEXT	-7586
001	-7587
share	-7588
ony	-7589
Int	-7590
▁cursor	-7591
iB	-7592
overflow	-7593
▁MED	-7594
hex	-7595
▁migrate	-7596
ICS	-7597
▁buflen	-7598
▁notify	-7599
cdb	-7600
▁vt	-7601
PLAY	-7602
▁text	-7603
FIXUP	-7604
rtlpriv	-7605
▁kill	-7606
▁waiting	-7607
▁pnfs	-7608
▁gpmc	-7609
devinit	-7610
▁memblock	-7611
▁NFP	-7612
▁enough	-7613
ahash	-7614
▁tools	-7615
▁jz	-7616
rpm	-7617
RUNNING	-7618
generation	-7619
>>	-7620
ONA	-7621
GTT	-7622
▁freed	-7623
▁oc	-7624
▁batch	-7625
▁dio	-7626
oling	-7627
▁VIDE	-7628
undef	-7629
▁pgprot	-7630
▁ptp	-7631
pw	-7632
RSP	-7633
▁MIN	-7634
▁radio	-7635
▁comment	-7636
ENOT	-7637
▁VIDEO	-7638
ENXIO	-7639
▁saddr	-7640
▁cluster	-7641
mbx	-7642
▁baud	-7643
enna	-7644
▁tcon	-7645
▁TPS	-7646
▁stor	-7647
▁exception	-7648
dsa	-7649
▁UP	-7650
BIND	-7651
shash	-7652
variant	-7653
CLU	-7654
truncate	-7655
Ex	-7656
▁~(1	-7657
▁know	-7658
▁quot	-7659
vxlan	-7660
dh	-7661
htt	-7662
basic	-7663
SSP	-7664
▁wrong	-7665
▁RADEON	-7666
tex	-7667
freeze	-7668
▁distribu	-7669
SHORT	-7670
ei	-7671
dtsi	-7672
▁6;	-7673
optional	-7674
ddc	-7675
gro	-7676
▁fid	-7677
▁warnings	-7678
MULT	-7679
ants	-7680
EMUL	-7681
thrott	-7682
acct	-7683
▁CC	-7684
taging	-7685
▁os	-7686
▁STATUS	-7687
same	-7688
img	-7689
*)	-7690
HOTPLUG	-7691
▁icmp	-7692
initcall	-7693
▁064	-7694
▁AES	-7695
dispatch	-7696
[3];	-7697
▁9,	-7698
luetooth	-7699
TB	-7700
btcoex	-7701
broadcast	-7702
could	-7703
AU	-7704
oom	-7705
808	-7706
asure	-7707
(2)	-7708
▁mce	-7709
▁Staging	-7710
SERDES	-7711
▁AUT	-7712
GENMASK	-7713
▁hwif	-7714
APPLE	-7715
deferred	-7716
8188	-7717
px	-7718
()␝	-7719
mce	-7720
inodes	-7721
41_	-7722
MTU	-7723
PHA	-7724
pga	-7725
To	-7726
▁memp	-7727
▁mxs	-7728
80211:	-7729
xA	-7730
dux	-7731
▁EVENT	-7732
80000000	-7733
▁LE	-7734
cmpxchg	-7735
▁directly	-7736
)"	-7737
▁la	-7738
heap	-7739
▁vsi	-7740
EPERM	-7741
ETIME	-7742
hb	-7743
▁dce	-7744
▁crypt	-7745
pgtable	-7746
▁ld	-7747
vers	-7748
▁calling	-7749
▁Bo	-7750
itr	-7751
▁^=	-7752
genpd	-7753
DETECT	-7754
dom	-7755
lba	-7756
▁tunnel	-7757
ceed	-7758
HARD	-7759
▁IOMMU	-7760
xE	-7761
vin	-7762
▁fimc	-7763
which	-7764
19,	-7765
rus	-7766
▁SG	-7767
phone	-7768
▁query	-7769
▁CL	-7770
ddata	-7771
HANDLE	-7772
▁bi	-7773
RTL	-7774
[],	-7775
)/*	-7776
▁prevent	-7777
▁lcd	-7778
▁clone	-7779
stopped	-7780
LNK	-7781
EMPTY	-7782
stab	-7783
MF	-7784
▁pwr	-7785
sdhci	-7786
rport	-7787
eswitch	-7788
▁Max	-7789
▁ins	-7790
INTERVAL	-7791
▁DEBUGFS	-7792
PERIOD	-7793
MAY	-7794
verse	-7795
ENCY	-7796
outp	-7797
manage	-7798
(((	-7799
rib	-7800
▁iomap	-7801
threaded	-7802
▁fm	-7803
▁dpu	-7804
▁another	-7805
NXT	-7806
▁DIS	-7807
VDS	-7808
▁MEDIA	-7809
ini	-7810
pop	-7811
iir	-7812
ENDED	-7813
press	-7814
▁validate	-7815
▁TUN	-7816
▁look	-7817
Event	-7818
49	-7819
▁addresses	-7820
mcp	-7821
▁BRCMF	-7822
▁rvu	-7823
▁cre	-7824
▁Op	-7825
▁'\0';	-7826
trylock	-7827
CRTC	-7828
visor	-7829
smb	-7830
SOCK	-7831
sctx	-7832
]),	-7833
▁STM	-7834
▁provided	-7835
▁external	-7836
inx	-7837
▁pmc	-7838
tmr	-7839
ibm	-7840
ross	-7841
▁edid	-7842
▁headers	-7843
menu	-7844
midi	-7845
mostly	-7846
▁least	-7847
DOUT	-7848
NETDEV	-7849
▁rep	-7850
FLG	-7851
vidioc	-7852
▁tasklet	-7853
▁Mixer	-7854
▁Failed	-7855
▁64,	-7856
▁IF	-7857
GHZ	-7858
▁large	-7859
vertising	-7860
RAP	-7861
▁CM	-7862
recla	-7863
dmabuf	-7864
[2],	-7865
NEXT	-7866
blocked	-7867
gre	-7868
tek	-7869
▁skcipher	-7870
▁wdt	-7871
VERT	-7872
pipes	-7873
▁"../	-7874
sep	-7875
orted	-7876
train	-7877
▁misc	-7878
ished	-7879
WIFI	-7880
kb	-7881
▁ipu	-7882
rwsem	-7883
halt	-7884
vmw	-7885
tplg	-7886
▁nlh	-7887
CPUS	-7888
router	-7889
▁race	-7890
DEPTH	-7891
▁lines	-7892
nskb	-7893
TUNER	-7894
writew	-7895
State	-7896
wilc	-7897
refcnt	-7898
ZONE	-7899
_40	-7900
▁cons	-7901
▁eeprom	-7902
ENTRIES	-7903
▁1024	-7904
▁OV	-7905
NOPM	-7906
ILC	-7907
▁types	-7908
uninit	-7909
▁checksum	-7910
syscon	-7911
SPRN	-7912
▁passed	-7913
▁XFRM	-7914
fpga	-7915
▁QETH	-7916
gvt	-7917
▁vidioc	-7918
MOV	-7919
hwirq	-7920
▁maint	-7921
contain	-7922
PRIOR	-7923
gpr	-7924
▁What	-7925
xfe	-7926
▁shrink	-7927
AO	-7928
AES	-7929
dynamic	-7930
▁Sy	-7931
cesses	-7932
forms	-7933
▁phba	-7934
MUTEX	-7935
▁tt	-7936
150_	-7937
MQ	-7938
▁ot	-7939
▁depen	-7940
cfqq	-7941
▁255	-7942
▁mii	-7943
compare	-7944
VEC	-7945
▁DEFAULT	-7946
_802	-7947
▁qc	-7948
Control	-7949
▁HV	-7950
Frame	-7951
proxy	-7952
▁kobj	-7953
POLICY	-7954
plicit	-7955
bbp	-7956
mps	-7957
scs	-7958
NG	-7959
3),	-7960
▁slots	-7961
ighest	-7962
deli	-7963
▁gp	-7964
▁inv	-7965
QDL	-7966
KM	-7967
SECTOR	-7968
zy	-7969
▁account	-7970
kref	-7971
▁HCLGE	-7972
▁You	-7973
▁SS	-7974
"));	-7975
CIPH	-7976
▁FIT	-7977
drain	-7978
28_	-7979
CURRENT	-7980
ark	-7981
▁css	-7982
NI	-7983
ality	-7984
▁ok	-7985
▁rxe	-7986
▁wqe	-7987
2))	-7988
6->	-7989
mesh	-7990
pgdat	-7991
PRESS	-7992
▁</	-7993
IZONA	-7994
▁hists	-7995
▁Write	-7996
▁alter	-7997
llc	-7998
▁MER	-7999
▁VI	-8000
XFER	-8001
▁PART	-8002
AQ	-8003
uff	-8004
Full	-8005
▁mhi	-8006
▁IPV	-8007
CIPHER	-8008
cop	-8009
▁double	-8010
▁maxItems	-8011
▁transmit	-8012
▁sst	-8013
adjusted	-8014
day	-8015
ggle	-8016
▁caps	-8017
▁aead	-8018
unbind	-8019
llseek	-8020
▁assigned	-8021
pq	-8022
▁ei	-8023
minate	-8024
▁ensure	-8025
ifa	-8026
ovl	-8027
BEACON	-8028
3000	-8029
▁well	-8030
▁NVME	-8031
139	-8032
24,	-8033
CHG	-8034
▁(&	-8035
npages	-8036
srv	-8037
strdup	-8038
pblk	-8039
pts	-8040
▁BTN	-8041
▁pblk	-8042
▁locking	-8043
▁multi	-8044
ACL	-8045
CHANGED	-8046
mw	-8047
transcoder	-8048
▁hu	-8049
alpha	-8050
▁vlv	-8051
▁EP	-8052
CEP	-8053
▁lane	-8054
rcar	-8055
watch	-8056
▁PWR	-8057
▁bfa	-8058
RECORD	-8059
▁successful	-8060
nvram	-8061
▁(2	-8062
▁ccw	-8063
strength	-8064
Me	-8065
parts	-8066
▁gpios	-8067
AIL	-8068
nouveau	-8069
▁VIRTIO	-8070
▁leaf	-8071
▁mth	-8072
serv	-8073
▁mss	-8074
GSO	-8075
POSE	-8076
▁ready	-8077
300_	-8078
pgoff	-8079
WIND	-8080
KEN	-8081
recalc	-8082
DAIFMT	-8083
▁insert	-8084
iso	-8085
CHAIN	-8086
ppos	-8087
alled	-8088
BAT	-8089
▁MPT	-8090
xample	-8091
banks	-8092
cstate	-8093
▁pnp	-8094
▁),	-8095
▁9)	-8096
▁2))	-8097
▁Allow	-8098
▁normal	-8099
▁MB	-8100
FLASH	-8101
TOUCH	-8102
RSS	-8103
digital	-8104
------------	-8105
▁(1<<	-8106
▁SMC	-8107
▁drvdata	-8108
txen	-8109
▁special	-8110
DEFINE	-8111
▁bw	-8112
parameters	-8113
WC	-8114
sockopt	-8115
FAN	-8116
watermark	-8117
▁strl	-8118
MHz	-8119
▁wb	-8120
RDMA	-8121
uler	-8122
▁tls	-8123
210_	-8124
ALIGNED	-8125
pur	-8126
▁kiocb	-8127
▁CFG	-8128
▁many	-8129
beat	-8130
RIGHT	-8131
_25	-8132
confi	-8133
▁AB	-8134
▁Per	-8135
IIO	-8136
▁REGULATOR	-8137
▁EFX	-8138
▁HAVE	-8139
gcc	-8140
SIGNAL	-8141
REAL	-8142
▁ALC	-8143
Buf	-8144
▁handled	-8145
PRIORITY	-8146
hdcp	-8147
IRUSR	-8148
▁beacon	-8149
TURE	-8150
URPOSE	-8151
case	-8152
▁iocb	-8153
▁ul	-8154
VIDIA	-8155
33_	-8156
▁configure	-8157
▁brelse	-8158
0002	-8159
▁held	-8160
memcpy	-8161
▁Controller	-8162
zer	-8163
parc	-8164
gene	-8165
Ar	-8166
PROP	-8167
▁rename	-8168
osuspend	-8169
rxd	-8170
dissector	-8171
rproc	-8172
▁member	-8173
_4_	-8174
▁mar	-8175
ipheral	-8176
strtoul	-8177
normal	-8178
▁ioread	-8179
MPEG	-8180
asid	-8181
Lo	-8182
qmp	-8183
WB	-8184
orith	-8185
ena	-8186
0000)	-8187
tact	-8188
RADIO	-8189
▁These	-8190
▁ipoib	-8191
▁ptep	-8192
0000);	-8193
▁pv	-8194
▁configured	-8195
je	-8196
▁MPI	-8197
tconn	-8198
▁FLAG	-8199
TRACK	-8200
retries	-8201
▁visor	-8202
SKIP	-8203
▁buil	-8204
▁ibmv	-8205
rypted	-8206
mes	-8207
▁EN	-8208
SES	-8209
dict	-8210
SUN	-8211
nfsd	-8212
margin	-8213
topology	-8214
▁Example	-8215
plication	-8216
▁sectors	-8217
SECTION	-8218
▁groups	-8219
▁Required	-8220
6000_	-8221
decoder	-8222
CONNECTED	-8223
big	-8224
trb	-8225
WITH	-8226
▁annot	-8227
mdsc	-8228
CGROUP	-8229
mailbox	-8230
14_	-8231
▁CUR	-8232
▁sense	-8233
actions	-8234
▁edac	-8235
1⁄2	-8236
lapic	-8237
▁primary	-8238
[16	-8239
REPLY	-8240
idate	-8241
sort	-8242
htc	-8243
eserved	-8244
tn	-8245
▁isn	-8246
7915_	-8247
▁ARIZONA	-8248
▁PA	-8249
IOPAD	-8250
▁wlc	-8251
lvl	-8252
lid	-8253
rip	-8254
readdir	-8255
▁binding	-8256
echo	-8257
▁clocksource	-8258
▁SMU	-8259
▁sma	-8260
gating	-8261
CEPTION	-8262
DONT	-8263
indirect	-8264
tso	-8265
▁>;	-8266
File	-8267
nali	-8268
▁commands	-8269
▁VIDIOC	-8270
▁activ	-8271
▁proble	-8272
▁sq	-8273
ante	-8274
▁FITNESS	-8275
▁hdrlen	-8276
fsi	-8277
▁pk	-8278
supplies	-8279
txd	-8280
mpling	-8281
Name	-8282
more	-8283
▁MERCHAN	-8284
rn	-8285
emp	-8286
hes	-8287
▁<1	-8288
dtb	-8289
▁writeback	-8290
sam	-8291
▁phydev	-8292
dyn	-8293
▁small	-8294
2388	-8295
ybus	-8296
▁sja	-8297
streams	-8298
aggr	-8299
▁pcpu	-8300
BLOCKS	-8301
undant	-8302
TABILITY	-8303
_88	-8304
reo	-8305
▁fra	-8306
igration	-8307
THRESHOLD	-8308
▁completed	-8309
using	-8310
▁vga	-8311
110_	-8312
.␝	-8313
rules	-8314
NAT	-8315
▁MERCHANTABILITY	-8316
CODER	-8317
demod	-8318
▁finish	-8319
SHUTDOWN	-8320
TUNNEL	-8321
iry	-8322
ILOCK	-8323
uptodate	-8324
▁dynamic	-8325
▁endif	-8326
QUAD	-8327
▁loc	-8328
segments	-8329
oneg	-8330
cflag	-8331
:/	-8332
rename	-8333
ahead	-8334
ddy	-8335
preempt	-8336
▁writing	-8337
OVERR	-8338
▁cached	-8339
rnp	-8340
SERV	-8341
expect	-8342
rdp	-8343
▁slab	-8344
mhi	-8345
rockchip	-8346
▁32-	-8347
▁TWL	-8348
vio	-8349
▁END	-8350
▁std	-8351
▁mail	-8352
▁tests	-8353
32));	-8354
ICULAR	-8355
▁corresp	-8356
384	-8357
spu	-8358
obd	-8359
▁scale	-8360
sqe	-8361
7134_	-8362
▁PURPOSE	-8363
callchain	-8364
▁PARTICULAR	-8365
TED	-8366
▁APIC	-8367
vars	-8368
ppc	-8369
▁apply	-8370
DRAM	-8371
through	-8372
	-8373
The	-8374
▁bindings	-8375
hpp	-8376
trs	-8377
rintf	-8378
nlink	-8379
▁queues	-8380
commands	-8381
▁filename	-8382
iserfs	-8383
UGE	-8384
objs	-8385
udio	-8386
▁binder	-8387
▁4),	-8388
IMA	-8389
▁adis	-8390
Hal	-8391
aio	-8392
tos	-8393
Uptodate	-8394
10-	-8395
ited	-8396
gw	-8397
▁own	-8398
PV	-8399
allo	-8400
▁guc	-8401
▁pch	-8402
INSN	-8403
STOR	-8404
MCR	-8405
▁osd	-8406
▁mk	-8407
ardown	-8408
▁script	-8409
apicid	-8410
buil	-8411
▁Le	-8412
_1000	-8413
▁PPSMC	-8414
uty	-8415
ox	-8416
▁rproc	-8417
1))	-8418
SYM	-8419
boost	-8420
VDD	-8421
ETCH	-8422
8169_	-8423
sfp	-8424
MBER	-8425
PROGRESS	-8426
asy	-8427
▁DS	-8428
alive	-8429
percent	-8430
pag	-8431
▁dpaa	-8432
osdc	-8433
(*(	-8434
▁mxc	-8435
50,	-8436
▁wmi	-8437
rio	-8438
PARAMS	-8439
AI	-8440
5000	-8441
▁temperature	-8442
ount	-8443
▁(--	-8444
▁implementation	-8445
analog	-8446
▁jffs	-8447
002	-8448
5.	-8449
▁ISCSI	-8450
ENTER	-8451
sight	-8452
302	-8453
▁connect	-8454
▁ff	-8455
▁TCA	-8456
setkey	-8457
HV	-8458
▁Spe	-8459
udata	-8460
▁assume	-8461
WAYS	-8462
▁cpuidle	-8463
softc	-8464
dire	-8465
BITMAP	-8466
JMP	-8467
ISO	-8468
PAL	-8469
▁dsp	-8470
▁compile	-8471
MALLOC	-8472
vco	-8473
ottom	-8474
STRUCT	-8475
▁strn	-8476
▁im	-8477
NB	-8478
rgb	-8479
swp	-8480
▁tsc	-8481
▁bq	-8482
.,	-8483
cdns	-8484
robe	-8485
ATCHDOG	-8486
▁armada	-8487
)__	-8488
DET	-8489
For	-8490
vsync	-8491
▁usbhs	-8492
lsm	-8493
5-	-8494
▁il	-8495
▁LPFC	-8496
▁PACK	-8497
unction	-8498
▁tf	-8499
atic	-8500
phb	-8501
Version	-8502
915)	-8503
mediatek	-8504
nored	-8505
secondary	-8506
scrub	-8507
DDI	-8508
▁MHz	-8509
gamma	-8510
▁18	-8511
Sup	-8512
kthread	-8513
LEFT	-8514
▁esw	-8515
chipset	-8516
TERN	-8517
lent	-8518
▁dac	-8519
exist	-8520
tap	-8521
[4];	-8522
roken	-8523
=$	-8524
TID	-8525
macro	-8526
▁crash	-8527
DCAPS	-8528
▁Should	-8529
▁posix	-8530
▁detection	-8531
RGMII	-8532
▁dispc	-8533
ALIAS	-8534
FALL	-8535
▁final	-8536
VFS	-8537
▁nvm	-8538
scu	-8539
regulators	-8540
▁ptl	-8541
stage	-8542
▁rtsx	-8543
▁env	-8544
VERTI	-8545
AVAIL	-8546
▁Port	-8547
comedi	-8548
overnor	-8549
▁optional	-8550
815	-8551
▁rtd	-8552
scp	-8553
__)	-8554
▁Capture	-8555
csd	-8556
hdw	-8557
tape	-8558
ipu	-8559
▁cho	-8560
▁pvr	-8561
vals	-8562
▁sur	-8563
PTP	-8564
XB	-8565
▁fixup	-8566
SMBUS	-8567
noop	-8568
▁monitor	-8569
isoc	-8570
pinned	-8571
▁expect	-8572
LCR	-8573
▁CAN	-8574
sensors	-8575
REGULATOR	-8576
dfs	-8577
▁CHAN	-8578
moyo	-8579
ICT	-8580
ctime	-8581
32:	-8582
▁bs	-8583
CNTRL	-8584
buflen	-8585
▁phylink	-8586
▁BY	-8587
20)	-8588
On	-8589
▁ipath	-8590
▁[0	-8591
depen	-8592
▁nvmet	-8593
fallback	-8594
WD	-8595
cpp	-8596
▁32);	-8597
231	-8598
▁":	-8599
pcpu	-8600
▁An	-8601
▁PTE	-8602
▁front	-8603
▁WITHOUT	-8604
gmac	-8605
LOC	-8606
▁random	-8607
artbeat	-8608
vpd	-8609
▁WARRANTY	-8610
credits	-8611
Ext	-8612
▁IFF	-8613
▁TLB	-8614
ksettings	-8615
Trans	-8616
▁20,	-8617
)];	-8618
▁sdma	-8619
▁((!	-8620
ket	-8621
special	-8622
devid	-8623
Al	-8624
quad	-8625
cntrl	-8626
▁encode	-8627
fclk	-8628
▁latency	-8629
budget	-8630
TREE	-8631
17,	-8632
ka	-8633
0"	-8634
▁3.	-8635
[6]	-8636
integrity	-8637
pet	-8638
apm	-8639
flower	-8640
byname	-8641
metrics	-8642
▁delete	-8643
bmc	-8644
IFLA	-8645
59	-8646
STE	-8647
-2	-8648
chandef	-8649
_3_	-8650
▁"#	-8651
book	-8652
GU	-8653
gress	-8654
▁vchiq	-8655
▁ahci	-8656
▁mci	-8657
mcbsp	-8658
SUBDEV	-8659
hyper	-8660
meson	-8661
▁MIPI	-8662
note	-8663
▁DSP	-8664
ONY	-8665
qid	-8666
▁cfc	-8667
IAN	-8668
▁initialized	-8669
lli	-8670
ATURE	-8671
readb	-8672
iovec	-8673
5",	-8674
sai	-8675
▁SDF	-8676
precated	-8677
310	-8678
FCP	-8679
▁DUMP	-8680
▁QLA	-8681
▁Call	-8682
▁MMIO	-8683
Request	-8684
selector	-8685
istration	-8686
5;	-8687
PN	-8688
▁6);	-8689
cannot	-8690
advance	-8691
vmalloc	-8692
chanlist	-8693
ared	-8694
▁CAP	-8695
REQU	-8696
oframe	-8697
SUR	-8698
she	-8699
usr	-8700
elems	-8701
bypass	-8702
▁Ren	-8703
conti	-8704
mpol	-8705
vdso	-8706
SPLIT	-8707
HANDLED	-8708
▁modes	-8709
virtio	-8710
dx	-8711
HER	-8712
SHA	-8713
▁were	-8714
▁hif	-8715
▁invalidate	-8716
▁%%	-8717
itive	-8718
▁Interrupt	-8719
ILE	-8720
sack	-8721
▁hole	-8722
Cmd	-8723
8350_	-8724
resync	-8725
IOV	-8726
XATTR	-8727
▁mipi	-8728
▁implied	-8729
descr	-8730
based	-8731
▁rm	-8732
endian	-8733
▁export	-8734
VISION	-8735
▁kernfs	-8736
▁job	-8737
INITIAL	-8738
lapsed	-8739
pkg	-8740
▁bcma	-8741
▁native	-8742
▁Bluetooth	-8743
▁button	-8744
▁ea	-8745
PSR	-8746
_*	-8747
▁SOFT	-8748
tcf	-8749
CAPTURE	-8750
NETIF	-8751
glock	-8752
▁Po	-8753
qh	-8754
scanned	-8755
autosuspend	-8756
writereg	-8757
RCV	-8758
supports	-8759
brd	-8760
▁sdw	-8761
▁oper	-8762
remaining	-8763
EXYNOS	-8764
ROUT	-8765
enu	-8766
POLAR	-8767
99_	-8768
cpup	-8769
ampdu	-8770
▁created	-8771
EB	-8772
cec	-8773
▁wfx	-8774
▁offload	-8775
▁EC	-8776
05,	-8777
ACC	-8778
▁ionic	-8779
FY	-8780
pas	-8781
▁vec	-8782
wpa	-8783
jpeg	-8784
▁location	-8785
INTERNAL	-8786
SENSE	-8787
snapshot	-8788
SHOT	-8789
▁Reset	-8790
ARC	-8791
fro	-8792
▁SB	-8793
ICR	-8794
WRIT	-8795
▁($	-8796
▁cpsw	-8797
rtt	-8798
▁Ar	-8799
▁SER	-8800
▁redundant	-8801
MEI	-8802
▁ai	-8803
▁Description	-8804
ucv	-8805
▁sel	-8806
FPGA	-8807
ARB	-8808
▁aac	-8809
gasas	-8810
▁profile	-8811
▁scmi	-8812
pow	-8813
WLAN	-8814
▁pack	-8815
▁netxen	-8816
▁negative	-8817
DD	-8818
account	-8819
▁turn	-8820
ISA	-8821
▁delayed	-8822
▁FILE	-8823
king	-8824
dcc	-8825
ueue	-8826
keypad	-8827
▁fails	-8828
▁\"	-8829
▁NI	-8830
▁MEI	-8831
XEN	-8832
▁cases	-8833
Freq	-8834
▁Rep	-8835
adsp	-8836
bundle	-8837
▁magic	-8838
▁KBUILD	-8839
MSIX	-8840
stolen	-8841
CIA	-8842
objects	-8843
usecs	-8844
sma	-8845
▁alarm	-8846
GL	-8847
▁necessary	-8848
▁attributes	-8849
chunks	-8850
Cannot	-8851
'\	-8852
▁tv	-8853
▁sdp	-8854
▁ocp	-8855
Code	-8856
▁MODE	-8857
VERBS	-8858
alert	-8859
ptrace	-8860
▁1].	-8861
IMR	-8862
▁tile	-8863
PROTOCOL	-8864
5(	-8865
▁SUP	-8866
▁jbd	-8867
ongs	-8868
312	-8869
PageUptodate	-8870
CLS	-8871
once	-8872
▁(~	-8873
▁*),	-8874
▁iwlwifi	-8875
masked	-8876
▁attemp	-8877
JECT	-8878
partitions	-8879
TCA	-8880
____	-8881
▁actually	-8882
PFN	-8883
▁note	-8884
TEGRA	-8885
intercept	-8886
▁nop	-8887
nlmsg	-8888
claim	-8889
61	-8890
▁offs	-8891
lq	-8892
▁wrap	-8893
handlers	-8894
▁dput	-8895
SSID	-8896
▁locks	-8897
25,	-8898
kick	-8899
End	-8900
Curr	-8901
▁QED	-8902
BRE	-8903
▁"[	-8904
▁KM	-8905
lation	-8906
comb	-8907
DMAC	-8908
named	-8909
▁standard	-8910
▁POLL	-8911
copied	-8912
▁supply	-8913
▁PC	-8914
OG	-8915
▁appro	-8916
tle	-8917
▁LIN	-8918
functions	-8919
vebu	-8920
defaults	-8921
dquot	-8922
▁sunxi	-8923
SERVICE	-8924
▁gadget	-8925
san	-8926
▁vmf	-8927
▁Num	-8928
▁abs	-8929
▁ena	-8930
STAND	-8931
RDONLY	-8932
▁around	-8933
▁TYPE	-8934
redirect	-8935
CHUNK	-8936
▁requires	-8937
▁wc	-8938
▁TPM	-8939
semaphore	-8940
▁strlcpy	-8941
6),	-8942
▁Can	-8943
▁pca	-8944
unique	-8945
WDT	-8946
seudo	-8947
vgic	-8948
resid	-8949
▁iser	-8950
▁pair	-8951
TRAIN	-8952
64);	-8953
adapt	-8954
28,	-8955
▁keys	-8956
21,	-8957
vbi	-8958
▁occur	-8959
lat	-8960
ML	-8961
▁inb	-8962
blkno	-8963
▁At	-8964
▁MCP	-8965
▁DO	-8966
pcmcia	-8967
▁separate	-8968
><	-8969
cru	-8970
onding	-8971
80)	-8972
▁lv	-8973
▁GFS	-8974
▁maintain	-8975
▁distributed	-8976
dip	-8977
sgt	-8978
bvec	-8979
ppy	-8980
▁4096	-8981
sired	-8982
5602_	-8983
pipeline	-8984
vpu	-8985
rcms	-8986
(!(	-8987
hing	-8988
RSSI	-8989
▁%04	-8990
ALWAYS	-8991
▁PACKET	-8992
sol	-8993
inner	-8994
▁checking	-8995
965	-8996
915);	-8997
040_	-8998
sinfo	-8999
▁pinmux	-9000
▁condition	-9001
spa	-9002
dency	-9003
gle	-9004
▁LPC	-9005
bly	-9006
721	-9007
INLINE	-9008
▁verify	-9009
3]	-9010
▁printed	-9011
▁netns	-9012
▁xsk	-9013
▁MGMT	-9014
CHANNELS	-9015
ced	-9016
▁expi	-9017
▁GENMASK	-9018
vor	-9019
2000_	-9020
▁GATE	-9021
▁synchronize	-9022
placement	-9023
8500	-9024
▁Status	-9025
nfp	-9026
▁TIMER	-9027
▁Drop	-9028
modi	-9029
dpu	-9030
▁bucket	-9031
▁scratch	-9032
▁dasd	-9033
16);	-9034
▁OFFSET	-9035
▁fcoe	-9036
ctrls	-9037
devfn	-9038
▁nn	-9039
▁15,	-9040
▁mer	-9041
▁definitions	-9042
▁mirror	-9043
reqs	-9044
msgs	-9045
mn	-9046
▁DB	-9047
CLAIM	-9048
IMENT	-9049
fds	-9050
▁iput	-9051
▁management	-9052
IMENTAL	-9053
devexit	-9054
PERIMENTAL	-9055
LACE	-9056
10:	-9057
mul	-9058
odm	-9059
▁PCH	-9060
▁cvmx	-9061
▁shost	-9062
▁udf	-9063
RECOVERY	-9064
▁Scsi	-9065
00000000);	-9066
tls	-9067
▁regval	-9068
rove	-9069
▁die	-9070
timize	-9071
▁rates	-9072
▁workqueue	-9073
live	-9074
_8021	-9075
XY	-9076
▁APCI	-9077
mot	-9078
roll	-9079
REAS	-9080
EVENTS	-9081
▁logic	-9082
BOUND	-9083
▁those	-9084
8-	-9085
panic	-9086
irmware	-9087
▁wlan	-9088
statistics	-9089
ratelimited	-9090
▁modi	-9091
aic	-9092
▁FORCE	-9093
mib	-9094
NUMBER	-9095
▁mthca	-9096
ADMIN	-9097
UMA	-9098
_802_	-9099
▁dax	-9100
ptl	-9101
OPTIONS	-9102
endisk	-9103
▁Some	-9104
vmlinux	-9105
▁processing	-9106
RDY	-9107
iphier	-9108
vict	-9109
▁1000);	-9110
BIOS	-9111
srcu	-9112
clusters	-9113
XMIT	-9114
▁MCF	-9115
Unknown	-9116
▁RTW	-9117
WF	-9118
0))	-9119
sdhi	-9120
▁warr	-9121
usec	-9122
AGC	-9123
ccw	-9124
▁27	-9125
5000_	-9126
structions	-9127
▁Say	-9128
virq	-9129
orithm	-9130
▁pDevice	-9131
TSO	-9132
▁OCFS	-9133
CONTIN	-9134
must	-9135
▁uc	-9136
▁Ether	-9137
wx	-9138
▁HI	-9139
requested	-9140
RV	-9141
fdt	-9142
vreg	-9143
▁BD	-9144
▁cec	-9145
GOL	-9146
QOS	-9147
...)	-9148
▁hlen	-9149
▁recovery	-9150
EO	-9151
723	-9152
8>;	-9153
ANGE	-9154
▁ENTRY	-9155
anty	-9156
product	-9157
xres	-9158
seconds	-9159
standing	-9160
TIMESTAMP	-9161
▁PMD	-9162
NFTA	-9163
xfff	-9164
▁Bit	-9165
▁sound	-9166
▁alt	-9167
▁allows	-9168
wol	-9169
RISING	-9170
Header	-9171
=1	-9172
FORK	-9173
▁HP	-9174
32)(	-9175
xFFFFFFFF	-9176
->_	-9177
▁BC	-9178
SCLK	-9179
▁FMODE	-9180
execlists	-9181
▁TIPC	-9182
▁phandle	-9183
▁counters	-9184
BIN	-9185
▁azx	-9186
ipg	-9187
DIAG	-9188
▁CTL	-9189
▁TRANS	-9190
IOMUX	-9191
▁resol	-9192
leader	-9193
aque	-9194
▁dmi	-9195
▁dra	-9196
▁warranty	-9197
69	-9198
ELEM	-9199
▁bdi	-9200
▁RING	-9201
false	-9202
▁uv	-9203
4965_	-9204
SDR	-9205
▁hugetlb	-9206
via	-9207
NVIDIA	-9208
cmu	-9209
SSAGE	-9210
▁selftests	-9211
cmdline	-9212
MK	-9213
spr	-9214
▁xs	-9215
SATA	-9216
▁callbacks	-9217
▁pnv	-9218
[(	-9219
▁mesh	-9220
:%02	-9221
tmu	-9222
▁0444,	-9223
▁lg	-9224
uapi	-9225
COE	-9226
▁ak	-9227
DISCARD	-9228
SCRATCH	-9229
▁reiserfs	-9230
ACCES	-9231
suspended	-9232
8250_	-9233
▁Ser	-9234
▁bias	-9235
sibling	-9236
▁term	-9237
▁begin	-9238
1307	-9239
▁subdev	-9240
LOGIC	-9241
offline	-9242
mdup	-9243
▁(++	-9244
▁require	-9245
asus	-9246
▁xmit	-9247
▁ldo	-9248
▁Other	-9249
-2.0-	-9250
double	-9251
sds	-9252
▁vmalloc	-9253
▁24,	-9254
▁ATMEL	-9255
▁let	-9256
87_	-9257
▁POST	-9258
instruction	-9259
URES	-9260
▁obd	-9261
▁NETDEV	-9262
SIVE	-9263
ens	-9264
prm	-9265
▁lr	-9266
▁nvidia	-9267
▁pmic	-9268
▁kprobe	-9269
▁rem	-9270
mf	-9271
▁TTM	-9272
Ma	-9273
fte	-9274
Line	-9275
▁Change	-9276
subdevices	-9277
rsrc	-9278
▁iop	-9279
▁supp	-9280
▁sink	-9281
▁execute	-9282
▁7;	-9283
▁ol	-9284
▁gid	-9285
▁effect	-9286
▁gt	-9287
pasid	-9288
ccid	-9289
▁represent	-9290
▁enter	-9291
PLATFORM	-9292
vht	-9293
▁chips	-9294
▁barrier	-9295
cwnd	-9296
▁qca	-9297
▁ixgb	-9298
scmd	-9299
hsync	-9300
ktime	-9301
SOLE	-9302
▁204	-9303
▁element	-9304
ticks	-9305
▁8),	-9306
▁gsi	-9307
FLIP	-9308
_32(	-9309
alle	-9310
flowi	-9311
evict	-9312
hashtable	-9313
kmap	-9314
▁PAR	-9315
000);	-9316
▁Src	-9317
▁bpp	-9318
▁Replace	-9319
BIG	-9320
timeo	-9321
▁ssid	-9322
▁position	-9323
uthor	-9324
agp	-9325
shdr	-9326
▁smsc	-9327
package	-9328
dpi	-9329
CFLAGS	-9330
als	-9331
▁tables	-9332
teardown	-9333
users	-9334
netdevice	-9335
iate	-9336
title	-9337
dhc	-9338
Lock	-9339
rectly	-9340
wep	-9341
▁FLOW	-9342
compressed	-9343
ys	-9344
▁fat	-9345
▁edge	-9346
▁writes	-9347
rif	-9348
HPD	-9349
verage	-9350
▁threads	-9351
▁{0};	-9352
clo	-9353
gpe	-9354
UNUSED	-9355
▁emulate	-9356
ETIMEDOUT	-9357
▁mixer	-9358
▁tlv	-9359
▁metadata	-9360
ASSOC	-9361
vmf	-9362
Number	-9363
▁RO	-9364
▁ls	-9365
▁1000000	-9366
▁htt	-9367
mgd	-9368
▁UFS	-9369
notif	-9370
coming	-9371
extended	-9372
external	-9373
▁cpuid	-9374
▁branch	-9375
cil	-9376
ulk	-9377
6591	-9378
▁ste	-9379
60,	-9380
▁reloc	-9381
WMI	-9382
▁udc	-9383
INCI	-9384
fbi	-9385
oned	-9386
pmlmepriv	-9387
▁brcms	-9388
CONNECTOR	-9389
bric	-9390
▁UBI	-9391
ddb	-9392
dmi	-9393
3945_	-9394
forward	-9395
2/	-9396
IZE	-9397
axi	-9398
lost	-9399
▁updated	-9400
MARY	-9401
▁mi	-9402
large	-9403
▁Ad	-9404
erred	-9405
9]	-9406
86_64	-9407
synchron	-9408
gdb	-9409
edac	-9410
ENDPOINT	-9411
Sw	-9412
3->	-9413
ida	-9414
epc	-9415
ENDIAN	-9416
Documentation	-9417
▁TM	-9418
▁attached	-9419
REL	-9420
[])	-9421
DAI	-9422
pgprot	-9423
▁NFC	-9424
cxl	-9425
▁LDO	-9426
pvec	-9427
▁Must	-9428
orrect	-9429
ilinx	-9430
otent	-9431
▁GB	-9432
cryptfs	-9433
▁MVPP	-9434
mtime	-9435
qdio	-9436
ERESTART	-9437
▁ecryptfs	-9438
▁capability	-9439
ads	-9440
xec	-9441
(4	-9442
▁choose	-9443
ALT	-9444
▁As	-9445
imit	-9446
▁arc	-9447
pdesc	-9448
zr	-9449
(1<<	-9450
fmr	-9451
▁RPC	-9452
6000	-9453
ima	-9454
peek	-9455
▁Cur	-9456
▁divider	-9457
▁mailbox	-9458
Cla	-9459
▁ud	-9460
07,	-9461
7-	-9462
▁pull	-9463
25840_	-9464
CYCLE	-9465
devm	-9466
▁100;	-9467
vmcb	-9468
▁cma	-9469
QUEUES	-9470
xsk	-9471
ONIC	-9472
▁csr	-9473
alth	-9474
protect	-9475
det	-9476
LER	-9477
▁OPT	-9478
UNLOCKED	-9479
FH	-9480
▁`	-9481
DQ	-9482
SPINLOCK	-9483
▁Qdisc	-9484
xB	-9485
12)	-9486
▁How	-9487
infoframe	-9488
▁volume	-9489
SPECI	-9490
▁related	-9491
ADAPTER	-9492
FEC	-9493
▁describ	-9494
▁stac	-9495
NOP	-9496
gsi	-9497
▁lt	-9498
station	-9499
▁sata	-9500
gered	-9501
REASON	-9502
falcon	-9503
aro	-9504
▁BTF	-9505
▁arizona	-9506
EEP	-9507
▁4))	-9508
cif	-9509
▁shutdown	-9510
cluding	-9511
chans	-9512
routing	-9513
drvr	-9514
▁linear	-9515
scope	-9516
=0;	-9517
tered	-9518
▁smi	-9519
▁INTC	-9520
▁fec	-9521
▁prob	-9522
)[	-9523
TAL	-9524
ifb	-9525
▁av	-9526
ized	-9527
▁enet	-9528
WAKEUP	-9529
▁Mod	-9530
GOLDEN	-9531
mfd	-9532
counts	-9533
UNG	-9534
▁macros	-9535
▁mempool	-9536
cable	-9537
▁hope	-9538
bootmem	-9539
mlme	-9540
trip	-9541
▁gate	-9542
▁DPLL	-9543
uture	-9544
vator	-9545
▁TS	-9546
▁Clock	-9547
extension	-9548
▁partial	-9549
AHB	-9550
▁nothing	-9551
prcm	-9552
icache	-9553
http	-9554
▁lnet	-9555
▁5);	-9556
OPER	-9557
▁ERROR	-9558
▁extack	-9559
▁existing	-9560
login	-9561
▁protect	-9562
▁namespace	-9563
idata	-9564
allocation	-9565
nex	-9566
Base	-9567
rdi	-9568
OSD	-9569
100);	-9570
uverbs	-9571
▁Not	-9572
▁limits	-9573
cck	-9574
dbi	-9575
fwd	-9576
▁sizes	-9577
streaming	-9578
▁properly	-9579
zen	-9580
▁0644,	-9581
unted	-9582
▁explicit	-9583
headlen	-9584
▁qm	-9585
scaling	-9586
860	-9587
▁quota	-9588
▁capture	-9589
▁sport	-9590
exclusive	-9591
1";	-9592
children	-9593
TING	-9594
REMOTE	-9595
76.	-9596
gfs	-9597
nft	-9598
replay	-9599
▁iface	-9600
10);	-9601
kip	-9602
navi	-9603
mqd	-9604
GIG	-9605
▁MCU	-9606
▁201	-9607
skl	-9608
rh	-9609
mpt	-9610
DMIC	-9611
symlink	-9612
▁archite	-9613
7;	-9614
lpfc	-9615
▁SCI	-9616
_3,	-9617
-1)	-9618
▁QLC	-9619
▁})	-9620
▁rxq	-9621
bread	-9622
arizona	-9623
▁ksz	-9624
▁SPR	-9625
▁UINT	-9626
LSB	-9627
▁give	-9628
23885_	-9629
kn	-9630
ROT	-9631
FETCH	-9632
▁Kernel	-9633
PPSMC	-9634
131	-9635
handled	-9636
▁cpuset	-9637
▁128,	-9638
▁revision	-9639
▁Trans	-9640
▁grp	-9641
configs	-9642
▁flo	-9643
▁hctx	-9644
backup	-9645
synth	-9646
High	-9647
714	-9648
INTF	-9649
▁ast	-9650
RIER	-9651
Current	-9652
FENCE	-9653
igital	-9654
820	-9655
▁RB	-9656
ctree	-9657
bdaddr	-9658
wdd	-9659
▁nt	-9660
▁Number	-9661
afe	-9662
bk	-9663
▁LINUX	-9664
▁override	-9665
lips	-9666
▁mpi	-9667
kcalloc	-9668
received	-9669
▁PL	-9670
arf	-9671
inb	-9672
ctive	-9673
▁Ac	-9674
▁rot	-9675
▁virq	-9676
PREEMP	-9677
></	-9678
7:	-9679
ording	-9680
roc	-9681
OPCODE	-9682
compound	-9683
▁((1	-9684
builtin	-9685
▁starting	-9686
vsp	-9687
masks	-9688
blue	-9689
▁marvell	-9690
FIC	-9691
▁performance	-9692
subflow	-9693
adr	-9694
4]	-9695
classdev	-9696
ITOR	-9697
▁ptrace	-9698
▁dib	-9699
86,	-9700
therm	-9701
wbc	-9702
▁rvt	-9703
UA	-9704
8192	-9705
MSTP	-9706
iop	-9707
▁IT	-9708
▁nb	-9709
jump	-9710
▁RAM	-9711
▁psb	-9712
edded	-9713
irc	-9714
▁guar	-9715
01);	-9716
efuse	-9717
FEATURES	-9718
▁good	-9719
▁(1)	-9720
▁NFT	-9721
strlen	-9722
pal	-9723
▁nes	-9724
▁dpll	-9725
Sh	-9726
22,	-9727
wn	-9728
()␜	-9729
▁DCCP	-9730
verted	-9731
HUB	-9732
MDIO	-9733
RAT	-9734
ibqp	-9735
▁UDP	-9736
reader	-9737
timers	-9738
MISS	-9739
▁MP	-9740
lseg	-9741
rcd	-9742
constraints	-9743
KB	-9744
▁nlm	-9745
▁%0,	-9746
▁slow	-9747
fficient	-9748
94	-9749
▁spte	-9750
▁typo	-9751
▁minimum	-9752
216	-9753
▁ida	-9754
loader	-9755
▁xattr	-9756
Interface	-9757
FSB	-9758
▁asus	-9759
flt	-9760
▁JZ	-9761
▁MACH	-9762
hostdata	-9763
MCI	-9764
20);	-9765
msrl	-9766
▁against	-9767
▁<18	-9768
holder	-9769
DELL	-9770
blocking	-9771
INI	-9772
TEN	-9773
▁DAI	-9774
▁Initialize	-9775
▁numa	-9776
ases	-9777
▁Author	-9778
ACTIV	-9779
▁ahash	-9780
lagn	-9781
▁ordered	-9782
import	-9783
(4)	-9784
792	-9785
fimc	-9786
▁img	-9787
▁BIOS	-9788
fcport	-9789
▁Mem	-9790
inactive	-9791
omatic	-9792
strict	-9793
TW	-9794
(1),	-9795
eof	-9796
qgroup	-9797
2";	-9798
(3)	-9799
007	-9800
▁RS	-9801
OVERRIDE	-9802
▁subsystem	-9803
▁slice	-9804
imap	-9805
▁adjusted	-9806
▁polling	-9807
advertising	-9808
▁cxgb	-9809
FYI	-9810
▁hfs	-9811
▁prom	-9812
▁conditions	-9813
see	-9814
▁cycles	-9815
▁XX	-9816
skel	-9817
REVISION	-9818
▁greybus	-9819
TSC	-9820
[7]	-9821
voke	-9822
▁filesystem	-9823
4000_	-9824
SMA	-9825
▁Ethernet	-9826
▁provides	-9827
Pkt	-9828
blkg	-9829
▁usleep	-9830
UBLE	-9831
two	-9832
▁style	-9833
hang	-9834
tio	-9835
verifier	-9836
memmap	-9837
(7	-9838
reboot	-9839
SAI	-9840
lict	-9841
▁SSB	-9842
▁determine	-9843
▁14,	-9844
licit	-9845
▁4:	-9846
urbs	-9847
memslot	-9848
▁install	-9849
dbs	-9850
▁sge	-9851
▁template	-9852
▁esp	-9853
SERVER	-9854
attached	-9855
container	-9856
008	-9857
ASIC	-9858
▁rndis	-9859
▁mips	-9860
▁vd	-9861
ALSE	-9862
▁PCIe	-9863
OFFLOAD	-9864
320	-9865
▁Ext	-9866
cfi	-9867
delegation	-9868
crdma	-9869
▁"/	-9870
▁sort	-9871
MODEL	-9872
Command	-9873
pctldev	-9874
▁SPEED	-9875
Left	-9876
stable	-9877
),/*	-9878
▁64-	-9879
NAMIC	-9880
kmalloc	-9881
▁nvmem	-9882
CRT	-9883
▁menu	-9884
▁unix	-9885
car	-9886
▁LOOKUP	-9887
missing	-9888
apl	-9889
codes	-9890
PACK	-9891
poison	-9892
▁Bu	-9893
▁objects	-9894
▁selected	-9895
scl	-9896
▁vdso	-9897
radix	-9898
black	-9899
ptable	-9900
▁HAS	-9901
▁discard	-9902
▁Si	-9903
erator	-9904
yres	-9905
]",	-9906
XFRM	-9907
▁rfkill	-9908
asprintf	-9909
▁strncpy	-9910
xaa	-9911
setattr	-9912
▁TI	-9913
▁jump	-9914
UI	-9915
▁modules	-9916
deinit	-9917
▁except	-9918
EAR	-9919
UAL	-9920
qed	-9921
▁reclaim	-9922
▁(!*	-9923
▁qxl	-9924
center	-9925
000)	-9926
psmouse	-9927
1\	-9928
fragment	-9929
umn	-9930
subsystem	-9931
▁protection	-9932
nids	-9933
▁notification	-9934
iu	-9935
Right	-9936
series	-9937
▁layout	-9938
▁AE	-9939
▁generate	-9940
▁|\	-9941
jh	-9942
pnp	-9943
matrix	-9944
▁prior	-9945
marvell	-9946
▁acp	-9947
▁seconds	-9948
YUV	-9949
▁trig	-9950
DWORD	-9951
hyp	-9952
▁clo	-9953
▁corresponding	-9954
rest	-9955
▁srp	-9956
▁padding	-9957
6040_	-9958
VX	-9959
DUAL	-9960
0000;	-9961
▁GLOBAL	-9962
bps	-9963
nthe	-9964
DOUBLE	-9965
▁row	-9966
▁<5	-9967
▁HT	-9968
iga	-9969
oll	-9970
four	-9971
▁Def	-9972
throttle	-9973
pps	-9974
▁HNS	-9975
▁plen	-9976
▁srcu	-9977
hwdev	-9978
ional	-9979
dropped	-9980
2"	-9981
820_	-9982
▁extended	-9983
delalloc	-9984
weak	-9985
▁STA	-9986
▁COMEDI	-9987
TBL	-9988
▁11)	-9989
▁*)((	-9990
▁iphdr	-9991
▁wbc	-9992
ACH	-9993
ets	-9994
▁allwinner	-9995
▁verbose	-9996
INTAIN	-9997
",&	-9998
▁QCA	-9999
0001	-10000
▁agg	-10001
reno	-10002
▁mvebu	-10003
grant	-10004
▁blkaddr	-10005
▁ratio	-10006
▁generation	-10007
▁9;	-10008
prealloc	-10009
▁loaded	-10010
BH	-10011
Req	-10012
ALARM	-10013
gbl	-10014
NDER	-10015
▁etc	-10016
▁datalen	-10017
GPR	-10018
▁ATOM	-10019
Min	-10020
5);	-10021
fsm	-10022
sbd	-10023
CAPABILITY	-10024
SPORT	-10025
PRIVATE	-10026
▁specify	-10027
},/*	-10028
ome	-10029
▁pur	-10030
dts	-10031
scaler	-10032
iling	-10033
▁"(	-10034
(5,	-10035
nalog	-10036
fwrt	-10037
Of	-10038
▁AUDIT	-10039
rxon	-10040
▁kasan	-10041
LIGHT	-10042
▁writeb	-10043
JO	-10044
irqchip	-10045
TMP	-10046
+1	-10047
namelen	-10048
uses	-10049
▁guarante	-10050
gpc	-10051
▁cop	-10052
sdiodev	-10053
backlog	-10054
clkdev	-10055
blkaddr	-10056
reclaimed	-10057
▁Man	-10058
PROFILE	-10059
EID	-10060
dav	-10061
▁NOTE	-10062
WMON	-10063
nvidia	-10064
ven	-10065
cold	-10066
evm	-10067
compr	-10068
▁original	-10069
nbd	-10070
▁ldlm	-10071
cooling	-10072
▁megasas	-10073
MID	-10074
pmem	-10075
11_0_	-10076
cker	-10077
▁VC	-10078
drbd	-10079
▁aspeed	-10080
transition	-10081
VHT	-10082
kaddr	-10083
▁...)	-10084
fscache	-10085
ferred	-10086
freelist	-10087
bcast	-10088
zation	-10089
Per	-10090
▁xgene	-10091
▁definition	-10092
avi	-10093
12->	-10094
NPHY	-10095
nilfs	-10096
▁STR	-10097
▁11,	-10098
ROCE	-10099
▁FEC	-10100
argc	-10101
gm	-10102
▁avail	-10103
▁isci	-10104
edma	-10105
▁vega	-10106
hlen	-10107
zd	-10108
901	-10109
MOUSE	-10110
qpn	-10111
▁lun	-10112
alloon	-10113
62_	-10114
650	-10115
ASAN	-10116
MCLK	-10117
▁ADIS	-10118
afu	-10119
▁duration	-10120
generate	-10121
INTAINERS	-10122
INS	-10123
wacom	-10124
xs	-10125
567	-10126
Param	-10127
STRIPE	-10128
▁({	-10129
BURST	-10130
SPK	-10131
▁sbp	-10132
▁anon	-10133
▁3:	-10134
BELL	-10135
gather	-10136
WP	-10137
sens	-10138
enic	-10139
▁elems	-10140
▁vcc	-10141
164	-10142
AMB	-10143
▁vs	-10144
102_	-10145
mpic	-10146
▁assoc	-10147
▁vio	-10148
▁tomoyo	-10149
ISTC	-10150
notice	-10151
1394_	-10152
cinfo	-10153
▁NOTIFY	-10154
origin	-10155
bprm	-10156
mout	-10157
mcasp	-10158
▁BAT	-10159
ssive	-10160
peat	-10161
uous	-10162
CLKCTRL	-10163
▁conversion	-10164
▁GPU	-10165
chars	-10166
startblock	-10167
▁analog	-10168
.2	-10169
▁MK	-10170
▁iovec	-10171
areq	-10172
▁leave	-10173
▁rdp	-10174
▁Address	-10175
WATCHDOG	-10176
allwinner	-10177
▁MPC	-10178
▁factor	-10179
ocp	-10180
▁fpu	-10181
emac	-10182
▁sim	-10183
▁flowi	-10184
lblk	-10185
Odm	-10186
▁Mux	-10187
▁scal	-10188
MBOX	-10189
▁comb	-10190
davinci	-10191
▁Kconfig	-10192
IMP	-10193
LPC	-10194
▁RD	-10195
baseT	-10196
▁tuple	-10197
▁USE	-10198
serio	-10199
▁hsw	-10200
▁devfn	-10201
gi	-10202
jz	-10203
▁kunit	-10204
▁shmem	-10205
INF	-10206
32),	-10207
MCU	-10208
DG	-10209
256_	-10210
▁idev	-10211
▁introduce	-10212
111	-10213
▁saf	-10214
▁ndlp	-10215
▁lu	-10216
▁really	-10217
)(((	-10218
▁argp	-10219
tric	-10220
▁CRC	-10221
_(	-10222
▁ISP	-10223
ROUTE	-10224
13)	-10225
▁ELF	-10226
▁rights	-10227
▁CORE	-10228
10;	-10229
▁phase	-10230
▁syscon	-10231
▁GENERIC	-10232
success	-10233
_(0,	-10234
▁pio	-10235
▁capabilities	-10236
ifr	-10237
▁eq	-10238
▁xa	-10239
▁less	-10240
▁queued	-10241
mpp	-10242
▁simplify	-10243
cfqd	-10244
cies	-10245
▁helpers	-10246
DN	-10247
▁comments	-10248
9:	-10249
TAIL	-10250
▁ge	-10251
▁systems	-10252
backing	-10253
▁MAINTAINERS	-10254
lbl	-10255
▁roundup	-10256
▁application	-10257
55_	-10258
▁selinux	-10259
rlc	-10260
nvdimm	-10261
srb	-10262
ssc	-10263
▁NVM	-10264
readw	-10265
lruvec	-10266
▁aes	-10267
▁ICMP	-10268
Desc	-10269
06,	-10270
MMAP	-10271
▁fallback	-10272
stub	-10273
dg	-10274
4740_	-10275
MICRO	-10276
REP	-10277
ropy	-10278
PULLUP	-10279
Register	-10280
5),	-10281
writer	-10282
mplement	-10283
iew	-10284
deci	-10285
BYPASS	-10286
eng	-10287
buck	-10288
initconst	-10289
shmem	-10290
▁MUSB	-10291
▁Adapter	-10292
uate	-10293
RELEASE	-10294
seed	-10295
▁SDIO	-10296
Properties	-10297
BOOK	-10298
▁Wait	-10299
▁HD	-10300
governor	-10301
▁umode	-10302
▁iwlagn	-10303
802.	-10304
Phy	-10305
bitrate	-10306
95_	-10307
cmsg	-10308
▁msghdr	-10309
485	-10310
▁SECT	-10311
DIGIT	-10312
agent	-10313
CLUSTER	-10314
dispc	-10315
memdup	-10316
82_	-10317
01)	-10318
feed	-10319
ONGS	-10320
tot	-10321
mpoline	-10322
▁Avoid	-10323
vcn	-10324
year	-10325
VSYNC	-10326
TIAL	-10327
▁uni	-10328
▁vfsmount	-10329
refclk	-10330
REMOVE	-10331
32;	-10332
▁seqno	-10333
tdm	-10334
▁basic	-10335
CDC	-10336
▁flex	-10337
priate	-10338
MONITOR	-10339
1⁄4	-10340
TF	-10341
▁ba	-10342
Driver	-10343
▁potent	-10344
rfcsr	-10345
335	-10346
cmn	-10347
DEVID	-10348
▁Default	-10349
▁sparse	-10350
protected	-10351
prd	-10352
▁12;	-10353
naviv	-10354
626_	-10355
kind	-10356
fprintf	-10357
torture	-10358
550	-10359
▁*((	-10360
WINDOW	-10361
xmm	-10362
gdev	-10363
▁remap	-10364
▁Revert	-10365
▁points	-10366
	-10367
nvmem	-10368
nae	-10369
xlate	-10370
flight	-10371
330	-10372
EON	-10373
[0]->	-10374
▁SOFTWARE	-10375
▁structures	-10376
▁SHA	-10377
[2]);	-10378
▁HWMON	-10379
ulp	-10380
aclk	-10381
▁destination	-10382
903	-10383
▁mismatch	-10384
dual	-10385
atek	-10386
▁acl	-10387
▁cn	-10388
▁PINMUX	-10389
PAS	-10390
▁compute	-10391
▁adding	-10392
sky	-10393
ritems	-10394
sdr	-10395
RESERVE	-10396
CPT	-10397
>/	-10398
(0));	-10399
▁lustre	-10400
deactivate	-10401
▁nvec	-10402
ipher	-10403
itize	-10404
▁enables	-10405
allel	-10406
▁permission	-10407
resize	-10408
▁LO	-10409
dmic	-10410
roots	-10411
MSUNG	-10412
▁MSTP	-10413
10},	-10414
HDA	-10415
PRT	-10416
ergy	-10417
▁tasks	-10418
($	-10419
keymap	-10420
93_	-10421
▁PTP	-10422
▁XXX	-10423
EEXIST	-10424
Hw	-10425
MET	-10426
ldisc	-10427
▁RESET	-10428
CONSOLE	-10429
datalen	-10430
irst	-10431
deb	-10432
100>;	-10433
0";	-10434
METER	-10435
xD	-10436
gettime	-10437
argument	-10438
...\	-10439
▁mal	-10440
ETHTOOL	-10441
pcp	-10442
risc	-10443
purge	-10444
===	-10445
▁BUS	-10446
▁kvfree	-10447
mpe	-10448
BUCK	-10449
▁Start	-10450
▁dquot	-10451
devfreq	-10452
eed	-10453
▁<33	-10454
PEER	-10455
asc	-10456
▁cputime	-10457
▁registration	-10458
loff	-10459
▁truncate	-10460
6",	-10461
▁CE	-10462
00\	-10463
▁TUNER	-10464
RECV	-10465
▁wdev	-10466
fu	-10467
SIS	-10468
▁pattern	-10469
▁MTD	-10470
confirm	-10471
▁pattrib	-10472
▁sets	-10473
pVBInfo	-10474
▁interfaces	-10475
▁gain	-10476
WEP	-10477
DPLL	-10478
"(	-10479
>.	-10480
MESH	-10481
▁ovs	-10482
▁Right	-10483
pat	-10484
pdn	-10485
blockcount	-10486
LRU	-10487
▁won	-10488
GIN	-10489
THIS	-10490
ONESHOT	-10491
▁immediate	-10492
__((	-10493
▁ivt	-10494
003	-10495
genet	-10496
▁battery	-10497
▁BAR	-10498
▁Pre	-10499
▁LASSERT	-10500
ngpio	-10501
▁"_	-10502
Test	-10503
GRAPH	-10504
crtcs	-10505
divisor	-10506
▁extcon	-10507
▁mediatek	-10508
:=	-10509
ili	-10510
grab	-10511
rows	-10512
▁doing	-10513
HL	-10514
▁HE	-10515
CRIT	-10516
▁VMX	-10517
▁vfree	-10518
UNI	-10519
▁hyper	-10520
las	-10521
▁Current	-10522
▁Select	-10523
▁Net	-10524
reuse	-10525
polarity	-10526
kv	-10527
engines	-10528
ptop	-10529
aving	-10530
▁ssp	-10531
ified	-10532
msrs	-10533
▁vx	-10534
▁perform	-10535
88,	-10536
897	-10537
▁along	-10538
▁sid	-10539
1000,	-10540
▁brightness	-10541
smem	-10542
▁decoder	-10543
MSB	-10544
LVDS	-10545
mini	-10546
fake	-10547
▁PMU	-10548
▁NSEC	-10549
▁netfilter	-10550
11)	-10551
004	-10552
PERIP	-10553
els	-10554
flex	-10555
gbe	-10556
▁usbdux	-10557
ism	-10558
spm	-10559
STATION	-10560
byt	-10561
pec	-10562
▁ADVERTI	-10563
OFS	-10564
CALIB	-10565
Hand	-10566
▁CPG	-10567
▁MSM	-10568
▁scic	-10569
DYNAMIC	-10570
[1])	-10571
tnl	-10572
▁calculate	-10573
▁bm	-10574
btcoexist	-10575
hdac	-10576
▁AIC	-10577
▁NUMA	-10578
Kconfig	-10579
6-	-10580
mei	-10581
(15	-10582
▁DID	-10583
▁aic	-10584
pstr	-10585
390/	-10586
▁ipw	-10587
▁switchdev	-10588
hsw	-10589
▁stored	-10590
RECLAIM	-10591
hugepage	-10592
08_	-10593
JACK	-10594
rdata	-10595
SIO	-10596
CORR	-10597
▁PCA	-10598
syscalls	-10599
Cnt	-10600
▁___	-10601
▁MASK	-10602
Level	-10603
020	-10604
▁orion	-10605
txpower	-10606
▁ICH	-10607
▁VGA	-10608
876	-10609
where	-10610
▁duplicate	-10611
▁MCI	-10612
774	-10613
defs	-10614
crq	-10615
▁xx	-10616
▁sony	-10617
IOMUXC	-10618
LLOW	-10619
PCLK	-10620
scif	-10621
tipc	-10622
▁VIA	-10623
PRIMARY	-10624
wal	-10625
▁outp	-10626
▁entity	-10627
▁erofs	-10628
▁times	-10629
953	-10630
allsyms	-10631
▁tot	-10632
▁irqs	-10633
RPM	-10634
▁KUNIT	-10635
vring	-10636
▁retri	-10637
oe	-10638
MIPI	-10639
calculate	-10640
fspr	-10641
vmid	-10642
79_	-10643
uap	-10644
hpriv	-10645
▁bonding	-10646
▁PK	-10647
▁pcf	-10648
▁gets	-10649
dqp	-10650
▁FM	-10651
effect	-10652
9003_	-10653
RR	-10654
iator	-10655
elements	-10656
tracer	-10657
TOTAL	-10658
PCR	-10659
▁ECC	-10660
▁pal	-10661
▁IC	-10662
▁XGI	-10663
ACCEL	-10664
▁cg	-10665
RAID	-10666
▁rid	-10667
URITY	-10668
▁debugging	-10669
32(0	-10670
cw	-10671
fep	-10672
▁document	-10673
psy	-10674
Net	-10675
msecs	-10676
aper	-10677
▁gtt	-10678
INTC	-10679
Link	-10680
ALOG	-10681
stall	-10682
ticket	-10683
ribe	-10684
isol	-10685
ATTRIB	-10686
pulse	-10687
▁amdtp	-10688
clar	-10689
uprobe	-10690
lg	-10691
DOOR	-10692
att	-10693
▁going	-10694
timeline	-10695
ier	-10696
09,	-10697
QM	-10698
uvd	-10699
verbose	-10700
wvif	-10701
▁ivtv	-10702
▁sending	-10703
▁according	-10704
▁hc	-10705
rmw	-10706
EXCEPTION	-10707
▁opal	-10708
acp	-10709
ENOSYS	-10710
▁""	-10711
GIGA	-10712
lain	-10713
FAT	-10714
buddy	-10715
Led	-10716
▁beha	-10717
lpc	-10718
3000_	-10719
unload	-10720
▁=>	-10721
lcdc	-10722
▁FSL	-10723
_%	-10724
ISDIR	-10725
white	-10726
ISH	-10727
tune	-10728
AXI	-10729
UINT	-10730
icmd	-10731
permission	-10732
IH	-10733
▁netvsc	-10734
timespec	-10735
ctls	-10736
▁ffs	-10737
▁wireless	-10738
cores	-10739
▁controls	-10740
stc	-10741
HIER	-10742
fsid	-10743
NOTICE	-10744
▁exists	-10745
pinfo	-10746
▁<3>;	-10747
ttl	-10748
▁30	-10749
▁COMM	-10750
roadcom	-10751
rds	-10752
pfe	-10753
dpms	-10754
▁compound	-10755
▁appropriate	-10756
loss	-10757
▁PGA	-10758
frac	-10759
▁LINK	-10760
bn	-10761
31,	-10762
_1(	-10763
configuration	-10764
▁SoCs	-10765
▁cach	-10766
▁nvdimm	-10767
▁vblank	-10768
▁gcc	-10769
cbs	-10770
pctrl	-10771
000000)	-10772
▁hba	-10773
backend	-10774
▁ioaddr	-10775
SLO	-10776
expand	-10777
ITS	-10778
271_	-10779
vbt	-10780
ROW	-10781
▁"+	-10782
EXPECT	-10783
▁$@	-10784
▁Be	-10785
000;	-10786
Entry	-10787
▁idxd	-10788
tsf	-10789
rotation	-10790
TXQ	-10791
▁ifp	-10792
▁rsi	-10793
▁videobuf	-10794
compl	-10795
vref	-10796
CURSOR	-10797
▁veth	-10798
▁inside	-10799
▁8-	-10800
iget	-10801
▁CLKDEV	-10802
104	-10803
▁stv	-10804
rsk	-10805
bytenr	-10806
POWERPC	-10807
▁Host	-10808
▁Memory	-10809
jit	-10810
RENDER	-10811
▁ENABLE	-10812
635	-10813
tmpl	-10814
gmail	-10815
▁kind	-10816
pld	-10817
0899_	-10818
IPHY	-10819
▁stage	-10820
▁retries	-10821
▁ucode	-10822
reco	-10823
▁IVT	-10824
Op	-10825
times	-10826
RATES	-10827
neta	-10828
eight	-10829
▁xenbus	-10830
▁BB	-10831
POOL	-10832
▁hdac	-10833
▁dmas	-10834
▁amount	-10835
280_	-10836
Low	-10837
ppd	-10838
▁cqe	-10839
rgmii	-10840
▁DISP	-10841
▁atomisp	-10842
peri	-10843
started	-10844
demux	-10845
▁accept	-10846
▁correctly	-10847
writable	-10848
65_	-10849
rtnl	-10850
▁automatic	-10851
gf	-10852
40)	-10853
▁́	-10854
▁san	-10855
headers	-10856
erp	-10857
LOOPBACK	-10858
▁psmouse	-10859
pmx	-10860
▁SYSC	-10861
tas	-10862
%016	-10863
2");	-10864
ofdev	-10865
▁IOC	-10866
▁LIB	-10867
▁alias	-10868
▁yes	-10869
▁bios	-10870
ctrlpipe	-10871
▁OHCI	-10872
MAPPED	-10873
▁mmUVD	-10874
GN	-10875
leak	-10876
DEBUGFS	-10877
hwrm	-10878
▁very	-10879
,&	-10880
waiter	-10881
DELAYED	-10882
META	-10883
tcm	-10884
iases	-10885
psize	-10886
oa	-10887
ially	-10888
HostIF	-10889
▁DSS	-10890
▁Comp	-10891
▁nskb	-10892
0/	-10893
GENER	-10894
SUPER	-10895
dcn	-10896
buckets	-10897
iplier	-10898
▁CFI	-10899
uaccess	-10900
sip	-10901
▁TV	-10902
SIOC	-10903
0000000,	-10904
rum	-10905
ptes	-10906
▁mach	-10907
▁serio	-10908
Couldn	-10909
cport	-10910
▁defines	-10911
adis	-10912
▁ptlrpc	-10913
▁Otherwise	-10914
▁implemented	-10915
911	-10916
▁wcn	-10917
▁links	-10918
ronlake	-10919
▁bvec	-10920
toggle	-10921
dce	-10922
Start	-10923
stype	-10924
sources	-10925
hdisplay	-10926
▁bandwidth	-10927
DATE	-10928
▁rqstp	-10929
vis	-10930
▁[0]	-10931
▁numbers	-10932
health	-10933
keyring	-10934
▁IVTV	-10935
icon	-10936
▁das	-10937
▁stride	-10938
▁Channel	-10939
LESS	-10940
CAR	-10941
MDS	-10942
▁IPv	-10943
▁Red	-10944
▁execlists	-10945
▁endian	-10946
Sub	-10947
▁12);	-10948
▁SKL	-10949
▁Create	-10950
RLC	-10951
arer	-10952
▁IPC	-10953
▁clamp	-10954
pers	-10955
▁sis	-10956
dport	-10957
251	-10958
40000	-10959
▁Rename	-10960
expire	-10961
▁PE	-10962
▁7);	-10963
▁tl	-10964
portid	-10965
OPY	-10966
hpage	-10967
ecx	-10968
▁zyn	-10969
101	-10970
▁RET	-10971
▁indicates	-10972
▁gm	-10973
GID	-10974
tracing	-10975
▁Contact	-10976
dlc	-10977
bq	-10978
noc	-10979
▁Dst	-10980
ofdm	-10981
▁hex	-10982
▁topology	-10983
CHNL	-10984
▁TTY	-10985
▁MD	-10986
▁usbnet	-10987
FCR	-10988
7000	-10989
▁bc	-10990
hws	-10991
▁[1]	-10992
▁Value	-10993
▁amba	-10994
▁imm	-10995
▁gfar	-10996
lish	-10997
▁qib	-10998
▁otx	-10999
188	-11000
unicast	-11001
SIX	-11002
scb	-11003
Disable	-11004
mdb	-11005
▁started	-11006
▁keylen	-11007
zram	-11008
RESTORE	-11009
btc	-11010
▁platforms	-11011
Reset	-11012
CHK	-11013
mtx	-11014
psc	-11015
Conne	-11016
serdes	-11017
aled	-11018
rsvd	-11019
ptt	-11020
antenna	-11021
opaque	-11022
lavor	-11023
▁whole	-11024
eeh	-11025
hva	-11026
▁ATOMIC	-11027
▁fetch	-11028
hugetlb	-11029
▁ixgbevf	-11030
▁matching	-11031
▁charact	-11032
xffffff	-11033
▁Interface	-11034
TAP	-11035
▁fdt	-11036
extend	-11037
rupted	-11038
deliver	-11039
EDP	-11040
hwss	-11041
▁rdt	-11042
uaddr	-11043
▁tran	-11044
SX	-11045
837	-11046
DSC	-11047
TON	-11048
DH	-11049
▁avg	-11050
vnode	-11051
▁better	-11052
hostname	-11053
▁worker	-11054
▁However	-11055
iba	-11056
▁XDP	-11057
chains	-11058
ention	-11059
▁built	-11060
selection	-11061
▁=~	-11062
GSTRING	-11063
▁cls	-11064
WQ	-11065
ept	-11066
▁ignored	-11067
endio	-11068
clients	-11069
Mac	-11070
REVID	-11071
INTERRUPTI	-11072
▁major	-11073
▁qh	-11074
urbo	-11075
▁IPA	-11076
▁<4>;	-11077
▁nsim	-11078
CMU	-11079
▁pointers	-11080
MMY	-11081
[10	-11082
▁nlmsghdr	-11083
miss	-11084
DUMMY	-11085
sbp	-11086
▁4.	-11087
▁RG	-11088
▁arp	-11089
_8723	-11090
gmc	-11091
▁Since	-11092
oif	-11093
▁xid	-11094
▁samples	-11095
SAM	-11096
▁hwirq	-11097
▁reduce	-11098
eline	-11099
ause	-11100
▁CTRL	-11101
.");	-11102
▁SSP	-11103
▁oob	-11104
osite	-11105
brk	-11106
▁PIO	-11107
moval	-11108
resolve	-11109
▁ksm	-11110
devinfo	-11111
▁updates	-11112
ADJ	-11113
WRAP	-11114
0]	-11115
▁But	-11116
ingress	-11117
▁MXC	-11118
LABEL	-11119
freed	-11120
pI	-11121
040	-11122
▁THER	-11123
PROTECT	-11124
ramp	-11125
IOMMU	-11126
▁cipher	-11127
▁prefetch	-11128
SCL	-11129
angefs	-11130
octeon	-11131
▁lw	-11132
▁STATE	-11133
▁broken	-11134
reservation	-11135
▁props	-11136
▁states	-11137
ERESTARTSYS	-11138
▁Output	-11139
[3],	-11140
iunlock	-11141
▁Ro	-11142
trr	-11143
▁LINE	-11144
DPM	-11145
▁OTHER	-11146
leb	-11147
▁strchr	-11148
▁known	-11149
stime	-11150
chips	-11151
▁EXTENT	-11152
oke	-11153
▁SEQ	-11154
▁words	-11155
hose	-11156
▁Imp	-11157
heartbeat	-11158
bufsize	-11159
▁Time	-11160
▁BSD	-11161
sampling	-11162
▁bcmgenet	-11163
=$(	-11164
▁pcl	-11165
EXTRA	-11166
fsync	-11167
rofile	-11168
▁uuid	-11169
▁rtllib	-11170
sysreg	-11171
KL	-11172
vdpa	-11173
SMMU	-11174
elif	-11175
bitmask	-11176
▁ironlake	-11177
fws	-11178
pools	-11179
▁CODA	-11180
pde	-11181
▁vin	-11182
▁ASIC	-11183
▁forward	-11184
7);	-11185
ONSE	-11186
▁EMIT	-11187
▁parser	-11188
Ad	-11189
▁BCMA	-11190
CONTINUE	-11191
BOSE	-11192
▁User	-11193
pwrdm	-11194
▁notice	-11195
wcid	-11196
915))	-11197
103	-11198
tec	-11199
ceeded	-11200
▁100,	-11201
SOCKET	-11202
▁controllers	-11203
NVM	-11204
OLLER	-11205
AMPDU	-11206
ITECH	-11207
fourcc	-11208
insns	-11209
▁tmio	-11210
▁QUERY	-11211
sendmsg	-11212
▁RTM	-11213
subsc	-11214
54_	-11215
▁lpc	-11216
▁ModRM	-11217
1271	-11218
ccu	-11219
▁elem	-11220
variable	-11221
▁DPRINTK	-11222
CTLR	-11223
▁including	-11224
▁bulk	-11225
VIS	-11226
MILY	-11227
▁csi	-11228
aid	-11229
▁ON	-11230
▁Allocate	-11231
▁"-	-11232
Attr	-11233
▁axp	-11234
▁sparc	-11235
).\	-11236
5200	-11237
▁SUPPORT	-11238
callbacks	-11239
MAPPING	-11240
download	-11241
~~~~~~~~	-11242
[12	-11243
vmm	-11244
mos	-11245
▁cat	-11246
dle	-11247
SNDRV	-11248
▁cleared	-11249
pagelist	-11250
FCS	-11251
▁digital	-11252
850_	-11253
fatal	-11254
AVINCI	-11255
▁enetc	-11256
▁namelen	-11257
mbedded	-11258
crash	-11259
vmsg	-11260
intfdata	-11261
-1,	-11262
umb	-11263
rack	-11264
lazy	-11265
▁skge	-11266
recur	-11267
▁BOND	-11268
edia	-11269
TEK	-11270
csa	-11271
want	-11272
▁btree	-11273
▁itself	-11274
▁mvneta	-11275
▁DAVINCI	-11276
SCO	-11277
OWNER	-11278
lgr	-11279
SYSV	-11280
▁icl	-11281
lustre	-11282
pDM	-11283
▁TIO	-11284
▁LOAD	-11285
▁calib	-11286
▁hnae	-11287
Timer	-11288
▁outw	-11289
INPROGRESS	-11290
unix	-11291
▁((*	-11292
MVM	-11293
RAND	-11294
pred	-11295
3120_	-11296
INTERRUPTIBLE	-11297
THERMAL	-11298
▁divisor	-11299
▁extension	-11300
▁descriptors	-11301
moving	-11302
SYSC	-11303
▁problem	-11304
ETHER	-11305
icated	-11306
▁leds	-11307
extcon	-11308
dice	-11309
pads	-11310
RADEON	-11311
EGR	-11312
▁online	-11313
nlp	-11314
IDR	-11315
▁13,	-11316
fname	-11317
shiba	-11318
▁ADV	-11319
%%	-11320
QLA	-11321
[8]	-11322
extract	-11323
FLD	-11324
CCA	-11325
lpm	-11326
erofs	-11327
▁BNXT	-11328
Po	-11329
BUFS	-11330
▁CONTR	-11331
LOGITECH	-11332
▁mdelay	-11333
97,	-11334
▁llc	-11335
▁qid	-11336
acm	-11337
lush	-11338
▁Byte	-11339
▁longer	-11340
NOWAIT	-11341
▁#%	-11342
▁KERNEL	-11343
▁reboot	-11344
andidate	-11345
wptr	-11346
pxmit	-11347
▁coresight	-11348
Dram	-11349
sband	-11350
-3	-11351
TCR	-11352
▁acm	-11353
APB	-11354
▁dcb	-11355
INACTIVE	-11356
VL	-11357
icd	-11358
▁kmemdup	-11359
2\	-11360
ibss	-11361
BLANK	-11362
,0),	-11363
paths	-11364
secure	-11365
EINT	-11366
▁able	-11367
▁fscrypt	-11368
▁tos	-11369
Headphone	-11370
mcr	-11371
MESSAGE	-11372
fsf	-11373
targets	-11374
FAMILY	-11375
▁unlikely	-11376
sdc	-11377
▁NCR	-11378
▁sinfo	-11379
ipvs	-11380
▁PROT	-11381
▁hpsa	-11382
dealloc	-11383
ATTA	-11384
edx	-11385
POINTER	-11386
microcode	-11387
tda	-11388
▁SST	-11389
condition	-11390
============	-11391
EROFS	-11392
etm	-11393
▁fput	-11394
▁TRUE	-11395
FALLING	-11396
▁<3300000>;	-11397
SRAM	-11398
▁3),	-11399
RXL	-11400
antiate	-11401
80);	-11402
▁otg	-11403
XL	-11404
ADR	-11405
lsn	-11406
scheduler	-11407
▁ipmi	-11408
BTN	-11409
▁PO	-11410
▁termin	-11411
Res	-11412
SCTP	-11413
boundary	-11414
▁instructions	-11415
▁mtspr	-11416
NOIO	-11417
PAIR	-11418
▁axi	-11419
ablkcipher	-11420
▁bch	-11421
▁variables	-11422
▁KE	-11423
▁1},	-11424
▁'0	-11425
▁16-	-11426
▁Par	-11427
▁increase	-11428
SLICE	-11429
▁%016	-11430
▁mfspr	-11431
@2	-11432
Sy	-11433
xbb	-11434
▁rkisp	-11435
▁incorrect	-11436
▁COMPILE	-11437
BER	-11438
▁Each	-11439
▁WILC	-11440
▁pkey	-11441
▁AX	-11442
dro	-11443
goal	-11444
uled	-11445
DECLARE	-11446
▁strict	-11447
▁something	-11448
yes	-11449
VRAM	-11450
▁maps	-11451
▁binary	-11452
periodic	-11453
▁SAS	-11454
reorder	-11455
workers	-11456
32-	-11457
▁timed	-11458
▁NMI	-11459
▁sem	-11460
inuse	-11461
_15	-11462
rome	-11463
coeff	-11464
▁much	-11465
▁scrub	-11466
OTHER	-11467
▁pagevec	-11468
▁64;	-11469
pable	-11470
▁trip	-11471
▁scmd	-11472
identify	-11473
unref	-11474
regbase	-11475
consume	-11476
▁xgifb	-11477
SKL	-11478
▁];	-11479
rerror	-11480
▁spd	-11481
(10);	-11482
ICKEN	-11483
mitted	-11484
PREEMPT	-11485
atime	-11486
▁PMIC	-11487
▁cards	-11488
)");	-11489
264_	-11490
MODNAME	-11491
race	-11492
guous	-11493
ibern	-11494
DISC	-11495
PIXEL	-11496
▁devid	-11497
▁pqi	-11498
UNLOCK	-11499
icc	-11500
SREG	-11501
16(&	-11502
▁BIP	-11503
devtype	-11504
▁kstrdup	-11505
▁Off	-11506
general	-11507
DISK	-11508
nexthop	-11509
LING	-11510
cfq	-11511
817	-11512
SOF	-11513
▁ASYNC	-11514
construct	-11515
SEM	-11516
▁Optional	-11517
bno	-11518
▁ln	-11519
verity	-11520
▁AND	-11521
NMI	-11522
ering	-11523
▁sfp	-11524
▁overlay	-11525
SCI	-11526
230_	-11527
ming	-11528
progs	-11529
▁SIOC	-11530
▁consi	-11531
fcs	-11532
lkb	-11533
▁future	-11534
▁consume	-11535
▁WI	-11536
▁igc	-11537
▁<12	-11538
bcd	-11539
pbl	-11540
▁RV	-11541
BROADCOM	-11542
vnic	-11543
▁regulators	-11544
clip	-11545
PROMISC	-11546
8",	-11547
CHR	-11548
dbgfs	-11549
ITER	-11550
mrq	-11551
COEX	-11552
Comp	-11553
interfaces	-11554
wab	-11555
▁care	-11556
HANDLER	-11557
▁enabling	-11558
glob	-11559
invert	-11560
temperature	-11561
RK	-11562
ocfs	-11563
▁20)	-11564
▁ipr	-11565
▁reservation	-11566
ICAL	-11567
MULTIP	-11568
previous	-11569
SIM	-11570
WQE	-11571
32.	-11572
Spe	-11573
PHASE	-11574
PRESET	-11575
dependent	-11576
▁side	-11577
DPC	-11578
▁deli	-11579
▁ww	-11580
▁rmap	-11581
▁unsupported	-11582
▁had	-11583
custom	-11584
▁recover	-11585
▁nents	-11586
HEL	-11587
▁UNIP	-11588
▁pstr	-11589
▁genpd	-11590
Bit	-11591
izing	-11592
newsk	-11593
srctree	-11594
▁SSI	-11595
emon	-11596
80000	-11597
▁zram	-11598
STATIC	-11599
▁xor	-11600
contig	-11601
dbf	-11602
▁disabling	-11603
▁Introduce	-11604
▁areq	-11605
CIFS	-11606
836	-11607
MULTICAST	-11608
MCP	-11609
xas	-11610
32((	-11611
▁"=&	-11612
latform	-11613
▁Implement	-11614
ices	-11615
arc	-11616
▁works	-11617
_8_	-11618
▁gem	-11619
DOORBELL	-11620
▁Ens	-11621
▁1000)	-11622
nthesize	-11623
signature	-11624
vey	-11625
▁SL	-11626
▁mcs	-11627
DIGITAL	-11628
ield	-11629
▁adf	-11630
qup	-11631
untry	-11632
▁LI	-11633
TRUNC	-11634
(7,	-11635
▁PFN	-11636
▁fdb	-11637
slaves	-11638
wood	-11639
▁Mark	-11640
amon	-11641
TK	-11642
193	-11643
icr	-11644
SYSVIPC	-11645
▁strcmp	-11646
_10_	-11647
▁etm	-11648
▁256,	-11649
readpage	-11650
FUSE	-11651
▁CEC	-11652
Check	-11653
Cle	-11654
▁NIC	-11655
▁boards	-11656
PLAYBACK	-11657
▁virtqueue	-11658
"␍	-11659
ko	-11660
955	-11661
MN	-11662
SEN	-11663
▁pvt	-11664
▁qt	-11665
enand	-11666
▁devfreq	-11667
lw	-11668
oton	-11669
startoff	-11670
lps	-11671
▁cid	-11672
exists	-11673
▁users	-11674
▁ever	-11675
▁graph	-11676
▁fpga	-11677
▁adj	-11678
▁fscache	-11679
fabric	-11680
RESTART	-11681
translate	-11682
▁ADD	-11683
PATTERN	-11684
▁SYSCALL	-11685
DCB	-11686
▁By	-11687
PSC	-11688
▁RW	-11689
▁dpc	-11690
devname	-11691
noise	-11692
CAPABLE	-11693
TOR	-11694
calls	-11695
ebx	-11696
coef	-11697
FIO	-11698
CHIQ	-11699
▁ssb	-11700
creds	-11701
(6,	-11702
▁Inst	-11703
METH	-11704
▁elements	-11705
mth	-11706
fcoe	-11707
mant	-11708
▁SetPage	-11709
duplicate	-11710
outs	-11711
vior	-11712
preferred	-11713
▁<1800000>;	-11714
_{	-11715
unc	-11716
▁ifindex	-11717
targ	-11718
vdisplay	-11719
▁fq	-11720
▁"");	-11721
collect	-11722
VIA	-11723
FORCED	-11724
modules	-11725
CONTROLLER	-11726
dqm	-11727
SIST	-11728
▁ccid	-11729
▁workaround	-11730
rsc	-11731
▁MIC	-11732
▁outbox	-11733
_802_11_	-11734
waitqueue	-11735
▁CAL	-11736
▁msix	-11737
bottom	-11738
▁Link	-11739
CORRUP	-11740
Output	-11741
2=	-11742
STALL	-11743
▁bytenr	-11744
▁VX	-11745
▁odm	-11746
▁btc	-11747
skbuff	-11748
▁genlmsg	-11749
autoneg	-11750
highest	-11751
}"	-11752
DUP	-11753
▁PRE	-11754
▁rest	-11755
▁And	-11756
3";	-11757
▁none	-11758
▁Test	-11759
48,	-11760
bch	-11761
RETURN	-11762
association	-11763
▁*)__	-11764
▁Speci	-11765
performance	-11766
TEC	-11767
▁TRAP	-11768
▁framebuffer	-11769
YV	-11770
kr	-11771
pct	-11772
ength	-11773
vered	-11774
archy	-11775
▁ddata	-11776
ptrs	-11777
SETTING	-11778
40000000	-11779
BK	-11780
ghz	-11781
atest	-11782
▁intc	-11783
VERIFY	-11784
▁efuse	-11785
▁rhashtable	-11786
zip	-11787
ORIG	-11788
▁offsets	-11789
measure	-11790
▁fixes	-11791
pitches	-11792
mcc	-11793
urg	-11794
iprintf	-11795
typec	-11796
▁https	-11797
▁issues	-11798
offloads	-11799
lectron	-11800
7921_	-11801
DEVICES	-11802
▁0>,	-11803
5100_	-11804
▁clks	-11805
▁vring	-11806
▁THERMAL	-11807
itv	-11808
MASKED	-11809
▁QLCNIC	-11810
▁reads	-11811
▁progress	-11812
RMW	-11813
slices	-11814
▁INPUT	-11815
BSSID	-11816
▁LOCK	-11817
▁655	-11818
sacked	-11819
▁uniphier	-11820
5651_	-11821
▁disp	-11822
5->	-11823
9_0_	-11824
▁erase	-11825
▁&__	-11826
▁SLAB	-11827
UMB	-11828
2800	-11829
icks	-11830
▁ccp	-11831
▁declar	-11832
ASP	-11833
bob	-11834
SLAB	-11835
sage	-11836
eper	-11837
▁smmu	-11838
_4,	-11839
systems	-11840
SECURITY	-11841
:"	-11842
▁sir	-11843
▁Send	-11844
Fe	-11845
▁fcport	-11846
DLM	-11847
HASWELL	-11848
SEGMENT	-11849
23,	-11850
▁role	-11851
▁sctx	-11852
powerplay	-11853
▁share	-11854
promisc	-11855
revalidate	-11856
SDHC	-11857
bject	-11858
▁append	-11859
▁results	-11860
directory	-11861
▁apci	-11862
realloc	-11863
80;	-11864
CTEON	-11865
▁burst	-11866
waiting	-11867
FLO	-11868
▁dpm	-11869
iterator	-11870
▁nx	-11871
▁IA	-11872
▁mappings	-11873
IIR	-11874
OLE	-11875
ARGE	-11876
▁ppgtt	-11877
104_	-11878
lockres	-11879
pbuf	-11880
▁AUX	-11881
▁dat	-11882
▁pop	-11883
GAM	-11884
▁TIF	-11885
Cache	-11886
ufa	-11887
discovery	-11888
altsetting	-11889
writepage	-11890
▁TRB	-11891
▁ibm	-11892
▁29	-11893
passive	-11894
▁hclgevf	-11895
▁tz	-11896
▁suc	-11897
643	-11898
xcc	-11899
▁SCHED	-11900
▁selector	-11901
85_	-11902
STM	-11903
Opt	-11904
sih	-11905
bfin	-11906
▁jack	-11907
usable	-11908
▁loading	-11909
011	-11910
NOOP	-11911
▁blkg	-11912
▁Version	-11913
fold	-11914
OO	-11915
▁ACL	-11916
▁iobase	-11917
atl	-11918
▁RAID	-11919
(12	-11920
▁'/	-11921
▁amp	-11922
▁1000,	-11923
▁df	-11924
▁#0	-11925
()->	-11926
▁statistics	-11927
ibs	-11928
wow	-11929
▁WD	-11930
_);	-11931
▁pgtable	-11932
▁bfq	-11933
ittle	-11934
sglist	-11935
egress	-11936
▁symbols	-11937
▁GPIOD	-11938
▁timings	-11939
ints	-11940
▁iattr	-11941
▁gendisk	-11942
SCC	-11943
STRICT	-11944
BXT	-11945
keycode	-11946
▁FAULT	-11947
▁22	-11948
1378	-11949
suite	-11950
verti	-11951
▁10000	-11952
▁Ensure	-11953
▁improve	-11954
YU	-11955
▁Micro	-11956
outstanding	-11957
HALF	-11958
PARTIAL	-11959
▁DPRINT	-11960
OVERFLOW	-11961
nsup	-11962
▁denali	-11963
ularity	-11964
RESPONSE	-11965
▁ETHTOOL	-11966
▁identifier	-11967
▁gk	-11968
140	-11969
8)(	-11970
▁MAY	-11971
uintptr	-11972
▁swiotlb	-11973
▁ctlr	-11974
▁optlen	-11975
ndlp	-11976
CSC	-11977
▁RTA	-11978
APPEND	-11979
IGRATE	-11980
.0",	-11981
AML	-11982
regset	-11983
▁Ma	-11984
icm	-11985
retrans	-11986
actor	-11987
▁COPY	-11988
▁shash	-11989
Handler	-11990
)*	-11991
VSC	-11992
▁deci	-11993
▁uverbs	-11994
una	-11995
psock	-11996
tiling	-11997
ifs	-11998
acx	-11999
}|	-12000
gus	-12001
▁regions	-12002
400,	-12003
▁hop	-12004
IMAGE	-12005
genic	-12006
▁fake	-12007
▁ER	-12008
▁UNIPHIER	-12009
apa	-12010
▁taken	-12011
▁actions	-12012
uk	-12013
▁ADDR	-12014
▁byt	-12015
ird	-12016
Block	-12017
Clock	-12018
ceiv	-12019
laptop	-12020
___	-12021
480	-12022
-1);	-12023
▁weight	-12024
▁cpuinfo	-12025
76,	-12026
BRAN	-12027
AGG	-12028
▁STE	-12029
▁isert	-12030
▁various	-12031
wac	-12032
▁qede	-12033
stal	-12034
emc	-12035
venc	-12036
ibility	-12037
XDP	-12038
▁macb	-12039
5380_	-12040
sev	-12041
▁PID	-12042
SECOND	-12043
▁arguments	-12044
▁dependency	-12045
▁merge	-12046
▁parsing	-12047
initrd	-12048
▁OTG	-12049
utils	-12050
nphy	-12051
▁autofs	-12052
BIO	-12053
wide	-12054
pevent	-12055
BROADCAST	-12056
120	-12057
msdu	-12058
▁INVALID	-12059
hea	-12060
arms	-12061
▁EEH	-12062
irty	-12063
rotl	-12064
Be	-12065
LATENCY	-12066
▁libbpf	-12067
urther	-12068
▁memcmp	-12069
.␜	-12070
9-	-12071
Jo	-12072
▁8))	-12073
▁0;/*	-12074
CHICKEN	-12075
CLEAN	-12076
HSYNC	-12077
▁mclk	-12078
▁msgs	-12079
lar	-12080
CEPT	-12081
JPEG	-12082
▁VLV	-12083
ROUP	-12084
▁pcibios	-12085
exts	-12086
aring	-12087
▁26	-12088
8379	-12089
▁**)	-12090
RATION	-12091
iods	-12092
mpeg	-12093
protection	-12094
HUGE	-12095
pframe	-12096
▁Function	-12097
BREAK	-12098
Setting	-12099
▁agno	-12100
nodeid	-12101
initions	-12102
▁boundary	-12103
isize	-12104
multiple	-12105
xo	-12106
5682_	-12107
annot	-12108
cpsw	-12109
vhost	-12110
nocache	-12111
▁tgt	-12112
▁fragment	-12113
MPT	-12114
SESSION	-12115
kset	-12116
▁unless	-12117
7",	-12118
▁Type	-12119
evaluate	-12120
_60	-12121
64;	-12122
EMAC	-12123
▁scp	-12124
render	-12125
ully	-12126
sblk	-12127
▁flip	-12128
PULLDOWN	-12129
smd	-12130
iclog	-12131
▁AMP	-12132
caller	-12133
umc	-12134
chno	-12135
wdata	-12136
▁acquire	-12137
▁3))	-12138
pdp	-12139
▁sti	-12140
zs	-12141
▁1>;	-12142
pcmd	-12143
▁multicast	-12144
SUBTYPE	-12145
nsupported	-12146
-1;	-12147
BSP	-12148
motu	-12149
▁?:	-12150
zdev	-12151
▁URB	-12152
000>;	-12153
▁txd	-12154
▁bssid	-12155
▁processed	-12156
crop	-12157
090	-12158
dws	-12159
_16_	-12160
licon	-12161
glue	-12162
wanted	-12163
▁corrupt	-12164
By	-12165
Map	-12166
▁pctl	-12167
SELF	-12168
ADATA	-12169
▁ilog	-12170
80211(	-12171
managed	-12172
▁PCMCIA	-12173
16;	-12174
ocal	-12175
BASIC	-12176
▁EDID	-12177
runs	-12178
wireless	-12179
mkdir	-12180
hrtimer	-12181
TU	-12182
herit	-12183
ERG	-12184
agc	-12185
ench	-12186
▁beiscsi	-12187
persistent	-12188
▁formats	-12189
▁lost	-12190
▁plug	-12191
▁getting	-12192
▁xc	-12193
ISER	-12194
plen	-12195
▁han	-12196
▁ARMV	-12197
▁qdio	-12198
_128	-12199
▁SATA	-12200
ssk	-12201
▁%-	-12202
softirq	-12203
▁<2	-12204
itical	-12205
▁(4	-12206
▁RQ	-12207
VIDIOC	-12208
wmm	-12209
COEF	-12210
uation	-12211
fsoc	-12212
▁evo	-12213
()\	-12214
▁DST	-12215
▁33	-12216
▁anything	-12217
▁reported	-12218
cputime	-12219
boards	-12220
▁{{	-12221
lling	-12222
200,	-12223
▁../	-12224
▁import	-12225
########	-12226
ELF	-12227
tcb	-12228
xfc	-12229
CUST	-12230
prph	-12231
gnt	-12232
▁grace	-12233
26,	-12234
gdt	-12235
sptep	-12236
EINTR	-12237
▁UVC	-12238
▁COMMON	-12239
▁desired	-12240
▁secondary	-12241
600,	-12242
▁rnp	-12243
YLAKE	-12244
▁dual	-12245
▁Pointer	-12246
PERFCTR	-12247
memblock	-12248
NP	-12249
putc	-12250
labs	-12251
writesize	-12252
▁($(	-12253
▁encrypt	-12254
rax	-12255
▁MCE	-12256
TECTION	-12257
▁memmove	-12258
▁MR	-12259
SCAL	-12260
periph	-12261
▁AHCI	-12262
GOOD	-12263
ethernet	-12264
celer	-12265
bnx	-12266
▁hang	-12267
▁capacity	-12268
▁balance	-12269
%0,	-12270
▁System	-12271
▁Reserved	-12272
36_	-12273
SHAD	-12274
filled	-12275
▁vmlinux	-12276
▁digest	-12277
▁osc	-12278
chanctx	-12279
ATER	-12280
▁rather	-12281
mptcp	-12282
▁title	-12283
qeth	-12284
REMAP	-12285
▁writew	-12286
poch	-12287
▁deprecated	-12288
[32	-12289
TSTAMP	-12290
(6	-12291
Smu	-12292
▁hsotg	-12293
anularity	-12294
stb	-12295
▁custom	-12296
▁constraint	-12297
cpt	-12298
SPDIF	-12299
HEIGHT	-12300
SIMPLE	-12301
▁package	-12302
▁dlen	-12303
▁BATADV	-12304
DX	-12305
OOB	-12306
/1:	-12307
06_	-12308
0__	-12309
Image	-12310
111_	-12311
▁31	-12312
▁expr	-12313
▁100);	-12314
EBAD	-12315
EGER	-12316
chdr	-12317
▁equal	-12318
▁pframe	-12319
seen	-12320
sses	-12321
EACCES	-12322
SVC	-12323
mite	-12324
▁VER	-12325
▁nameidata	-12326
▁semaphore	-12327
LSR	-12328
PIC	-12329
▁POSTING	-12330
▁indirect	-12331
TILE	-12332
▁nhoff	-12333
VEGA	-12334
pulated	-12335
IRC	-12336
CAUSE	-12337
SGMII	-12338
966	-12339
▁blkdev	-12340
aby	-12341
▁rio	-12342
▁SUB	-12343
▁mix	-12344
movable	-12345
20-	-12346
▁browser	-12347
chs	-12348
hit	-12349
chanism	-12350
▁sgl	-12351
nto	-12352
vop	-12353
xtal	-12354
44_	-12355
bla	-12356
apert	-12357
bands	-12358
precv	-12359
MSGSIZE	-12360
▁bdaddr	-12361
▁filemap	-12362
uf	-12363
_18	-12364
abi	-12365
icen	-12366
▁24;	-12367
▁Devices	-12368
RECE	-12369
▁SRC	-12370
pcid	-12371
sects	-12372
rystal	-12373
802_	-12374
▁DESC	-12375
▁Request	-12376
▁snapshot	-12377
chained	-12378
AME	-12379
Bus	-12380
waitq	-12381
▁9);	-12382
▁nbd	-12383
▁SDMA	-12384
▁readb	-12385
▁parport	-12386
gpmc	-12387
TYPES	-12388
LEDS	-12389
vmap	-12390
scc	-12391
expired	-12392
bfqq	-12393
▁rss	-12394
▁Elf	-12395
NODMA	-12396
3430_	-12397
▁DCB	-12398
▁swp	-12399
▁creation	-12400
nof	-12401
6210_	-12402
cessor	-12403
▁dropped	-12404
▁algorithm	-12405
qlen	-12406
▁rts	-12407
▁cast	-12408
▁AK	-12409
29,	-12410
modifier	-12411
terminate	-12412
Not	-12413
did	-12414
MCAST	-12415
TICK	-12416
IDENT	-12417
▁enic	-12418
JA	-12419
▁}\	-12420
▁rdata	-12421
▁dg	-12422
ani	-12423
vger	-12424
schema	-12425
LOWER	-12426
codecs	-12427
leted	-12428
▁white	-12429
etherdev	-12430
▁ioat	-12431
was	-12432
▁doorbell	-12433
7.	-12434
CSS	-12435
▁atl	-12436
▁TLV	-12437
pgt	-12438
▁mmSDMA	-12439
DCN	-12440
▁rsvd	-12441
339	-12442
▁xxxx	-12443
▁ISA	-12444
migration	-12445
01;	-12446
ENOTSUPP	-12447
HF	-12448
IBM	-12449
datagram	-12450
8000,	-12451
▁released	-12452
ucontext	-12453
▁callchain	-12454
▁typec	-12455
SUPPORTS	-12456
▁general	-12457
simd	-12458
▁psize	-12459
Ant	-12460
VALL	-12461
hpte	-12462
dwmac	-12463
423	-12464
▁isol	-12465
fld	-12466
xfd	-12467
^^	-12468
▁outl	-12469
OSC	-12470
mbt	-12471
quiry	-12472
#%	-12473
tce	-12474
EYVIEW	-12475
encrypted	-12476
▁60	-12477
maxlen	-12478
980	-12479
BID	-12480
IXGBE	-12481
▁dmar	-12482
CQE	-12483
rusted	-12484
SAMSUNG	-12485
▁dapm	-12486
SMU	-12487
rval	-12488
hlist	-12489
)+	-12490
▁car	-12491
EXACT	-12492
CLOSEST	-12493
▁CPUFREQ	-12494
▁successfully	-12495
Swap	-12496
13783_	-12497
,0,	-12498
iowrite	-12499
drc	-12500
pltfm	-12501
BRANCH	-12502
fication	-12503
">	-12504
NEST	-12505
atory	-12506
▁clp	-12507
▁polarity	-12508
▁movl	-12509
▁Left	-12510
44,	-12511
▁movq	-12512
▁31,	-12513
IFACE	-12514
TRANSFER	-12515
ushed	-12516
988	-12517
▁edev	-12518
recvmsg	-12519
▁COMPAT	-12520
ilter	-12521
erra	-12522
evtchn	-12523
exclude	-12524
hf	-12525
▁Me	-12526
ANON	-12527
▁MPP	-12528
UED	-12529
▁Base	-12530
FFF	-12531
irkwood	-12532
lnk	-12533
▁802.	-12534
▁VE	-12535
▁rcv	-12536
8994->	-12537
▁dssdev	-12538
VALLEYVIEW	-12539
▁GT	-12540
▁credits	-12541
ndx	-12542
FAM	-12543
uts	-12544
▁wi	-12545
endm	-12546
LUN	-12547
▁Btrfs	-12548
filters	-12549
spt	-12550
▁SAVE	-12551
▁selection	-12552
eip	-12553
▁gl	-12554
(2),	-12555
gpad	-12556
REACH	-12557
BATCH	-12558
▁Hz	-12559
pgio	-12560
standard	-12561
??	-12562
▁SMI	-12563
▁bma	-12564
▁half	-12565
▁cfi	-12566
▁mean	-12567
▁vgpu	-12568
SDHCI	-12569
clocksource	-12570
${	-12571
oked	-12572
iron	-12573
176	-12574
BOND	-12575
20;	-12576
34,	-12577
▁mf	-12578
▁transition	-12579
dib	-12580
▁"${	-12581
rsize	-12582
▁Skip	-12583
▁ethhdr	-12584
▁NETLINK	-12585
gested	-12586
BULK	-12587
▁tcphdr	-12588
ufacture	-12589
tu	-12590
▁Exp	-12591
follow	-12592
▁compare	-12593
cmt	-12594
binary	-12595
correct	-12596
▁xilinx	-12597
regval	-12598
▁IMA	-12599
ISCSI	-12600
clamp	-12601
:",	-12602
▁portid	-12603
▁End	-12604
▁1024;	-12605
PARAMETER	-12606
vqs	-12607
flat	-12608
▁nmi	-12609
bip	-12610
▁SAA	-12611
▁Please	-12612
If	-12613
imr	-12614
sda	-12615
ving	-12616
▁live	-12617
⁄4	-12618
good	-12619
pattrib	-12620
▁whichfork	-12621
forced	-12622
odp	-12623
iounmap	-12624
-1]	-12625
nfit	-12626
▁bxt	-12627
▁Clean	-12628
MPC	-12629
hcon	-12630
▁DEVLINK	-12631
▁etnaviv	-12632
tod	-12633
tpt	-12634
▁HC	-12635
setsockopt	-12636
58_	-12637
irrus	-12638
▁edma	-12639
mstp	-12640
▁PAD	-12641
truesize	-12642
1=	-12643
▁15)	-12644
▁PSR	-12645
bmbt	-12646
▁origin	-12647
▁28	-12648
fire	-12649
▁2));	-12650
atm	-12651
anced	-12652
hwtstamp	-12653
▁LD	-12654
▁DSA	-12655
ONENT	-12656
pls	-12657
ROTO	-12658
This	-12659
▁ingress	-12660
▁dereference	-12661
▁Date	-12662
parity	-12663
sdw	-12664
tok	-12665
▁included	-12666
_1);	-12667
_660	-12668
Queue	-12669
Memory	-12670
.",	-12671
▁falcon	-12672
▁LTC	-12673
mcdi	-12674
▁calculation	-12675
▁commun	-12676
*\	-12677
▁OK	-12678
AREA	-12679
▁BXT	-12680
ERA	-12681
FILL	-12682
PROCESS	-12683
ZO	-12684
▁å	-12685
DYN	-12686
PXA	-12687
▁COM	-12688
▁ctr	-12689
▁ntb	-12690
addresses	-12691
but	-12692
▁pasid	-12693
ENCRYPT	-12694
tpm	-12695
▁bg	-12696
▁Save	-12697
▁SUPPORTED	-12698
IZED	-12699
oriz	-12700
▁references	-12701
ipsec	-12702
xygen	-12703
▁%8	-12704
▁VP	-12705
▁bsize	-12706
Interrupt	-12707
MAKE	-12708
ANALOG	-12709
▁nfserr	-12710
ECH	-12711
_256	-12712
▁alpha	-12713
▁compiler	-12714
vfd	-12715
▁unwind	-12716
TAB	-12717
NODES	-12718
▁fmode	-12719
▁persistent	-12720
DBF	-12721
▁qstr	-12722
▁preemp	-12723
▁assignment	-12724
;)	-12725
6521	-12726
ITR	-12727
DIMM	-12728
INED	-12729
kexec	-12730
BRCM	-12731
▁STB	-12732
▁higher	-12733
TWL	-12734
ddp	-12735
mpi	-12736
txdesc	-12737
▁trying	-12738
▁100)	-12739
▁storage	-12740
▁ios	-12741
▁arvif	-12742
subscript	-12743
clc	-12744
00),	-12745
▁sms	-12746
pernet	-12747
▁integer	-12748
▁percent	-12749
PAY	-12750
▁tape	-12751
tbo	-12752
Chip	-12753
▁brd	-12754
▁pic	-12755
▁Also	-12756
▁tell	-12757
MANAGE	-12758
▁surface	-12759
__(	-12760
▁disconnect	-12761
4/	-12762
:/*	-12763
AST	-12764
CTIONAL	-12765
notification	-12766
snps	-12767
NONBLOCK	-12768
▁shmobile	-12769
+0	-12770
AFE	-12771
▁tpg	-12772
▁accesses	-12773
▁increment	-12774
▁shall	-12775
publ	-12776
▁Sub	-12777
▁pul	-12778
GREEN	-12779
▁1)))	-12780
layers	-12781
polling	-12782
128_	-12783
▁msp	-12784
ilock	-12785
RUNTIME	-12786
EK	-12787
VERBOSE	-12788
EXPERIMENTAL	-12789
▁\"%	-12790
METHOD	-12791
elapsed	-12792
▁loopback	-12793
168	-12794
pmtu	-12795
contexts	-12796
ongson	-12797
▁potential	-12798
solete	-12799
▁compressed	-12800
summed	-12801
[8];	-12802
dB	-12803
conv	-12804
▁DLM	-12805
alculate	-12806
▁Find	-12807
sectorsize	-12808
FLOWER	-12809
▁malloc	-12810
_5_	-12811
mems	-12812
ssth	-12813
irtual	-12814
tee	-12815
meter	-12816
Capture	-12817
▁made	-12818
▁1.2	-12819
▁ras	-12820
noirq	-12821
▁mq	-12822
▁srq	-12823
inum	-12824
▁WACOM	-12825
▁ven	-12826
▁50	-12827
armada	-12828
rxt	-12829
Firmware	-12830
clkr	-12831
▁Bus	-12832
▁STEP	-12833
▁matches	-12834
instantiate	-12835
▁pdc	-12836
gmt	-12837
otp	-12838
illi	-12839
#/	-12840
bx	-12841
timed	-12842
▁CHECKSUM	-12843
40);	-12844
shake	-12845
90,	-12846
Scan	-12847
▁ltc	-12848
uhci	-12849
mali	-12850
NOWARN	-12851
!!	-12852
tho	-12853
8712_	-12854
bsize	-12855
excel	-12856
▁Command	-12857
▁holding	-12858
DISCONNECT	-12859
uto	-12860
▁ingenic	-12861
▁20;	-12862
ILBOX	-12863
192	-12864
▁beco	-12865
||	-12866
▁Try	-12867
WIFIEX	-12868
▁En	-12869
▁isr	-12870
caches	-12871
userspace	-12872
olean	-12873
NVME	-12874
BASED	-12875
agn	-12876
▁48	-12877
MTK	-12878
▁lvds	-12879
▁entire	-12880
Bytes	-12881
▁signed	-12882
▁UL	-12883
EXTENDED	-12884
▁23	-12885
reject	-12886
▁parts	-12887
▁modified	-12888
ground	-12889
▁CFLAGS	-12890
▁cleaned	-12891
HOC	-12892
cov	-12893
hsmmc	-12894
LID	-12895
▁',	-12896
pst	-12897
▁CONTROL	-12898
nq	-12899
dmc	-12900
subs	-12901
▁THREAD	-12902
Car	-12903
ubuf	-12904
▁SYM	-12905
▁lba	-12906
▁SCIF	-12907
▁"<	-12908
WIDGET	-12909
EINPROGRESS	-12910
▁protected	-12911
IEs	-12912
msp	-12913
getattr	-12914
▁agp	-12915
▁pitch	-12916
Receive	-12917
hfi	-12918
USAGE	-12919
_8250_	-12920
csdev	-12921
upload	-12922
▁ENET	-12923
hyst	-12924
SENSORS	-12925
▁qup	-12926
modrm	-12927
▁duty	-12928
▁initrd	-12929
▁unneeded	-12930
RULE	-12931
[2].	-12932
RANDOM	-12933
▁silent	-12934
retprobe	-12935
▁Res	-12936
▁vnic	-12937
MONO	-12938
typeof	-12939
operand	-12940
ALSA	-12941
▁deadlock	-12942
▁hmm	-12943
pebs	-12944
blink	-12945
ofday	-12946
METADATA	-12947
chnl	-12948
synchronous	-12949
▁cgrp	-12950
LAYOUT	-12951
64)(	-12952
txrx	-12953
));\	-12954
▁XEN	-12955
▁Lock	-12956
▁CT	-12957
nss	-12958
ioda	-12959
listener	-12960
mxc	-12961
▁sit	-12962
▁EXIT	-12963
unmapped	-12964
▁bitmask	-12965
oss	-12966
identity	-12967
▁sram	-12968
▁util	-12969
▁INTER	-12970
_83	-12971
outb	-12972
NETLINK	-12973
32))	-12974
WACOM	-12975
▁docs	-12976
CLKDIV	-12977
Array	-12978
gpuobj	-12979
▁512,	-12980
10.	-12981
cbc	-12982
opal	-12983
tagged	-12984
▁maintainers	-12985
▁fep	-12986
NUMA	-12987
posix	-12988
VBUS	-12989
▁PFX	-12990
▁ulong	-12991
unsupported	-12992
CW	-12993
duty	-12994
symbols	-12995
150	-12996
▁PXA	-12997
00000000},	-12998
▁containing	-12999
▁OS	-13000
kbuf	-13001
▁ALLOC	-13002
wrq	-13003
EXCLU	-13004
ROY	-13005
json	-13006
ordin	-13007
▁variant	-13008
inputs	-13009
sseu	-13010
▁SIGN	-13011
MiB	-13012
hmac	-13013
pinmux	-13014
cxt	-13015
▁od	-13016
LATER	-13017
▁SUNXI	-13018
▁blkcg	-13019
▁14)	-13020
▁copies	-13021
MOS	-13022
▁LAN	-13023
Dev	-13024
beep	-13025
WS	-13026
▁uhci	-13027
▁obtain	-13028
dls	-13029
devt	-13030
UNDER	-13031
▁listen	-13032
▁gss	-13033
▁pb	-13034
SECT	-13035
▁sband	-13036
destruct	-13037
BUT	-13038
DCE	-13039
▁ET	-13040
PUSH	-13041
▁gso	-13042
rbm	-13043
▁oxygen	-13044
030	-13045
▁pause	-13046
detected	-13047
▁ih	-13048
▁*(.	-13049
pcdev	-13050
plink	-13051
▁fattr	-13052
activity	-13053
ECN	-13054
▁Qu	-13055
▁UVD	-13056
▁pinned	-13057
▁ilk	-13058
Parameter	-13059
description	-13060
17_	-13061
▁Digital	-13062
qps	-13063
xgmi	-13064
SPROM	-13065
tions	-13066
64.	-13067
inval	-13068
ioend	-13069
_1;	-13070
NORM	-13071
▁ksmbd	-13072
▁framework	-13073
fwstate	-13074
eoi	-13075
iif	-13076
▁upd	-13077
ACCEPT	-13078
▁HPAGE	-13079
▁series	-13080
▁termios	-13081
ABI	-13082
aming	-13083
PKG	-13084
ignal	-13085
intval	-13086
("[	-13087
▁few	-13088
▁FPGA	-13089
▁Audio	-13090
Reserved	-13091
lectronics	-13092
▁ACCESS	-13093
RATIO	-13094
choose	-13095
▁PMBUS	-13096
▁inner	-13097
HalData	-13098
▁Called	-13099
▁rect	-13100
xtime	-13101
▁charger	-13102
QPT	-13103
▁BM	-13104
▁ntfs	-13105
ilar	-13106
▁NEW	-13107
dvi	-13108
TRIX	-13109
bcn	-13110
▁bufs	-13111
▁lq	-13112
10),	-13113
▁rxd	-13114
▁bail	-13115
FID	-13116
cpuidle	-13117
zap	-13118
aspm	-13119
▁charge	-13120
gpiochip	-13121
▁(8	-13122
MOTE	-13123
WANT	-13124
▁CRTC	-13125
▁zpci	-13126
refill	-13127
▁chosen	-13128
▁exclusive	-13129
▁&_	-13130
▁1>,	-13131
▁addi	-13132
TERM	-13133
▁hwmgr	-13134
readahead	-13135
▁explicitly	-13136
NER	-13137
frozen	-13138
▁QCOM	-13139
Features	-13140
▁First	-13141
▁rssi	-13142
▁imap	-13143
unwind	-13144
dra	-13145
▁sep	-13146
IRR	-13147
011_	-13148
▁MTU	-13149
15)	-13150
ATU	-13151
▁hpet	-13152
cpuset	-13153
▁4));	-13154
HR	-13155
▁UNI	-13156
▁ids	-13157
▁FP	-13158
pmdp	-13159
▁deal	-13160
▁CN	-13161
8997_	-13162
▁segs	-13163
10000>;	-13164
writephy	-13165
▁WQ	-13166
83795_	-13167
7),	-13168
9),	-13169
▁fbdev	-13170
▁DAS	-13171
arning	-13172
wkup	-13173
▁Core	-13174
▁returning	-13175
212	-13176
00000;	-13177
connectors	-13178
▁likely	-13179
PANEL	-13180
DISSECTOR	-13181
watermarks	-13182
3⁄4	-13183
▁NISTC	-13184
LPM	-13185
▁30,	-13186
(~	-13187
ats	-13188
sme	-13189
▁ced	-13190
INTEGER	-13191
WOR	-13192
elo	-13193
shrinker	-13194
▁Jack	-13195
LLC	-13196
770_	-13197
EARLY	-13198
▁annotate	-13199
mkey	-13200
▁PMC	-13201
uobject	-13202
▁stopped	-13203
ffix	-13204
SLOTS	-13205
▁44	-13206
▁QP	-13207
▁adt	-13208
mappings	-13209
prefetch	-13210
mec	-13211
CASE	-13212
reverse	-13213
wcn	-13214
wall	-13215
▁takes	-13216
▁Source	-13217
ERRY	-13218
plan	-13219
▁rpm	-13220
SIP	-13221
hooks	-13222
sad	-13223
definitions	-13224
lro	-13225
mdma	-13226
amdkfd	-13227
iftype	-13228
COMPONENT	-13229
ASER	-13230
▁uasm	-13231
00.	-13232
▁Log	-13233
SIGBUS	-13234
▁mgr	-13235
psn	-13236
▁DDR	-13237
▁Doc	-13238
STALE	-13239
COUNTERS	-13240
Lx	-13241
pie	-13242
▁(3	-13243
blocknr	-13244
▁(*(	-13245
▁TDA	-13246
EEK	-13247
UPPER	-13248
▁thus	-13249
processed	-13250
▁PD	-13251
0)/*	-13252
▁blob	-13253
▁timeo	-13254
glo	-13255
sar	-13256
AMBLE	-13257
▁ULONG	-13258
▁mmp	-13259
▁Simp	-13260
▁attempt	-13261
240	-13262
Cap	-13263
▁ES	-13264
USEC	-13265
ading	-13266
HELPER	-13267
hashinfo	-13268
18271_	-13269
BROKEN	-13270
▁Ste	-13271
▁Setup	-13272
peripheral	-13273
VLV	-13274
▁nci	-13275
▁marked	-13276
rsnd	-13277
▁BIO	-13278
▁ii	-13279
▁generated	-13280
ors	-13281
(7)	-13282
LASH	-13283
▁makes	-13284
▁immediately	-13285
bpc	-13286
▁INTR	-13287
DESTROY	-13288
opregion	-13289
TRANSPORT	-13290
umbo	-13291
▁gmc	-13292
synthesize	-13293
48_	-13294
10",	-13295
oxfw	-13296
sdkp	-13297
▁FD	-13298
Call	-13299
mcspi	-13300
CCR	-13301
THR	-13302
blkcg	-13303
▁emac	-13304
tdp	-13305
QUEUED	-13306
DONTWAIT	-13307
▁ì	-13308
poweroff	-13309
▁restri	-13310
CIP	-13311
ves	-13312
▁scm	-13313
statfs	-13314
▁ibmvnic	-13315
56_	-13316
netns	-13317
POSITION	-13318
MODIFY	-13319
▁removal	-13320
eff	-13321
sdb	-13322
▁NAPI	-13323
DTV	-13324
1251_	-13325
dsidev	-13326
CurrByte	-13327
mtt	-13328
ROLE	-13329
credit	-13330
defrag	-13331
blacklist	-13332
▁gnt	-13333
lision	-13334
▁IRQs	-13335
macaddr	-13336
newpage	-13337
▁tempor	-13338
▁automatically	-13339
▁qos	-13340
▁drain	-13341
agi	-13342
VECT	-13343
norm	-13344
pear	-13345
kallsyms	-13346
▁outside	-13347
55,	-13348
wrapper	-13349
coal	-13350
removed	-13351
028	-13352
INSTR	-13353
kgd	-13354
▁GMAC	-13355
▁consistent	-13356
bour	-13357
sequ	-13358
CACHED	-13359
ALC	-13360
porch	-13361
▁includes	-13362
▁orangefs	-13363
Pwr	-13364
opmode	-13365
deregister	-13366
64));	-13367
ssify	-13368
maximum	-13369
unreserve	-13370
HOR	-13371
SSC	-13372
ADHOC	-13373
blkdev	-13374
▁VCHIQ	-13375
▁ucontrol	-13376
workaround	-13377
vx	-13378
MDP	-13379
lst	-13380
ERNET	-13381
▁edesc	-13382
▁Invalid	-13383
CMN	-13384
▁cfqq	-13385
▁hit	-13386
legal	-13387
psw	-13388
STYPE	-13389
▁(!__	-13390
workload	-13391
Flags	-13392
unreference	-13393
MAS	-13394
SIL	-13395
50);	-13396
gestion	-13397
WARD	-13398
scsit	-13399
PARITY	-13400
MCA	-13401
▁psr	-13402
bably	-13403
GENERAL	-13404
LG	-13405
Ptr	-13406
XGB	-13407
spd	-13408
▁FR	-13409
VBLANK	-13410
STANDBY	-13411
CRB	-13412
bos	-13413
rfc	-13414
8821	-13415
▁TIOCM	-13416
▁pxmit	-13417
ufacturer	-13418
▁RFC	-13419
▁ixp	-13420
100)	-13421
small	-13422
▁125	-13423
1000:	-13424
▁kaddr	-13425
UMC	-13426
fter	-13427
▁((__	-13428
▁strings	-13429
structure	-13430
rbuf	-13431
▁architecture	-13432
SMI	-13433
dpcm	-13434
▁changing	-13435
197_	-13436
ATING	-13437
▁Usage	-13438
▁hpriv	-13439
enumerated	-13440
ioa	-13441
▁AXP	-13442
▁MISC	-13443
ttv	-13444
▁RES	-13445
▁rtas	-13446
▁spk	-13447
ACCOUNT	-13448
POLARIS	-13449
sheet	-13450
grade	-13451
reload	-13452
-4	-13453
[4],	-13454
▁migration	-13455
hsi	-13456
symtab	-13457
SLI	-13458
▁IBM	-13459
LARGE	-13460
pOF	-13461
▁PH	-13462
▁CACHE	-13463
▁form	-13464
lockdep	-13465
assigned	-13466
tracking	-13467
FU	-13468
psb	-13469
ENNA	-13470
▁USER	-13471
ordinate	-13472
sie	-13473
vsel	-13474
▁Stop	-13475
drvinfo	-13476
▁critical	-13477
ringbuffer	-13478
▁<3	-13479
▁goal	-13480
MSM	-13481
rxe	-13482
nate	-13483
▁HFI	-13484
▁safexcel	-13485
BCN	-13486
4000,	-13487
1[	-13488
▁EIP	-13489
brcmf	-13490
▁maybe	-13491
9052_	-13492
alter	-13493
▁team	-13494
▁instr	-13495
ifc	-13496
HOOK	-13497
▁upon	-13498
▁view	-13499
▁partic	-13500
QS	-13501
▁18,	-13502
▁git	-13503
DRIVE	-13504
▁unable	-13505
▁SVGA	-13506
▁station	-13507
_0);	-13508
▁LRU	-13509
▁fallthrough	-13510
csc	-13511
pdc	-13512
▁futex	-13513
offsetof	-13514
▁strerror	-13515
agf	-13516
_13	-13517
hwc	-13518
ymm	-13519
▁PAL	-13520
▁subsys	-13521
AIC	-13522
blit	-13523
OPERATION	-13524
binding	-13525
▁825	-13526
▁ich	-13527
NEE	-13528
▁oz	-13529
▁STACK	-13530
urious	-13531
ULP	-13532
REEN	-13533
▁pgdat	-13534
▁handlers	-13535
▁zd	-13536
1111_	-13537
susp	-13538
▁risc	-13539
formed	-13540
COMB	-13541
SCpnt	-13542
821_	-13543
SLOW	-13544
▁PLANE	-13545
▁reject	-13546
BLA	-13547
▁WB	-13548
oem	-13549
ised	-13550
▁BUFF	-13551
▁nvif	-13552
EH	-13553
inta	-13554
▁nest	-13555
▁Now	-13556
▁blan	-13557
otype	-13558
HCD	-13559
_50	-13560
requeue	-13561
▁expires	-13562
WT	-13563
SAA	-13564
▁Line	-13565
PAYLOAD	-13566
decompress	-13567
DELE	-13568
trampoline	-13569
sections	-13570
▁irqflags	-13571
▁units	-13572
",0	-13573
639	-13574
dirs	-13575
▁fbi	-13576
ADT	-13577
OUND	-13578
NETFILTER	-13579
buttons	-13580
eflags	-13581
sighand	-13582
cyc	-13583
▁CARD	-13584
aperture	-13585
▁sev	-13586
[16];	-13587
▁____	-13588
denali	-13589
▁versions	-13590
INGS	-13591
added	-13592
▁touchscreen	-13593
▁AQ	-13594
▁SOR	-13595
8086,	-13596
LAYER	-13597
▁cxt	-13598
▁fsg	-13599
▁lis	-13600
kprobes	-13601
▁reader	-13602
▁FALSE	-13603
("/	-13604
270_	-13605
ABSENT	-13606
ioport	-13607
OUS	-13608
tcam	-13609
▁OPAL	-13610
SECURE	-13611
vce	-13612
▁tfm	-13613
issued	-13614
▁away	-13615
105	-13616
▁mcr	-13617
▁further	-13618
▁dom	-13619
9063_	-13620
freqs	-13621
rnd	-13622
adma	-13623
keeping	-13624
▁SECTOR	-13625
Endpoint	-13626
afinfo	-13627
▁hpd	-13628
lations	-13629
▁happens	-13630
▁contents	-13631
TTY	-13632
TRIM	-13633
▁geo	-13634
reinit	-13635
genl	-13636
ORING	-13637
arounds	-13638
19_	-13639
WILC	-13640
devnum	-13641
AUDIT	-13642
▁XFER	-13643
CHERRY	-13644
nolock	-13645
MER	-13646
▁OPP	-13647
▁XATTR	-13648
▁Key	-13649
▁WAKE	-13650
▁ping	-13651
Select	-13652
▁dmz	-13653
stdout	-13654
chanspec	-13655
▁peripheral	-13656
rgd	-13657
gpt	-13658
arvell	-13659
Active	-13660
▁BLOCK	-13661
▁functionality	-13662
NEG	-13663
MINI	-13664
dynt	-13665
▁cable	-13666
iffy	-13667
pR	-13668
.16	-13669
ACER	-13670
5645_	-13671
7146_	-13672
ALPHA	-13673
▁pipes	-13674
NM	-13675
▁Size	-13676
rmb	-13677
533_	-13678
strt	-13679
▁iucv	-13680
▁resolution	-13681
1620	-13682
▁mwl	-13683
wards	-13684
▁Used	-13685
▁BP	-13686
SPARE	-13687
▁json	-13688
▁Timer	-13689
msb	-13690
▁RAD	-13691
▁usbh	-13692
tgid	-13693
▁caam	-13694
▁blocking	-13695
▁allocator	-13696
EA	-13697
▁unique	-13698
dpp	-13699
▁WDT	-13700
▁paths	-13701
MASKGENMASK	-13702
▁{1,	-13703
stereo	-13704
ssifier	-13705
wmb	-13706
Free	-13707
▁sgt	-13708
FMTBIT	-13709
▁ticks	-13710
▁CK	-13711
8_0_	-13712
▁VMW	-13713
HWBLK	-13714
ayout	-13715
wldev	-13716
keylen	-13717
'.	-13718
▁sv	-13719
5677_	-13720
(32));	-13721
dais	-13722
dinode	-13723
315	-13724
cfclk	-13725
▁MKDEV	-13726
▁iscsit	-13727
posed	-13728
▁Wireless	-13729
BUTTON	-13730
multiplier	-13731
uck	-13732
▁lowest	-13733
▁padapter	-13734
840	-13735
RFP	-13736
HALT	-13737
------	-13738
bbt	-13739
sif	-13740
hclk	-13741
Input	-13742
▁Comm	-13743
▁backing	-13744
,$(	-13745
procname	-13746
uming	-13747
71_	-13748
intvec	-13749
maxdata	-13750
▁36	-13751
012	-13752
▁xgbe	-13753
cpuinfo	-13754
▁testing	-13755
WK	-13756
[0]),	-13757
bufflen	-13758
_1)	-13759
agno	-13760
▁64)	-13761
ffffff	-13762
Unsupported	-13763
▁ifa	-13764
Dirty	-13765
score	-13766
TGT	-13767
abm	-13768
tech	-13769
▁CSI	-13770
▁SYNC	-13771
ENCODER	-13772
99,	-13773
kctl	-13774
▁clip	-13775
▁ones	-13776
▁Buffer	-13777
220	-13778
TRANSM	-13779
handles	-13780
saa	-13781
alit	-13782
▁FOLL	-13783
BROADWELL	-13784
▁behavior	-13785
recs	-13786
grams	-13787
SHADOW	-13788
alitos	-13789
finalize	-13790
▁bcd	-13791
▁venus	-13792
▁"__	-13793
▁BYT	-13794
▁dgap	-13795
▁mute	-13796
32->	-13797
alrm	-13798
▁Correct	-13799
005	-13800
▁grab	-13801
Support	-13802
660	-13803
WISE	-13804
▁PROC	-13805
Headset	-13806
license	-13807
CDB	-13808
ntb	-13809
Huge	-13810
SISTENT	-13811
Err	-13812
▁OVS	-13813
▁unsure	-13814
modem	-13815
▁highest	-13816
▁dot	-13817
)_	-13818
24)	-13819
SDA	-13820
ecn	-13821
ISREG	-13822
Linux	-13823
▁isize	-13824
mfn	-13825
OCFS	-13826
UDMA	-13827
▁CAM	-13828
▁black	-13829
"␌	-13830
SID	-13831
cans	-13832
KIND	-13833
▁ipt	-13834
▁ACK	-13835
AMS	-13836
ris	-13837
POLARITY	-13838
qpc	-13839
selftest	-13840
VCE	-13841
1_0_	-13842
userptr	-13843
emulated	-13844
▁SVM	-13845
▁HEAD	-13846
▁respect	-13847
▁examples	-13848
PREAMBLE	-13849
bebob	-13850
▁respon	-13851
EFI	-13852
NOTI	-13853
3\	-13854
[*	-13855
Pre	-13856
▁$?	-13857
▁extract	-13858
▁QM	-13859
memp	-13860
quash	-13861
Io	-13862
2.2	-13863
(\	-13864
▁SDW	-13865
(6)	-13866
▁ENDPROC	-13867
ltc	-13868
flock	-13869
NEEDED	-13870
▁bne	-13871
EMSGSIZE	-13872
DOT	-13873
lbr	-13874
tore	-13875
TABLES	-13876
lpa	-13877
tss	-13878
▁MOD	-13879
▁bel	-13880
pcount	-13881
▁reuse	-13882
40;	-13883
ipp	-13884
vpe	-13885
dpio	-13886
▁Board	-13887
xef	-13888
encryption	-13889
830_	-13890
▁roce	-13891
800_	-13892
▁timers	-13893
inic	-13894
Intel	-13895
CHERRYVIEW	-13896
OLEAN	-13897
blings	-13898
_44	-13899
pda	-13900
zc	-13901
GIW	-13902
DCS	-13903
stringify	-13904
hour	-13905
▁gma	-13906
cblist	-13907
breakpoint	-13908
STK	-13909
▁With	-13910
blkbits	-13911
▁blen	-13912
▁compatibility	-13913
CSD	-13914
dvc	-13915
rkey	-13916
▁tvp	-13917
▁8));	-13918
results	-13919
PAE	-13920
▁tcm	-13921
▁unlink	-13922
OVL	-13923
REQUENCY	-13924
estab	-13925
▁mpic	-13926
subtype	-13927
▁ioapic	-13928
▁four	-13929
▁rele	-13930
▁SCpnt	-13931
260	-13932
idxd	-13933
▁%10	-13934
SUITE	-13935
▁scripts	-13936
@3	-13937
70,	-13938
▁trb	-13939
veral	-13940
Log	-13941
pcf	-13942
▁HS	-13943
pagate	-13944
▁lruvec	-13945
▁vectors	-13946
FRO	-13947
▁'-	-13948
12);	-13949
cmap	-13950
▁IDs	-13951
pac	-13952
style	-13953
ENCODE	-13954
▁larger	-13955
▁irqchip	-13956
▁NE	-13957
485_	-13958
▁pcim	-13959
\"\	-13960
▁ROM	-13961
stick	-13962
deassert	-13963
▁blocked	-13964
Gfx	-13965
ccr	-13966
▁exceed	-13967
▁finished	-13968
▁.;	-13969
finished	-13970
▁ISR	-13971
▁ddb	-13972
▁RKISP	-13973
updated	-13974
84_	-13975
1));	-13976
▁dmub	-13977
CEC	-13978
rth	-13979
▁nc	-13980
▁MIB	-13981
▁ADF	-13982
MMD	-13983
(5),	-13984
▁pag	-13985
▁wor	-13986
oogle	-13987
▁umem	-13988
▁Techno	-13989
Context	-13990
▁ocrdma	-13991
1024	-13992
▁pmem	-13993
htab	-13994
▁RTN	-13995
indir	-13996
Switch	-13997
▁IOMUX	-13998
uartclk	-13999
33,	-14000
BMAP	-14001
▁things	-14002
MPS	-14003
rioc	-14004
▁hint	-14005
tokens	-14006
unpack	-14007
▁BUFFER	-14008
mono	-14009
Wa	-14010
▁ACT	-14011
▁One	-14012
moved	-14013
PERIPH	-14014
▁FLASH	-14015
1100_	-14016
▁NODE	-14017
▁hose	-14018
fences	-14019
▁quirks	-14020
++];	-14021
▁rules	-14022
eqe	-14023
SYSFS	-14024
ILFS	-14025
dflt	-14026
MG	-14027
▁Ass	-14028
▁precv	-14029
cansleep	-14030
▁TB	-14031
▁tsf	-14032
marker	-14033
▁please	-14034
▁UT	-14035
VMID	-14036
staging	-14037
2303_	-14038
asket	-14039
▁cachep	-14040
Priv	-14041
▁ND	-14042
pit	-14043
▁unexpected	-14044
PARE	-14045
efer	-14046
geth	-14047
Limit	-14048
attemp	-14049
▁nvram	-14050
ATTRIBUTE	-14051
LAG	-14052
html	-14053
▁rspi	-14054
▁described	-14055
ihl	-14056
▁adm	-14057
@4	-14058
ipl	-14059
WORLD	-14060
inbuf	-14061
cip	-14062
dtor	-14063
?\	-14064
▁pps	-14065
writes	-14066
Is	-14067
+1,	-14068
QUAL	-14069
▁ecmd	-14070
▁msk	-14071
elevator	-14072
▁Simplify	-14073
▁nodemask	-14074
341_	-14075
guard	-14076
nvmeq	-14077
▁lport	-14078
▁rocker	-14079
▁MDP	-14080
▁MFP	-14081
nritems	-14082
CONNTRACK	-14083
blen	-14084
▁ARG	-14085
NOC	-14086
▁24);	-14087
Vol	-14088
▁measure	-14089
▁emulation	-14090
dspi	-14091
site	-14092
▁17,	-14093
(5)	-14094
seqid	-14095
-20	-14096
ehdr	-14097
nice	-14098
▁HAL	-14099
▁AU	-14100
▁mcasp	-14101
Use	-14102
floppy	-14103
9015_	-14104
EU	-14105
59_	-14106
VEN	-14107
Temp	-14108
skbs	-14109
▁widget	-14110
_64_	-14111
utable	-14112
▁affect	-14113
Cfg	-14114
▁Pin	-14115
ASH	-14116
FIER	-14117
▁WID	-14118
ATIME	-14119
▁across	-14120
SPARC	-14121
12:	-14122
ipip	-14123
SIZ	-14124
▁tic	-14125
▁VD	-14126
excl	-14127
▁WIFI	-14128
▁Offset	-14129
754	-14130
URNAL	-14131
▁mul	-14132
2));	-14133
SNAP	-14134
Micro	-14135
nodemask	-14136
zonelist	-14137
▁visible	-14138
ATL	-14139
▁cu	-14140
perline	-14141
configured	-14142
dim	-14143
veth	-14144
cmdq	-14145
5150_	-14146
minimum	-14147
CEL	-14148
mpll	-14149
▁wlvif	-14150
....	-14151
MOVE	-14152
clkctrl	-14153
▁allocating	-14154
610_	-14155
THRO	-14156
lapse	-14157
▁vxge	-14158
amble	-14159
▁MWIFIEX	-14160
INTERLACE	-14161
audi	-14162
metry	-14163
▁inodes	-14164
immediate	-14165
PREC	-14166
ioread	-14167
((1	-14168
URB	-14169
▁*(__	-14170
▁uspi	-14171
DVI	-14172
nxp	-14173
▁jh	-14174
▁phdr	-14175
▁SBI	-14176
strip	-14177
VIN	-14178
▁spdif	-14179
▁reporting	-14180
NAE	-14181
TFM	-14182
mxs	-14183
SAFE	-14184
▁mfc	-14185
▁para	-14186
▁throtl	-14187
chdrs	-14188
▁nexthop	-14189
411	-14190
3589	-14191
KEYS	-14192
66_	-14193
FPU	-14194
hael	-14195
▁FAN	-14196
30)	-14197
▁configfs	-14198
occ	-14199
▁IOP	-14200
▁IPR	-14201
MW	-14202
nfo	-14203
Series	-14204
▁batman	-14205
FRAGS	-14206
switchdev	-14207
BCR	-14208
_6_	-14209
sgs	-14210
801_	-14211
kdev	-14212
▁Analog	-14213
izz	-14214
▁beq	-14215
asing	-14216
NLA	-14217
ULE	-14218
▁dpcd	-14219
▁working	-14220
▁copyright	-14221
▁oh	-14222
HARDWARE	-14223
rsn	-14224
unch	-14225
PERTY	-14226
iomux	-14227
▁Card	-14228
▁sdkp	-14229
memslots	-14230
(.	-14231
idmap	-14232
16),	-14233
▁ibmvfc	-14234
▁mechanism	-14235
8903_	-14236
▁outer	-14237
notifiers	-14238
STOPPED	-14239
SV	-14240
MED	-14241
024	-14242
36,	-14243
Sta	-14244
checks	-14245
▁RPM	-14246
uling	-14247
▁HPTE	-14248
▁ZFCP	-14249
devel	-14250
unreg	-14251
FREQUENCY	-14252
2[	-14253
mmd	-14254
bearer	-14255
▁operating	-14256
cpm	-14257
gates	-14258
▁keypad	-14259
112	-14260
▁4>;	-14261
sdmmc	-14262
▁wifi	-14263
mapbase	-14264
bxt	-14265
▁AUTO	-14266
walker	-14267
▁recur	-14268
▁rtlpriv	-14269
▁signature	-14270
64/	-14271
▁KFD	-14272
▁typeof	-14273
COMPRESS	-14274
submission	-14275
Description	-14276
fll	-14277
nls	-14278
->__	-14279
▁MFD	-14280
▁asd	-14281
[3]);	-14282
▁optimize	-14283
CPUID	-14284
▁SDVO	-14285
COLD	-14286
itsu	-14287
jitsu	-14288
ALE	-14289
▁64);	-14290
execbuffer	-14291
dnode	-14292
DOMAINS	-14293
composite	-14294
En	-14295
bpmp	-14296
▁USA	-14297
▁subs	-14298
▁VT	-14299
hdlc	-14300
TFLAG	-14301
▁1024)	-14302
▁capable	-14303
116	-14304
rmt	-14305
▁bsg	-14306
7621_	-14307
utime	-14308
wwn	-14309
▁qat	-14310
Connect	-14311
▁routines	-14312
▁SVC	-14313
▁tags	-14314
EXTERNAL	-14315
_0;	-14316
▁parm	-14317
▁rctx	-14318
▁Table	-14319
▁conti	-14320
▁moved	-14321
0,0	-14322
vdbg	-14323
▁gasket	-14324
▁metric	-14325
RFC	-14326
▁alternative	-14327
▁IMP	-14328
STRIDE	-14329
pcap	-14330
▁camera	-14331
512_	-14332
ASID	-14333
orce	-14334
units	-14335
ages	-14336
nsp	-14337
▁api	-14338
ESR	-14339
tdls	-14340
▁ads	-14341
related	-14342
tpr	-14343
▁cer	-14344
▁viafb	-14345
xdev	-14346
HYPER	-14347
UNSPEC	-14348
▁offline	-14349
▁ADVERTISED	-14350
Clear	-14351
ridge	-14352
tools	-14353
▁2000	-14354
*(	-14355
star	-14356
▁20);	-14357
▁ehea	-14358
siginfo	-14359
versions	-14360
▁mqd	-14361
labpc	-14362
▁VAL	-14363
▁fls	-14364
.)	-14365
▁stolen	-14366
bang	-14367
▁13)	-14368
scanf	-14369
▁Configure	-14370
▁CDNS	-14371
▁INET	-14372
▁pclk	-14373
checkpoint	-14374
▁vco	-14375
gmu	-14376
BTREE	-14377
xsave	-14378
▁Frame	-14379
▁prealloc	-14380
▁Display	-14381
IRECTIONAL	-14382
▁31)	-14383
Unit	-14384
limited	-14385
▁CB	-14386
IBSS	-14387
▁IPSET	-14388
securitypriv	-14389
DFS	-14390
▁aio	-14391
▁pmbus	-14392
details	-14393
TMR	-14394
▁asic	-14395
hx	-14396
acr	-14397
-----	-14398
3))	-14399
▁sus	-14400
incoming	-14401
▁88	-14402
mods	-14403
iants	-14404
WEIGHT	-14405
▁inser	-14406
selected	-14407
outer	-14408
FACTOR	-14409
BALANCE	-14410
helpers	-14411
2000,	-14412
lockup	-14413
ship	-14414
00000)	-14415
25821_	-14416
ETHERNET	-14417
▁Ig	-14418
WPTR	-14419
▁siginfo	-14420
FLT	-14421
maxpacket	-14422
PPI	-14423
SPR	-14424
NVKM	-14425
upcall	-14426
▁three	-14427
211	-14428
▁ear	-14429
training	-14430
▁mrq	-14431
coexist	-14432
='	-14433
OLEN	-14434
many	-14435
swiotlb	-14436
▁uninitialized	-14437
(3),	-14438
srcs	-14439
CREAT	-14440
perag	-14441
FFS	-14442
vic	-14443
▁sche	-14444
▁inlen	-14445
cacheline	-14446
clockevent	-14447
▁preferred	-14448
ryptfs	-14449
▁tcmu	-14450
VCO	-14451
▁Ltd	-14452
dbuf	-14453
▁isl	-14454
CAMERA	-14455
BIDIRECTIONAL	-14456
ANG	-14457
▁202	-14458
754_	-14459
reti	-14460
reduce	-14461
▁Queue	-14462
▁stdout	-14463
PROTECTION	-14464
0100	-14465
BIC	-14466
bsg	-14467
compression	-14468
SCM	-14469
rxb	-14470
ivsize	-14471
EndpointAddress	-14472
GUC	-14473
▁'.	-14474
▁NX	-14475
COOK	-14476
ENODATA	-14477
▁traffic	-14478
afs	-14479
sdhc	-14480
9170_	-14481
▁ggtt	-14482
INSERT	-14483
▁damon	-14484
-8	-14485
9000_	-14486
ENCAP	-14487
rxrpc	-14488
▁parity	-14489
äo	-14490
rptr	-14491
DTR	-14492
bInterface	-14493
-+-+	-14494
▁SPIN	-14495
ONLINE	-14496
▁scope	-14497
▁mat	-14498
AMDGPU	-14499
▁handles	-14500
SPD	-14501
SENT	-14502
sence	-14503
revoke	-14504
=%02	-14505
MOUT	-14506
produ	-14507
▁integr	-14508
00000001	-14509
scade	-14510
▁sprd	-14511
▁targets	-14512
fdi	-14513
tive	-14514
▁DPU	-14515
infra	-14516
▁DL	-14517
▁person	-14518
SOL	-14519
400_	-14520
KEEP	-14521
BRIGHT	-14522
784	-14523
oops	-14524
▁grep	-14525
▁psta	-14526
▁Cleanup	-14527
IDER	-14528
Join	-14529
owned	-14530
▁ppos	-14531
▁remainder	-14532
▁SCR	-14533
▁ibdev	-14534
CCM	-14535
▁(-	-14536
."),	-14537
[0]))	-14538
dcfclk	-14539
▁startup	-14540
▁character	-14541
RL	-14542
SCREEN	-14543
▁receiver	-14544
▁registering	-14545
▁scheduler	-14546
istic	-14547
calibrate	-14548
FORWARD	-14549
IFORK	-14550
(100);	-14551
▁ifdef	-14552
combo	-14553
▁XHCI	-14554
41,	-14555
▁creating	-14556
9.	-14557
SMD	-14558
▁DIO	-14559
WATER	-14560
▁sclk	-14561
ATTACH	-14562
LINEAR	-14563
phylink	-14564
▁aggreg	-14565
encoding	-14566
(8)	-14567
IMC	-14568
crumb	-14569
▁Tegra	-14570
dmub	-14571
foo	-14572
▁SIZE	-14573
▁SIGNAL	-14574
▁useless	-14575
[11	-14576
00000001,	-14577
paca	-14578
▁NLM	-14579
chrdev	-14580
RETRIES	-14581
▁zynqmp	-14582
871	-14583
▁shm	-14584
▁DRA	-14585
▁vram	-14586
▁KASAN	-14587
tributes	-14588
cobj	-14589
WOW	-14590
_93	-14591
2__	-14592
jrdev	-14593
content	-14594
▁several	-14595
CRED	-14596
Message	-14597
▁PTRACE	-14598
SMART	-14599
▁mite	-14600
har	-14601
SACK	-14602
rief	-14603
▁2.6.	-14604
UNCE	-14605
aneg	-14606
▁hsr	-14607
▁cFYI	-14608
resolution	-14609
▁translation	-14610
▁5.	-14611
▁76	-14612
victim	-14613
▁disks	-14614
ERRORS	-14615
AZ	-14616
00",	-14617
▁fork	-14618
▁cooling	-14619
tracepoint	-14620
[5];	-14621
loops	-14622
clkout	-14623
▁Wa	-14624
Bits	-14625
▁hfa	-14626
▁LVDS	-14627
optlen	-14628
>\	-14629
DIST	-14630
swab	-14631
7219_	-14632
MAILBOX	-14633
▁triggered	-14634
had	-14635
mart	-14636
NATIVE	-14637
CNTR	-14638
▁Map	-14639
▁FAIL	-14640
lft	-14641
▁nsec	-14642
▁licen	-14643
▁probably	-14644
▁rmi	-14645
initiator	-14646
trunc	-14647
[15	-14648
VXLAN	-14649
360	-14650
Fail	-14651
Default	-14652
3"	-14653
dvo	-14654
DECL	-14655
EDID	-14656
FRAC	-14657
jection	-14658
thods	-14659
Speaker	-14660
▁tracer	-14661
zo	-14662
▁_(	-14663
▁21,	-14664
POSIX	-14665
CYCLES	-14666
DEVCTL	-14667
10000000	-14668
bulkpipe	-14669
continue	-14670
▁broadcast	-14671
SCp	-14672
▁fully	-14673
MIP	-14674
▁levels	-14675
▁signals	-14676
\\	-14677
▁bno	-14678
▁gdp	-14679
Clause	-14680
▁Access	-14681
▁activate	-14682
▁~(0	-14683
/<	-14684
eps	-14685
lite	-14686
edesc	-14687
▁rqst	-14688
fffffff	-14689
▁manager	-14690
▁constant	-14691
▁TIME	-14692
▁press	-14693
▁usecs	-14694
▁jmp	-14695
scsih	-14696
corrupt	-14697
40:	-14698
BFIN	-14699
FRONT	-14700
▁resid	-14701
▁stuff	-14702
0004	-14703
ano	-14704
hdp	-14705
uio	-14706
dock	-14707
▁PCL	-14708
▁inactive	-14709
PROD	-14710
ensa	-14711
▁sqe	-14712
▁fit	-14713
oidle	-14714
▁seen	-14715
▁screen	-14716
sanitize	-14717
}_	-14718
38,	-14719
dcdc	-14720
nvec	-14721
wbuf	-14722
voltages	-14723
MCBSP	-14724
DLS	-14725
▁bb	-14726
HST	-14727
▁CQ	-14728
▁BYTE	-14729
roma	-14730
▁hpte	-14731
▁sess	-14732
Result	-14733
snprintf	-14734
All	-14735
▁EDAC	-14736
SRQ	-14737
fhp	-14738
▁409	-14739
scape	-14740
spawn	-14741
▁stub	-14742
▁tcpm	-14743
rwlock	-14744
yuv	-14745
▁lc	-14746
61_	-14747
▁vsc	-14748
5682	-14749
▁OBD	-14750
hdata	-14751
QUI	-14752
▁256;	-14753
▁21	-14754
▁REGMAP	-14755
Src	-14756
▁127	-14757
NEEDS	-14758
▁SWAP	-14759
CHARGE	-14760
bEndpointAddress	-14761
VPORT	-14762
▁uaddr	-14763
▁pstore	-14764
ovo	-14765
pvr	-14766
tci	-14767
▁scb	-14768
sysdev	-14769
▁pmlme	-14770
ucontrol	-14771
pnfs	-14772
tdma	-14773
REJECT	-14774
▁stmpe	-14775
nexthdr	-14776
MST	-14777
▁vsync	-14778
cre	-14779
▁dent	-14780
6]	-14781
neg	-14782
▁rl	-14783
descriptors	-14784
▁fr	-14785
autocfg	-14786
▁lowpan	-14787
▁simply	-14788
tailroom	-14789
triggered	-14790
SFT	-14791
▁freeing	-14792
SGI	-14793
▁BEG	-14794
ISON	-14795
wmem	-14796
37_	-14797
▁*))	-14798
hpa	-14799
▁GO	-14800
▁rth	-14801
▁didn	-14802
tpc	-14803
pfvf	-14804
▁BEGIN	-14805
TN	-14806
TRI	-14807
hel	-14808
adar	-14809
4430_	-14810
tring	-14811
fwspec	-14812
535	-14813
VIC	-14814
idt	-14815
dreq	-14816
acs	-14817
atr	-14818
dointvec	-14819
▁ARC	-14820
ining	-14821
asycap	-14822
detail	-14823
signals	-14824
▁though	-14825
▁Ind	-14826
▁mbx	-14827
▁indent	-14828
40-	-14829
▁2]	-14830
▁Prev	-14831
▁FN	-14832
▁little	-14833
▁QSERDES	-14834
Rec	-14835
▁filled	-14836
une	-14837
02);	-14838
fish	-14839
mthd	-14840
▁sclp	-14841
termin	-14842
58,	-14843
jbd	-14844
7188	-14845
FTRACE	-14846
aul	-14847
ALERT	-14848
TMU	-14849
HDCP	-14850
cision	-14851
nexpected	-14852
30-	-14853
▁SOL	-14854
125	-14855
icount	-14856
▁bMask	-14857
▁QMP	-14858
▁counts	-14859
▁oprofile	-14860
▁tracking	-14861
USD	-14862
choice	-14863
VIO	-14864
ixp	-14865
IFREG	-14866
tocol	-14867
▁blank	-14868
mesg	-14869
▁CXL	-14870
EXCLUSIVE	-14871
720	-14872
▁allocations	-14873
&0	-14874
SINK	-14875
▁EXC	-14876
PARTITION	-14877
MFR	-14878
ivity	-14879
▁lists	-14880
pathname	-14881
DIP	-14882
▁starts	-14883
▁timeval	-14884
YO	-14885
FOUND	-14886
▁regcache	-14887
[6];	-14888
half	-14889
▁similar	-14890
associate	-14891
."	-14892
bma	-14893
mpd	-14894
20000	-14895
LISTEN	-14896
iterate	-14897
8386	-14898
PQ	-14899
kiq	-14900
▁CF	-14901
algs	-14902
rspi	-14903
▁kexec	-14904
▁switching	-14905
UUID	-14906
▁40,	-14907
DIGEST	-14908
[0]));	-14909
▁heap	-14910
▁IE	-14911
TIG	-14912
TUNE	-14913
XHCI	-14914
▁pnum	-14915
▁PI	-14916
▁Mon	-14917
htotal	-14918
▁QUIRK	-14919
dml	-14920
xbf	-14921
▁28,	-14922
▁IORING	-14923
▁FEATURE	-14924
ora	-14925
▁That	-14926
flavor	-14927
jmp	-14928
▁wmb	-14929
srp	-14930
SCIF	-14931
▁isa	-14932
olute	-14933
posure	-14934
SECONDARY	-14935
▁execution	-14936
psta	-14937
summary	-14938
tfd	-14939
energy	-14940
reconnect	-14941
▁px	-14942
psci	-14943
▁oom	-14944
defineAT	-14945
wmidi	-14946
tmo	-14947
BOTH	-14948
LCDC	-14949
▁FPU	-14950
changes	-14951
▁subflow	-14952
02)	-14953
▁0-	-14954
0010	-14955
83627	-14956
▁NLMSG	-14957
ISS	-14958
▁ahd	-14959
pregs	-14960
▁cdrom	-14961
lseek	-14962
ssids	-14963
▁spear	-14964
▁Samsung	-14965
unded	-14966
RAS	-14967
ana	-14968
lowcore	-14969
)(0	-14970
_28	-14971
▁Manage	-14972
▁memslot	-14973
UFS	-14974
▁qtnf	-14975
8962_	-14976
▁prep	-14977
▁scif	-14978
PREFETCH	-14979
rescan	-14980
▁EXPECT	-14981
PET	-14982
BNXT	-14983
uing	-14984
ringbuf	-14985
ACTIVATE	-14986
MORE	-14987
Node	-14988
kuid	-14989
sgmii	-14990
▁hantro	-14991
buffered	-14992
16)(	-14993
pick	-14994
▁hwc	-14995
▁refer	-14996
▁sampling	-14997
▁8:	-14998
▁HR	-14999
▁4>,	-15000
▁xenvif	-15001
tone	-15002
▁nvc	-15003
▁oops	-15004
steps	-15005
debounce	-15006
MNT	-15007
OBJECTID	-15008
▁particular	-15009
▁lnum	-15010
▁aliases	-15011
ESP	-15012
ncm	-15013
ppa	-15014
▁-->	-15015
INTEGR	-15016
▁bufsize	-15017
POP	-15018
rdt	-15019
chp	-15020
ULSE	-15021
▁vme	-15022
▁pstate	-15023
pme	-15024
ICL	-15025
PEN	-15026
▁CLA	-15027
▁claim	-15028
▁TXD	-15029
▁pow	-15030
>`	-15031
YAML	-15032
▁VFIO	-15033
Qu	-15034
XOR	-15035
DCDC	-15036
RCTL	-15037
rlim	-15038
DELTA	-15039
▁choice	-15040
▁RZ	-15041
OFFS	-15042
ipmi	-15043
noring	-15044
unsafe	-15045
bdp	-15046
Msg	-15047
ocr	-15048
▁"1:	-15049
hsr	-15050
ioat	-15051
oriq	-15052
pdma	-15053
strm	-15054
▁NVKM	-15055
▁Configuration	-15056
▁CVMX	-15057
▁SWITCH	-15058
▁managed	-15059
▁addition	-15060
INITIALIZED	-15061
vfio	-15062
▁CALL	-15063
▁List	-15064
▁synth	-15065
▁sysdev	-15066
▁kasprintf	-15067
IXP	-15068
FCOE	-15069
▁Limit	-15070
▁dwarf	-15071
evision	-15072
clientid	-15073
icl	-15074
MPDU	-15075
pseudo	-15076
Ctrl	-15077
▁certain	-15078
increment	-15079
BILE	-15080
▁OB	-15081
RSC	-15082
_64(	-15083
▁PLAT	-15084
arator	-15085
▁EXPERIMENTAL	-15086
64(&	-15087
HOLD	-15088
dynticks	-15089
▁Gu	-15090
▁trunc	-15091
▁Restore	-15092
▁({\	-15093
▁hpp	-15094
▁Force	-15095
Ste	-15096
▁solo	-15097
xstate	-15098
▁Com	-15099
▁codes	-15100
▁Report	-15101
▁lirc	-15102
committed	-15103
/0	-15104
MANU	-15105
pline	-15106
ASSIGN	-15107
entropy	-15108
▁elapsed	-15109
82,	-15110
gcm	-15111
VISOR	-15112
wwan	-15113
▁spect	-15114
▁anyway	-15115
▁license	-15116
fcf	-15117
1100	-15118
inoco	-15119
▁atm	-15120
▁scaling	-15121
XC	-15122
0003	-15123
▁NFSD	-15124
ADAPTEC	-15125
WO	-15126
▁atp	-15127
PGD	-15128
▁lvl	-15129
▁Firmware	-15130
▁LR	-15131
rust	-15132
▁"";	-15133
27,	-15134
544	-15135
gpadc	-15136
ONGSON	-15137
INVALIDATE	-15138
▁hws	-15139
▁FUSE	-15140
▁wdata	-15141
▁sections	-15142
▁kHz	-15143
sit	-15144
umr	-15145
▁hva	-15146
tries	-15147
CUSTOM	-15148
preamble	-15149
ccb	-15150
---+	-15151
▁FUNC	-15152
▁ksft	-15153
strtol	-15154
ked	-15155
going	-15156
▁vdpa	-15157
▁IOCTL	-15158
mpdu	-15159
Using	-15160
ROUTING	-15161
BACKLIGHT	-15162
35,	-15163
dsm	-15164
iocg	-15165
TKIP	-15166
unless	-15167
▁fatal	-15168
8";	-15169
▁gu	-15170
notes	-15171
▁adds	-15172
ioprio	-15173
fastopen	-15174
Fi	-15175
▁<4	-15176
MSIZ	-15177
vcpus	-15178
NAMSIZ	-15179
INDIRECT	-15180
928	-15181
Over	-15182
Total	-15183
msiof	-15184
tector	-15185
uobj	-15186
▁TLS	-15187
▁deferred	-15188
920	-15189
(25	-15190
IPU	-15191
cility	-15192
▁waiter	-15193
▁blkbits	-15194
▁identify	-15195
SAMP	-15196
mman	-15197
dencies	-15198
tol	-15199
pairs	-15200
unsol	-15201
▁2005	-15202
CBCR	-15203
orgi	-15204
verdict	-15205
labels	-15206
dmaengine	-15207
TLS	-15208
2412_	-15209
7180_	-15210
psi	-15211
WORDS	-15212
▁BF	-15213
RISC	-15214
▁vrf	-15215
▁Code	-15216
optarg	-15217
rotate	-15218
MY	-15219
ipe	-15220
twsk	-15221
WPA	-15222
intent	-15223
wlandev	-15224
iucv	-15225
usart	-15226
relocs	-15227
▁rpmsg	-15228
sidency	-15229
PACA	-15230
ctype	-15231
smart	-15232
cortex	-15233
tained	-15234
SPECIAL	-15235
▁hstate	-15236
▁AO	-15237
▁sysc	-15238
INTSTS	-15239
conflict	-15240
TIES	-15241
prof	-15242
▁2018	-15243
quashfs	-15244
DPG	-15245
▁WH	-15246
▁mds	-15247
grow	-15248
▁RTS	-15249
▁IPI	-15250
NLMSG	-15251
updates	-15252
ioctls	-15253
▁modem	-15254
▁strdup	-15255
gss	-15256
clic	-15257
licated	-15258
pagesize	-15259
▁sf	-15260
nsim	-15261
▁CCM	-15262
▁ask	-15263
▁clr	-15264
▁2*	-15265
RSVD	-15266
SICAL	-15267
▁omapdss	-15268
▁relative	-15269
▁integrity	-15270
520	-15271
▁*/\	-15272
resha	-15273
1307->	-15274
▁hinic	-15275
cessible	-15276
▁Wr	-15277
▁reports	-15278
▁sx	-15279
▁arr	-15280
relative	-15281
▁SU	-15282
▁adsp	-15283
▁UPDATE	-15284
erry	-15285
Found	-15286
▁detach	-15287
MES	-15288
rcc	-15289
▁ck	-15290
mirrors	-15291
▁tk	-15292
▁bprm	-15293
▁ByteOp	-15294
▁NETXEN	-15295
congested	-15296
▁2015	-15297
FOLLOW	-15298
WIRELE	-15299
unplug	-15300
MODESET	-15301
▁Maximum	-15302
▁fire	-15303
WIRELESS	-15304
▁Release	-15305
chipselect	-15306
wrb	-15307
▁lb	-15308
ppnt	-15309
▁ifeq	-15310
inition	-15311
▁secure	-15312
psl	-15313
▁PB	-15314
DRAIN	-15315
▁DISABLE	-15316
▁Nv	-15317
750_	-15318
reporting	-15319
▁Currently	-15320
sndctrlpipe	-15321
▁why	-15322
▁refs	-15323
disconnected	-15324
+1)	-15325
WRM	-15326
▁MCS	-15327
SEMI	-15328
reqtfm	-15329
ppp	-15330
2.0.	-15331
imable	-15332
HIGHMEM	-15333
emer	-15334
STORAGE	-15335
loading	-15336
Mon	-15337
Book	-15338
▁mini	-15339
SURFACE	-15340
powerpc	-15341
▁parisc	-15342
defconfig	-15343
▁machines	-15344
Bss	-15345
();\	-15346
▁DPIO	-15347
ICMP	-15348
▁pcs	-15349
▁vcn	-15350
▁boolean	-15351
▁regno	-15352
BOOLEAN	-15353
pfdev	-15354
polic	-15355
rndis	-15356
decimal	-15357
▁perror	-15358
▁stable	-15359
adi	-15360
fuc	-15361
▁Over	-15362
686	-15363
clt	-15364
rctx	-15365
▁VB	-15366
padding	-15367
BARRIER	-15368
preload	-15369
▁UV	-15370
userns	-15371
▁everything	-15372
▁superblock	-15373
KR	-15374
LIM	-15375
▁MPTCP	-15376
▁chunks	-15377
IDS	-15378
NFC	-15379
ley	-15380
fmsg	-15381
USDHC	-15382
▁bypass	-15383
_65	-15384
inger	-15385
▁File	-15386
mkwrite	-15387
_2);	-15388
▁RSND	-15389
▁chipset	-15390
▁INTERCEPT	-15391
_8(	-15392
▁secs	-15393
▁RXRPC	-15394
AW	-15395
▁QE	-15396
▁est	-15397
rinfo	-15398
▁Mask	-15399
speaker	-15400
▁tracepoint	-15401
NETA	-15402
SPAR	-15403
BEGIN	-15404
▁appear	-15405
ALGO	-15406
Ac	-15407
ELV	-15408
xit	-15409
▁xas	-15410
XYGEN	-15411
310_	-15412
▁rtable	-15413
▁uncore	-15414
▁consider	-15415
▁dwmac	-15416
caching	-15417
▁inject	-15418
-2-	-15419
plt	-15420
icode	-15421
polled	-15422
TLE	-15423
SKYLAKE	-15424
%.	-15425
atum	-15426
▁spa	-15427
stera	-15428
▁GPIOF	-15429
PRM	-15430
▁having	-15431
)$(	-15432
6))	-15433
hat	-15434
▁OXYGEN	-15435
▁cmpxchg	-15436
▁frontend	-15437
▁22,	-15438
epoch	-15439
IOLOCK	-15440
SECTORS	-15441
positive	-15442
▁interconnect	-15443
sgid	-15444
Return	-15445
TPS	-15446
▁bv	-15447
11->	-15448
▁FLD	-15449
nowait	-15450
OTP	-15451
▁TMP	-15452
apriv	-15453
icator	-15454
XGI	-15455
scd	-15456
▁2008	-15457
gether	-15458
COMPRES	-15459
adm	-15460
amsdu	-15461
▁Always	-15462
▁rg	-15463
▁ddc	-15464
▁tee	-15465
omeda	-15466
▁overlap	-15467
▁MG	-15468
cork	-15469
▁fore	-15470
4\	-15471
'))	-15472
(4);	-15473
▁room	-15474
03)	-15475
▁BA	-15476
cntr	-15477
▁ALL	-15478
▁dbs	-15479
▁pmx	-15480
sregs	-15481
▁bclk	-15482
tir	-15483
16(0	-15484
▁qdev	-15485
rawmidi	-15486
▁He	-15487
▁fu	-15488
asrc	-15489
mport	-15490
anchor	-15491
▁'\0')	-15492
▁possi	-15493
ATOM	-15494
mdir	-15495
▁nat	-15496
▁BRIDGE	-15497
)|	-15498
INCOMPAT	-15499
AVAILABLE	-15500
42,	-15501
01},	-15502
▁1],	-15503
▁vnet	-15504
▁pulse	-15505
uh	-15506
▁NIX	-15507
pagevec	-15508
LUT	-15509
rsi	-15510
▁accessed	-15511
EFLAGS	-15512
TRANSA	-15513
255	-15514
_5,	-15515
▁HISI	-15516
502	-15517
lkey	-15518
preter	-15519
▁readw	-15520
scsicmd	-15521
▁populate	-15522
▁igt	-15523
NVDEV	-15524
TOKEN	-15525
ABORTED	-15526
9000	-15527
pref	-15528
flood	-15529
nesdev	-15530
reshape	-15531
rdy	-15532
▁NS	-15533
NDIS	-15534
▁wp	-15535
SEGV	-15536
▁iwe	-15537
quies	-15538
fop	-15539
skt	-15540
▁gd	-15541
▁CLKID	-15542
futex	-15543
umount	-15544
45,	-15545
▁segments	-15546
COMPLETION	-15547
84,	-15548
▁CIP	-15549
CELL	-15550
▁trim	-15551
▁pseudo	-15552
coredump	-15553
7(	-15554
lh	-15555
onet	-15556
▁nfit	-15557
▁pthread	-15558
▁problems	-15559
tdev	-15560
sels	-15561
▁lov	-15562
▁SEEK	-15563
nod	-15564
acha	-15565
binder	-15566
215	-15567
464	-15568
▁%5	-15569
▁PCF	-15570
▁cdb	-15571
ENAND	-15572
mrioc	-15573
▁1]);	-15574
paging	-15575
▁extend	-15576
rdesc	-15577
ecryptfs	-15578
32("	-15579
MAGE	-15580
▁hyp	-15581
▁IOMAP	-15582
▁older	-15583
▁devres	-15584
WRITEBACK	-15585
bay	-15586
SUSP	-15587
istry	-15588
▁rapl	-15589
preset	-15590
MCE	-15591
tmf	-15592
▁DIG	-15593
inquiry	-15594
TRAINING	-15595
▁ClearPage	-15596
rtllib	-15597
▁Count	-15598
breadcrumb	-15599
747	-15600
cii	-15601
qca	-15602
tor	-15603
xfb	-15604
CLUD	-15605
FLEX	-15606
▁dip	-15607
IRROR	-15608
▁PATH	-15609
▁iproc	-15610
CLUDING	-15611
WRITTEN	-15612
pressure	-15613
▁pu	-15614
▁LIMIT	-15615
cpuinit	-15616
pixelformat	-15617
vbl	-15618
▁htab	-15619
Vendor	-15620
mapcount	-15621
328_	-15622
▁2012	-15623
▁Array	-15624
▁hweight	-15625
737	-15626
RCS	-15627
0200	-15628
hdrs	-15629
▁mcast	-15630
EXPI	-15631
▁pde	-15632
▁CDEBUG	-15633
▁iosize	-15634
reporter	-15635
▁<16	-15636
▁iso	-15637
cfpga	-15638
▁IOCB	-15639
(".	-15640
DIFF	-15641
cmpl	-15642
91:	-15643
6586	-15644
▁stdr	-15645
adt	-15646
ccm	-15647
ATIHDMI	-15648
lradc	-15649
secret	-15650
▁uprobe	-15651
080_	-15652
360_	-15653
▁cpp	-15654
137	-15655
64-	-15656
aggreg	-15657
▁thrott	-15658
PDMA	-15659
II	-15660
(8,	-15661
4.4	-15662
IOW	-15663
2835	-15664
▁2013	-15665
Handle	-15666
MOBILE	-15667
0040	-15668
1");	-15669
QD	-15670
▁GPMC	-15671
▁After	-15672
----------	-15673
05_	-15674
[0-	-15675
bid	-15676
1704	-15677
nohz	-15678
uport	-15679
▁iavf	-15680
lowest	-15681
flowlabel	-15682
▁clearing	-15683
Gen	-15684
dptr	-15685
nvbo	-15686
SYSCLK	-15687
▁AUDIO	-15688
emmc	-15689
▁New	-15690
INFRA	-15691
▁XGMAC	-15692
▁checked	-15693
tkip	-15694
DIVIDER	-15695
@%	-15696
▁NONE	-15697
▁bottom	-15698
▁stk	-15699
▁cnic	-15700
▁GC	-15701
2500	-15702
▁SLOT	-15703
csb	-15704
HSW	-15705
.1",	-15706
aser	-15707
vmbus	-15708
▁ZONE	-15709
▁twice	-15710
▁Define	-15711
olar	-15712
▁SPRN	-15713
▁driv	-15714
▁refactor	-15715
fsc	-15716
ipo	-15717
SHOW	-15718
COHER	-15719
mally	-15720
▁apple	-15721
▁::	-15722
987	-15723
lix	-15724
gprs	-15725
▁gsm	-15726
▁SCAN	-15727
0700_	-15728
retlen	-15729
▁usbip	-15730
▁coding	-15731
▁kstrto	-15732
▁optimi	-15733
(2);	-15734
16400_	-15735
▁strsep	-15736
▁Hardware	-15737
▁transfers	-15738
RINGS	-15739
▁todo	-15740
Product	-15741
▁encoding	-15742
▁subdevice	-15743
oot	-15744
▁25,	-15745
▁restriction	-15746
▁tn	-15747
transceiver	-15748
QCOM	-15749
when	-15750
440	-15751
▁AG	-15752
SCOPE	-15753
▁STAC	-15754
mountpoint	-15755
mock	-15756
▁tas	-15757
▁##__	-15758
280	-15759
PSE	-15760
▁DI	-15761
HOLE	-15762
▁4096,	-15763
▁QUEUE	-15764
BNX	-15765
▁PN	-15766
DISCOVER	-15767
DLY	-15768
▁DISPLAY	-15769
vn	-15770
▁Work	-15771
isi	-15772
▁{},	-15773
▁2007	-15774
▁shdr	-15775
UVERBS	-15776
▁refresh	-15777
DDC	-15778
powerdown	-15779
20>;	-15780
▁CTX	-15781
▁RST	-15782
rcdev	-15783
▁MACv	-15784
▁5),	-15785
▁UDF	-15786
FILES	-15787
vlans	-15788
▁128;	-15789
except	-15790
BRIGHTNESS	-15791
DESCRIPTOR	-15792
anion	-15793
803	-15794
cut	-15795
PTRS	-15796
ISL	-15797
effective	-15798
▁lio	-15799
orion	-15800
▁rvin	-15801
RDWR	-15802
▁bmc	-15803
BBReg	-15804
column	-15805
UNREACH	-15806
▁PV	-15807
▁vis	-15808
▁altera	-15809
remainder	-15810
jd	-15811
HIT	-15812
NFP	-15813
land	-15814
▁DUP	-15815
▁iir	-15816
▁pVBInfo	-15817
ari	-15818
▁rr	-15819
2410	-15820
▁exfat	-15821
scaled	-15822
tuning	-15823
▁accounting	-15824
▁depending	-15825
81,	-15826
spk	-15827
rstc	-15828
▁SDM	-15829
▁pkts	-15830
▁column	-15831
sal	-15832
oken	-15833
works	-15834
▁Using	-15835
9);	-15836
▁pw	-15837
▁IXP	-15838
ENBIT	-15839
1__	-15840
575	-15841
▁Makefile	-15842
WOL	-15843
svsk	-15844
▁loops	-15845
18)	-15846
pauge	-15847
shell	-15848
ibp	-15849
▁eval	-15850
▁holds	-15851
sdi	-15852
▁Go	-15853
_928	-15854
font	-15855
FSL	-15856
▁abx	-15857
▁dpi	-15858
▁stale	-15859
)]=	-15860
FWD	-15861
▁inl	-15862
lette	-15863
▁tries	-15864
KP	-15865
775_	-15866
ateg	-15867
▁srb	-15868
exact	-15869
probed	-15870
▁CONNE	-15871
▁cinfo	-15872
BUSWIDTH	-15873
▁enqueue	-15874
acb	-15875
bytesperline	-15876
/$	-15877
▁oi	-15878
ISHED	-15879
▁span	-15880
hashed	-15881
▁sirfsoc	-15882
▁Instru	-15883
cong	-15884
mtrr	-15885
blkif	-15886
▁Tree	-15887
nes	-15888
▁EMAC	-15889
uppauge	-15890
▁concurrent	-15891
some	-15892
kasan	-15893
▁Temp	-15894
ctures	-15895
▁ivsize	-15896
401_	-15897
TERY	-15898
_828	-15899
▁PAN	-15900
ERASE	-15901
perms	-15902
BUFFERS	-15903
accessed	-15904
trail	-15905
▁rtrs	-15906
recent	-15907
▁MHI	-15908
ORDERED	-15909
scatter	-15910
(11	-15911
VCN	-15912
pdf	-15913
PX	-15914
8(&	-15915
lang	-15916
▁kgd	-15917
ualcomm	-15918
▁smaller	-15919
420	-15920
ahd	-15921
▁GL	-15922
FIED	-15923
8522_	-15924
51,	-15925
undo	-15926
▁late	-15927
▁contin	-15928
arily	-15929
ina	-15930
▁ASM	-15931
▁hier	-15932
▁affinity	-15933
wowlan	-15934
▁watermark	-15935
SLP	-15936
aborted	-15937
▁checkpatch	-15938
scripts	-15939
▁MIGRATE	-15940
▁fanotify	-15941
910_	-15942
JD	-15943
900_	-15944
▁UBIFS	-15945
trc	-15946
ability	-15947
annotate	-15948
▁regulatory	-15949
aac	-15950
▁cpm	-15951
Class	-15952
amlogic	-15953
fsnotify	-15954
FBC	-15955
▁vop	-15956
▁cores	-15957
blksize	-15958
▁logging	-15959
SCD	-15960
▁iterator	-15961
▁annotation	-15962
BTF	-15963
▁dtb	-15964
▁Event	-15965
inverted	-15966
readable	-15967
ASUS	-15968
mpls	-15969
▁QSPI	-15970
▁arbit	-15971
4096	-15972
cfb	-15973
eno	-15974
Send	-15975
team	-15976
▁50,	-15977
▁SIR	-15978
▁Pass	-15979
▁Provide	-15980
▁subject	-15981
exc	-15982
OSITE	-15983
qplib	-15984
▁retrieve	-15985
bclk	-15986
▁occ	-15987
▁BOOT	-15988
▁toggle	-15989
▁earlier	-15990
▁Ap	-15991
vnet	-15992
olicy	-15993
wIndex	-15994
CONNECTION	-15995
cci	-15996
▁28)	-15997
▁Phy	-15998
puart	-15999
▁wlcore	-16000
)?	-16001
(4),	-16002
0400	-16003
BOOL	-16004
esdhc	-16005
▁deadline	-16006
▁Freescale	-16007
SHM	-16008
opf	-16009
LANES	-16010
Enabled	-16011
readonly	-16012
525	-16013
aif	-16014
tre	-16015
▁uh	-16016
pport	-16017
ENB	-16018
▁BTC	-16019
10_0_	-16020
▁<8>;	-16021
keysize	-16022
setxattr	-16023
▁MF	-16024
iated	-16025
usdhc	-16026
vbios	-16027
▁80	-16028
fair	-16029
000000;	-16030
gva	-16031
ftr	-16032
▁lst	-16033
▁udphdr	-16034
Bad	-16035
uvc	-16036
WDOG	-16037
▁PVR	-16038
▁sigset	-16039
▁ablkcipher	-16040
_2)	-16041
msa	-16042
lmac	-16043
▁kgdb	-16044
inherit	-16045
75_	-16046
mtc	-16047
Down	-16048
PANIC	-16049
▁headroom	-16050
VPD	-16051
rank	-16052
▁NFSv	-16053
+1]	-16054
dccps	-16055
▁bgmac	-16056
nonblock	-16057
migratetype	-16058
YN	-16059
04)	-16060
CRA	-16061
HAUP	-16062
pmac	-16063
sprom	-16064
ufshcd	-16065
▁HRTIMER	-16066
rid	-16067
BMCR	-16068
stations	-16069
chainmask	-16070
▁conflict	-16071
▁hypervisor	-16072
Network	-16073
siblings	-16074
IIC	-16075
▁rst	-16076
iation	-16077
symname	-16078
▁Initial	-16079
39,	-16080
▁DMAC	-16081
Interval	-16082
▁Document	-16083
▁previously	-16084
3/	-16085
---------	-16086
▁KernelVersion	-16087
hdrc	-16088
▁FRA	-16089
▁gvt	-16090
mmcif	-16091
overlap	-16092
▁rfcomm	-16093
MBX	-16094
vmmc	-16095
syncobj	-16096
1211	-16097
EHCI	-16098
_64.	-16099
▁NOR	-16100
▁Could	-16101
ipr	-16102
faults	-16103
ifm	-16104
320_	-16105
FATAL	-16106
▁SLAVE	-16107
UNSUPPORTED	-16108
▁pT	-16109
▁"[%	-16110
FICATION	-16111
________	-16112
16:	-16113
61,	-16114
sat	-16115
PINMUX	-16116
▁tnode	-16117
lyr	-16118
Dell	-16119
smps	-16120
▁rqd	-16121
(1));	-16122
▁iblock	-16123
▁domains	-16124
▁greater	-16125
mca	-16126
SURF	-16127
dispclk	-16128
▁asy	-16129
usbdux	-16130
imem	-16131
▁Any	-16132
▁cpl	-16133
9118_	-16134
▁activity	-16135
▁corruption	-16136
386	-16137
bsp	-16138
77693_	-16139
skipped	-16140
cep	-16141
▁zs	-16142
skey	-16143
▁HFS	-16144
devno	-16145
▁mn	-16146
COOKIE	-16147
seqcount	-16148
rtr	-16149
txwi	-16150
subdevs	-16151
▁wrmsrl	-16152
GRAPHICS	-16153
sockaddr	-16154
▁XT	-16155
unset	-16156
▁Di	-16157
▁mxt	-16158
wrong	-16159
ckpt	-16160
▁content	-16161
Attributes	-16162
▁scs	-16163
▁START	-16164
VIRTUAL	-16165
96_	-16166
prcmu	-16167
▁vmid	-16168
▁nvbios	-16169
8]	-16170
regno	-16171
DEFINED	-16172
▁parallel	-16173
▁adr	-16174
▁PHYS	-16175
netfilter	-16176
MFP	-16177
arvif	-16178
▁indiv	-16179
▁refclk	-16180
'},	-16181
EIM	-16182
▁tep	-16183
▁wbuf	-16184
▁aborted	-16185
CORRUPTED	-16186
▁EMUL	-16187
▁Module	-16188
classify	-16189
ACR	-16190
▁ux	-16191
into	-16192
populated	-16193
zz	-16194
ONEG	-16195
SEQU	-16196
▁avs	-16197
▁ppa	-16198
bitops	-16199
ILOG	-16200
▁LOW	-16201
▁nmk	-16202
▁Block	-16203
▁FLUSH	-16204
pbm	-16205
=%08	-16206
▁SCU	-16207
ldt	-16208
canf	-16209
▁gva	-16210
▁dget	-16211
resets	-16212
@5	-16213
SIW	-16214
aer	-16215
hpt	-16216
icv	-16217
▁produ	-16218
EXTENTS	-16219
▁FTRACE	-16220
▁MASTER	-16221
_2;	-16222
▁ae	-16223
2412	-16224
▁PIC	-16225
▁UPF	-16226
▁cross	-16227
69_	-16228
▁SRAM	-16229
procfs	-16230
▁GPIOs	-16231
▁frags	-16232
▁calibration	-16233
86_32	-16234
steal	-16235
▁specification	-16236
CMR	-16237
7]	-16238
RAPH	-16239
▁cport	-16240
INSTANCE	-16241
EOF	-16242
▁asc	-16243
▁mock	-16244
posted	-16245
▁incre	-16246
rand	-16247
▁rsv	-16248
ented	-16249
UTABLE	-16250
yond	-16251
ITIES	-16252
TILED	-16253
steering	-16254
BAUD	-16255
▁box	-16256
starget	-16257
PageSwap	-16258
▁Is	-16259
turbo	-16260
▁16),	-16261
adreno	-16262
deadline	-16263
▁dy	-16264
▁crt	-16265
IPSET	-16266
keybit	-16267
▁encap	-16268
▁compress	-16269
]"	-16270
78,	-16271
▁Video	-16272
8->	-16273
TDM	-16274
GLO	-16275
fcr	-16276
▁BQ	-16277
sset	-16278
parsed	-16279
▁develo	-16280
▁dispatch	-16281
dtr	-16282
rex	-16283
INCLU	-16284
isert	-16285
▁come	-16286
▁venc	-16287
vant	-16288
▁kdb	-16289
pared	-16290
protocols	-16291
▁IGB	-16292
mctrl	-16293
AFT	-16294
▁96	-16295
eint	-16296
260_	-16297
_2_4,	-16298
spare	-16299
▁dgnc	-16300
getable	-16301
sap	-16302
DPCM	-16303
armv	-16304
orth	-16305
clkin	-16306
ENOBUFS	-16307
forcewake	-16308
▁removing	-16309
▁ade	-16310
▁advk	-16311
8000000	-16312
▁kp	-16313
1010_	-16314
▁elen	-16315
isolate	-16316
▁embedded	-16317
▁23,	-16318
▁kick	-16319
Beacon	-16320
otonic	-16321
▁rotation	-16322
1,0	-16323
PAUGE	-16324
▁EDMA	-16325
▁palmas	-16326
▁product	-16327
▁FORCEWAKE	-16328
alsa	-16329
aries	-16330
endpoints	-16331
flg	-16332
▁vl	-16333
▁spufs	-16334
translations	-16335
▁join	-16336
▁Instruments	-16337
UMBO	-16338
thon	-16339
retransmit	-16340
GUID	-16341
hpet	-16342
pnetdev	-16343
▁1024);	-16344
▁torture	-16345
workarounds	-16346
ptype	-16347
_6,	-16348
wor	-16349
Anon	-16350
▁Min	-16351
▁ahc	-16352
▁vreg	-16353
ACLK	-16354
country	-16355
tis	-16356
▁day	-16357
▁hsync	-16358
fragments	-16359
91,	-16360
fiers	-16361
flvl	-16362
▁playback	-16363
▁Management	-16364
warm	-16365
▁1<<	-16366
rodata	-16367
▁updating	-16368
▁EXCEPTION	-16369
301	-16370
FLL	-16371
▁watch	-16372
software	-16373
930	-16374
ENOVO	-16375
▁rlen	-16376
mle	-16377
IOMEM	-16378
Source	-16379
▁others	-16380
SmuFeatures	-16381
++],	-16382
[9	-16383
_48	-16384
▁qspi	-16385
▁cstate	-16386
lope	-16387
CALLBACK	-16388
▁compression	-16389
9;	-16390
sir	-16391
too	-16392
TIPC	-16393
memset	-16394
mwifiex	-16395
FCTL	-16396
usbh	-16397
▁gru	-16398
digit	-16399
ya	-16400
10>;	-16401
dout	-16402
▁perm	-16403
▁aborting	-16404
elete	-16405
iic	-16406
PCIe	-16407
nomin	-16408
▁ipip	-16409
created	-16410
starting	-16411
IPA	-16412
nfsi	-16413
▁jit	-16414
stale	-16415
▁Prevent	-16416
fpriv	-16417
▁notrace	-16418
/2	-16419
atu	-16420
cea	-16421
1111	-16422
Server	-16423
MEDIATE	-16424
▁strcat	-16425
intained	-16426
XD	-16427
NID	-16428
epf	-16429
PULSE	-16430
cv	-16431
war	-16432
DCCP	-16433
exch	-16434
ISERFS	-16435
quiesce	-16436
▁UAC	-16437
▁vars	-16438
PHYSICAL	-16439
5]	-16440
emap	-16441
▁rom	-16442
MH	-16443
▁xl	-16444
8998_	-16445
INTEN	-16446
▁libcfs	-16447
▁repeat	-16448
olden	-16449
transid	-16450
▁extents	-16451
virtqueue	-16452
xed	-16453
▁<6	-16454
▁qgroup	-16455
LSI	-16456
1015_	-16457
▁beyond	-16458
▁controlled	-16459
▁rdmsrl	-16460
Arch	-16461
pvid	-16462
sparc	-16463
▁probing	-16464
scnprintf	-16465
71,	-16466
UGET	-16467
frost	-16468
LENOVO	-16469
▁hfsplus	-16470
▁EDP	-16471
810	-16472
vise	-16473
trics	-16474
_00	-16475
inp	-16476
GENE	-16477
▁PLX	-16478
▁dspi	-16479
▁mouse	-16480
▁matrix	-16481
772	-16482
TCO	-16483
▁AA	-16484
idth	-16485
izer	-16486
▁far	-16487
))\	-16488
ISE	-16489
FDB	-16490
HAUPPAUGE	-16491
390:	-16492
▁2>;	-16493
EFUSE	-16494
▁1;/*	-16495
aspeed	-16496
▁modeset	-16497
samp	-16498
▁infra	-16499
candidate	-16500
MANAGEMENT	-16501
APCI	-16502
▁limited	-16503
21-	-16504
sson	-16505
▁phb	-16506
URATION	-16507
axp	-16508
iclk	-16509
▁Amp	-16510
LONGS	-16511
TRUE	-16512
▁60,	-16513
_34	-16514
▁./	-16515
scroll	-16516
QPS	-16517
pcfg	-16518
▁Conne	-16519
▁Index	-16520
▁evict	-16521
xts	-16522
dppclk	-16523
▁cdclk	-16524
pptable	-16525
reflink	-16526
▁processors	-16527
▁chars	-16528
validity	-16529
txb	-16530
▁tu	-16531
()))	-16532
▁MPU	-16533
retri	-16534
btv	-16535
BOUNCE	-16536
PERCPU	-16537
▁gnttab	-16538
combined	-16539
fio	-16540
apad	-16541
",0},	-16542
cksum	-16543
▁High	-16544
▁Name	-16545
▁nbits	-16546
▁evergreen	-16547
DLL	-16548
MEN	-16549
ali	-16550
lidp	-16551
sigmask	-16552
▁linked	-16553
225	-16554
GPE	-16555
jid	-16556
▁dq	-16557
rxtx	-16558
▁BFA	-16559
alink	-16560
lackfin	-16561
▁Broadcom	-16562
XS	-16563
▁GM	-16564
ADSP	-16565
Master	-16566
(13	-16567
▁LT	-16568
LOUD	-16569
UGETLB	-16570
hilips	-16571
vtotal	-16572
▁MVNETA	-16573
▁collect	-16574
SCU	-16575
▁overhead	-16576
032	-16577
OPC	-16578
▁FAILED	-16579
inflight	-16580
deprecated	-16581
sff	-16582
sumers	-16583
Idx	-16584
186_	-16585
[]){	-16586
cedu	-16587
▁light	-16588
timeouts	-16589
▁storvsc	-16590
▁obsolete	-16591
▁ctnetlink	-16592
4))	-16593
▁wd	-16594
SRIOV	-16595
keeper	-16596
▁Exynos	-16597
▁=%	-16598
Path	-16599
▁30)	-16600
▁sme	-16601
▁%.	-16602
▁LS	-16603
UOUS	-16604
iint	-16605
▁**/	-16606
▁bogus	-16607
DIE	-16608
ixgbe	-16609
▁dram	-16610
NESTED	-16611
▁ordering	-16612
501_	-16613
▁FEAT	-16614
EGRESS	-16615
msec	-16616
▁named	-16617
▁toshiba	-16618
▁ICL	-16619
uinfo	-16620
▁asid	-16621
▁acceler	-16622
SAR	-16623
aly	-16624
▁[2]	-16625
stone	-16626
TILING	-16627
▁dataoff	-16628
▁entropy	-16629
pcl	-16630
deep	-16631
umac	-16632
▁GRE	-16633
▁WIN	-16634
TRANSMIT	-16635
▁cmdline	-16636
▁specifies	-16637
▁AI	-16638
▁slen	-16639
fsdata	-16640
JOURNAL	-16641
ISOL	-16642
▁%1,	-16643
BUFSIZE	-16644
ALS	-16645
UNIX	-16646
ATHER	-16647
▁strip	-16648
inel	-16649
pfns	-16650
rphy	-16651
hwsim	-16652
▁======	-16653
,-	-16654
Mhz	-16655
Rule	-16656
LEVELS	-16657
asecmp	-16658
▁zones	-16659
INGRESS	-16660
▁prestera	-16661
▁CRT	-16662
▁mib	-16663
Kernel	-16664
portal	-16665
▁iclog	-16666
cpuc	-16667
▁mpls	-16668
ADJUST	-16669
▁haddr	-16670
.</	-16671
006	-16672
16-	-16673
▁pdu	-16674
[...]
